#version: 0.2
Ġ t
Ġ a
i n
h e
r e
n d
o n
a t
Ġ c
Ġ s
e r
Ġt he
o r
e s
e n
o u
a n
i t
in g
Ġa nd
Ġ p
a l
Ġ w
Ġt o
Ġ f
i s
Ġ o
a r
Ġ m
i m
Ġ b
Ġ in
e d
i on
s t
Ġ d
l e
i c
Ġo f
r o
en t
Ġ e
o m
Ġ re
Ġt h
Ġ y
| >
< |
c t
Ġ h
Ġy ou
v e
a s
Ġ l
u s
e t
i l
Ġ T
c h
r a
Ġc an
Ġ n
Ġth at
e nd
ar t
at ion
i d
Ġ g
Ġ is
c e
Ġf or
Ġb e
o l
o w
Ġp ro
it h
o t
Ġs t
Ġ I
er s
Ġ A
l y
Ġ he
i f
i g
Ġ on
st art
u t
Ġ us
Ġw ith
Ġa re
Ġ or
Ġs u
m ent
Ġa n
i r
u l
at e
s e
a y
Ġe x
Ġ <|
Ġyou r
a m
u r
Ġa l
Ġa s
es s
Ġ it
e l
a b
v er
Ġc on
u re
k e
g e
u n
o d
Ġc om
e re
Ġ S
ĠT he
i es
or t
Ġ v
Ġd e
Ġ C
i v
es t
Ġh a
Ġ im
o re
o p
i ve
e ct
q u
it y
ou t
' s
Ġw h
p p
he r
Ġ en
an t
i al
Ġm a
Ġc h
c k
Ġim p
Ġn e
e m
is t
Ġ le
t h
. <|
ion s
om e
l d
i z
Ġ H
u st
n t
a in
u d
Ġin t
l p
il l
Ġ M
Ġhe lp
a d
u m
o c
Ġ r
ig h
Ġa d
p l
Ġs e
ĠT h
re s
ou r
Ġ 1
id e
ab le
Ġ P
Ġ B
p t
Ġthe ir
Ġw e
al l
Ġw or
Ġin c
a ge
Ġs p
ĠTh is
Ġt e
Ġs h
p le
c c
r i
in e
? <|
ou ld
Ġha ve
a re
o s
Ġp l
o g
ĠA I
d u
f f
a ct
Ġ F
ro m
ation s
Ġ 2
Ġm ore
Ġb y
Ġ W
or m
ic al
re at
Ġ -
Ġs ome
p er
Ġ R
t her
igh t
Ġf e
Ġ u
Ġre s
c es
Ġm e
k ing
Ġd at
Ġa b
a nd
Ġf rom
Ġt ra
f orm
t er
an ce
Ġ D
Ġa r
a g
ve l
Ġpro v
ig n
ul t
Ġ E
o o
Ġ 3
Ġsu ch
k s
Ġus e
Ġ O
s o
an s
Ġcon t
Ġo ther
i e
Ġm an
Ġus ed
Ġdat a
Ġa t
a ck
a ch
Ġa cc
a st
e c
i p
ar n
Ġex am
e p
ĠI n
Ġt r
Ġ j
Ġal l
res s
Ġa pp
im e
Ġc l
Ġal so
Ġ L
if ic
Ġh as
Ġre c
Ġ 4
Ġcom p
in d
Ġn ot
ct ion
r ou
ic h
Ġinc l
Ġg o
en ce
i b
f ere
Ġ un
u al
Ġh ow
Ġan y
ar d
Ġp re
ic e
it ion
el l
Ġw ill
Ġw he
Ġthe y
ĠI t
Ġth is
ou s
Ġincl ud
o st
ment s
a v
Ġd is
Ġ ro
g h
at ed
Ġd if
ch n
Ġs y
an g
Ġ out
Ġad d
Ġle arn
Ġe m
Ġin d
a ce
Ġt a
al th
Ġ 5
i ke
Ġin v
r u
Ġe ff
or s
a c
Ġwh ich
i ent
Ġ G
Ġte chn
u e
Ġthe m
m s
Ġab out
Ġ qu
i re
Ġc re
i le
Ġ (
Ġcom m
Ġc ol
Ġw as
as e
vel op
it ies
Ġ k
it e
Ġ U
Ġwor k
ou nt
Ġne ed
Ġhe alth
Ġs c
Ġ N
Ġt ime
Ġw ay
Ġma ke
r y
Ġl ike
a il
Ġu p
on g
Ġp er
n s
st em
Ġ "
ĠH ere
Ġd o
as s
o nd
Ġdif fere
f ul
g et
er v
Ġo ver
Ġimp ro
Ġof f
Ġprov ide
on e
ol og
Ġe v
in t
Ġde velop
Ġb ut
Ġne w
Ġexam ple
iz e
Ġs o
ust om
Ġp ers
Ġm ay
Ġm od
g or
Ġimp ort
Ġus ing
l es
al s
ul ar
Ġd es
Ġthe se
Ġsy stem
b er
Ġcon s
ou nd
ar y
al y
Ġthe re
Ġpro g
Ġc ustom
c ess
ar i
as ed
Ġsp ec
Ġ Y
Ġm ed
Ġen s
ra ct
ent ial
ar k
l ic
ing s
ure s
gor ith
Ġcre ate
Ġ J
Ġp e
Ġ if
if y
Ġal gorith
Ġit s
Ġpro du
Ġex per
a p
o od
Ġp at
Ġf un
ra m
pp ort
C an
id ent
Ġst r
en s
Ġpers on
il ity
l ow
er t
Ġb et
i a
n e
Ġimport ant
Ġwh o
Ġp r
c is
j ect
on s
b s
Ġlearn ing
ic es
or y
Ġan aly
Ġint o
Ġre du
Ġdiffere nt
il d
at er
ur al
Ġs oc
n ow
Ġimpro ve
Ġo pt
or d
oo k
at ing
am e
nd er
Ġ ke
g g
i ence
rou gh
Ġtechn olog
Ġens ure
ic s
w e
Ġv al
om m
Ġin form
al ly
an ge
Ġm y
x t
i qu
an c
Ġsh ould
Ġc ould
Ġv ari
Ġp art
Ġre l
ent s
Ġas s
er g
o b
o y
Ġa ct
iz ed
u es
Ġres p
Ġe ach
Ġd et
Ġhe r
Ġtr ans
Ġp ot
Ġg en
a k
Ġ ident
Ġre g
re e
Ġprov id
Ġex pl
it s
Ġinv est
ĠS t
Ġu nder
Ġperson al
et y
at ive
Ġe le
Ġth rough
Ġpro cess
Ġfun ction
Ġad v
Ġex p
Ġman y
Ġk now
Ġs a
y p
Ġon e
Ġar t
Ġwhe n
ĠF or
Ġm us
Ġeff ect
Ġre t
Ġm et
b ot
ic t
ur ing
Ġw ould
l l
Ġcom ple
ver y
Ġb u
Ġg reat
Ġcomm un
Ġdes ign
ot h
ĠC h
Ġc reat
Ġp os
Ġint er
op le
Ġh um
g an
ro w
ang u
ĠY ou
ar ch
Ġa m
o se
o ve
e f
c y
ib le
Ġre p
n ess
Ġs m
Ġn um
Ġinform ation
Ġpot ential
at es
â Ģ
o v
Ġprodu ct
Ġa v
Ġs k
Ġto ol
in ess
Ġpe ople
Ġs et
Ġre qu
ip s
our ces
' t
Ġimp act
in es
ic k
Ġ our
Ġinclud ing
Ġl angu
pl es
Ġs erv
Ġspec ific
Ġtechnolog y
od e
f t
ow er
t e
Ġha d
is h
Ġr is
Ġs ign
Ġt yp
Ġsu pport
Ġacc ess
Ġb l
Ġident ify
Ġsoc ial
Ġw ell
ĠI f
Ġall ow
Ġh igh
t ing
ark et
Ġbe c
st and
Ġf ind
Y es
Ġ 6
iv id
Ġb us
Ġwh ile
r it
Ġf in
Ġgen er
Ġtra in
Ġc o
Ġper form
ĠThe se
omm end
Ġprog ram
he s
Ġwh at
erg y
id er
Ġwhe re
Ġin st
e ver
Ġfe w
Ġrec ommend
h at
Ġbe en
a ke
Ġ V
Ġinc re
Ġt as
ra p
Ġle ad
Ġf l
Ġc he
we en
ert ain
e g
Ġbet ween
Ġst ud
Ġp ract
en g
u b
ĠH ow
ra y
S S
ere d
Ġre m
Ġalgorith ms
Ġl oc
Ġat t
i ous
ĠB y
Ġmod el
ĠThe y
Ġa ut
if e
ar s
Ġsystem s
d ition
w or
Ġcustom er
Ġv is
Ġth an
Ġredu ce
ĠA s
a us
Ġbus iness
Ġanaly z
Ġunder stand
Ġse c
al ity
Ġlangu age
Ġa g
Ġm arket
ir on
Ġp ol
i en
ie w
Ġen g
iv ers
Ġen ergy
ol d
ag es
d e
Ġl ist
Ġp op
h y
Ġn at
ĠA d
l ine
Ġpl ay
iv es
Ġta ke
Ġman age
ivid ual
Ġinclud e
p ut
le ct
ur n
Ġm ost
o ck
Ġpl an
f ore
Ġj ust
v iron
Ġ ve
ĠW e
Ġg u
ĠU se
Ġwor ld
oc us
Ġ K
w are
Ġm in
Ġw ant
Ġpro m
Ġw ere
ar m
Ġp o
0 0
Ġcomp an
ri b
Ġma ch
Ġfe at
Ġc ult
Ġch all
Ġse e
Ġind ividual
c l
Ġs im
Ġha nd
p s
ol low
O SS
ir st
Ġen viron
Ġind ust
ol ut
Ġs he
Ġus er
Ġcl ass
ol v
Ġexam ples
se l
h od
Ġfe el
b le
w n
in k
gg est
ay s
ru ct
Ġor gan
ere st
Ġst art
ard s
c are
ion al
Ġh is
Ġ ra
Ġsu ggest
Ġdis c
ĠM OSS
iqu e
r ic
Ġin s
u c
Ġgo als
Ġmet hod
ow n
re d
n ce
Ġmus ic
Ġway s
S ure
it ive
st ain
Ġsu stain
Ġ ed
Ġde p
Ġwe bs
ĠO ver
Ġg et
Ġapp ro
Ġsign ific
Ġb ased
ou gh
Ġf ollow
il y
Ġo b
Ġl ar
Ġbu ild
Ġc ode
Ġenviron ment
Ġch ar
Ġf ocus
ant s
Ġe as
Ġint erest
Ġt w
ri end
a ir
Ġeffect ive
ĠHow ever
ab ility
Ġde cis
Ġmed ia
Ġexper ience
Ġl ong
Ġthe n
Ġhum an
t s
Ġke y
er m
Ġbe ing
n g
Ġb re
as es
Ġtra ck
nd s
Ġb ack
t en
Ġpre v
Ġoff er
Ġdevelop ment
Ġst y
Ġte am
Ġd i
Ġm on
Ġsm all
Ġb en
Ġtas ks
Ġre al
Ġnum ber
Ġsignific ant
Ġpro f
Ġb ra
Ġse ver
Ġc le
Ġin f
Ġis s
ill s
Ġg rou
Ġact iv
Ġalgorith m
Ġpat ient
ot e
iz ation
Ġma king
Ġchall eng
Ġb est
Ġtool s
Ġst ep
Ġf ood
Ġgo od
H ow
Ġnat ural
n ing
b ers
Ġpro t
Ġc ar
Ġte xt
Ġsever al
Ġres ources
Ġe c
Ġc ur
Ġpro ject
Ġe very
Ġar ray
Ġris k
is s
T he
Ġmach ine
Ġbe fore
le ment
cc ess
ĠOver all
Ġm em
Ġo wn
iv ing
Ġe th
Ġben ef
oo se
ab les
Ġf irst
Ġma de
Ġl ife
pl oy
k es
Ġres ult
Ġp ower
Ġw ater
Ġst re
er n
i x
o id
Ġpat ter
bot s
Ġtw o
Ġeff ic
Ġke ep
Ġhealth care
ight s
anc ial
Ġwebs ite
Ġc ond
Ġsu b
is e
Ġev en
Ġpop ular
Ġcomple x
Ġfor m
b ack
Ġc are
p or
Ġc all
Ġa c
r ies
c ing
rib ut
Ġd uring
he d
Ġt ips
Ġb r
aus e
Ġre v
Ġb i
Ġ ide
ation al
ical ly
Ġsu r
im ate
Ġimp lement
Ġre se
âĢ Ļ
Ġresp ons
Ġoff ers
v ing
Ġopt ions
a pt
Ġcons ider
Ġanalyz e
ate g
on om
Ġ ent
Ġneed s
i ed
Ġsu re
Ġcont in
n er
Ġg row
Ġst ay
c ed
Ġfin ancial
Ġtrans p
Ġ 7
ch ie
Ġb oth
Ġqu est
Ġhe re
Ġl o
Ġf am
ic ation
Ġrequ ire
Ġpre d
' re
Ġchar act
res ent
Ġch at
ag ing
ot her
Ġm ent
Ġval ue
Ġm at
Ġa chie
Ġn o
ri pt
Ġstr ateg
Ġc ount
Ġch ang
i an
em ber
Ġfeat ures
ĠT o
Ġh ist
Ġf act
Ġtr y
Ġexpl ain
Ġle vel
Ġass ist
at her
Ġun ique
Ġre f
Ġde f
en se
at form
u p
as h
Ġl ight
Ġa ff
Ġs al
c er
Ġsu ccess
Ġf u
Ġde c
Ġr ange
Ġsustain able
og n
Ġp ur
Ġen c
sel f
i o
Ġt reat
Ġg ive
Ġbet ter
a king
Ġsk ills
Ġindust ry
Ġon line
Ġwor ks
Ġperform ance
he n
Ġacc ount
ĠP ro
Ġed uc
e e
n ect
Ġon ly
Ġa ud
ĠA n
Ġof ten
er cis
Ġpl atform
Ġadd ress
Ġbe h
Ġp h
Ġche ck
Ġtrain ing
ial s
i er
l ed
Ġprot ect
Ġso ft
Ġpart ic
Ġlar ge
Ġo p
Ġob ject
Ġpred ict
Ġc al
in ation
dition al
p ect
Ġ ess
Ġpatter ns
Ġapp lic
Ġav ail
Ġinv olv
Ġy e
wor k
Ġd on
Ġcont ent
ab or
c om
a ut
Ġeth ical
Ġc our
ur ity
et s
Ġd ay
ist s
ce pt
n ces
Ġf ut
Ġem ot
d er
ĠH e
it or
Ġto p
ort s
Ġint eg
Ġe qu
Ġm ult
Ġar ound
i ety
od y
or por
Ġmanage ment
i el
Ġre ad
Ġt re
Ġd ist
ĠC an
Ġex ercis
Ġg l
Ġch ange
Ġcol or
d s
Ġprev ent
Ġin put
Ġsh ow
Ġsp ace
Ġfut ure
Ġrese arch
iqu es
Ġopt im
in s
Ġcon f
ĠR em
Ġt est
it ions
er y
f ter
Ġcustom ers
Ġd own
Ġd r
Ġre st
it ed
Ġpos s
Ġl ook
Ġus ers
Ġwith out
Ġd el
Ġtra ditional
h ing
h ip
end ing
Ġpro ble
Ġprof ess
ou ra
Ġcomm on
Ġfe ed
Ġindividual s
Ġro om
Ġsa f
Ġex t
is m
Ġc ost
Ġare as
e x
Ġo per
Ġh ome
Ġp ass
w ays
Ġtechn iques
Ġexper ien
Ġm ater
Ġiss ues
Ġhealth y
get her
Ġto gether
Ġproduct s
Ġinvest ment
Ġcreat ing
Ġd ivers
on t
iv en
ir t
ow ered
Ġallow s
Ġbenef its
Ġcon nect
Ġj ob
il ities
w ards
a x
Ġreg ular
re en
Ġm ind
m ing
Ġaut om
Ġchalleng es
Ġavail able
v ers
Ġp ub
Ġma int
re nt
ne w
am p
ertain ly
Ġpract ices
Ġf il
Ġav oid
ĠThe re
Ġinter act
Ġst ate
s is
Ġc or
el s
Ġprovid es
re ad
Ġem ploy
Ġval ues
op e
t il
a z
Ġrec ogn
Ġme as
ĠR e
t y
p owered
u ch
Ġvari ous
Ġs it
c ript
ver n
pport un
Ġcompan y
Ġth ose
oo king
or ies
Ġvari ety
i or
Ġpro per
m m
er r
Ġele ments
Ġbe l
om et
Ġbusiness es
Ġn et
ast e
Ġfeed back
l abor
Ġo pportun
Ġactiv ities
Ġst ore
Ġun til
Ġadd ition
Ġdif f
Ġe nd
at s
Ġs er
Ġcont ro
Ġsoft ware
it al
ri or
ac y
Ġdet ect
Ġprovid ing
ro p
Ġloc al
Ġg ra
Ġhelp s
el f
Ġmult i
ud get
Ġam ount
Ġgu id
s s
l ing
Ġserv ice
ĠRem ember
Ġpl ace
Ġstep s
Ġdecis ions
ol ve
Ġst ill
Ġstud ents
Ġto o
Ġincre ase
Ġother s
Ġw rit
one y
Ġserv ices
os s
W hat
Ġt im
iv ity
ar get
Ġrel ations
Ġess ential
C ertainly
Ġtyp e
ĠO ne
Ġdo es
Ġse arch
Ġpos itive
es p
Ġal ways
Ġne g
Ġsec urity
Ġab le
Ġ2 0
Ġl a
Ġdet erm
Ġdet ail
e ad
Ġf riend
e w
Ġbec ome
Ġment al
f ort
Ġpersonal ized
Ġus es
Ġt able
Ġprog ress
Ġlo op
Ġanaly sis
Ġl im
re n
' m
Ġs ound
Ġknow n
Ġcom b
olut ion
Ġb udget
Ġre le
o ice
Ġr ight
Ġs ources
Ġs ort
Ġmed ical
Ġcur rent
Ġf ound
ain s
Ġve get
Ġbeh av
Ġquest ions
Ġp ie
Ġpub lic
Ġb al
p h
t ed
Ġde m
Ġle t
Ġg ame
iz ing
if ied
Ġf ree
Ġeas y
Ġsty le
Ġb ody
l ish
ĠB e
Ġcle ar
Ġwor king
Ġposs ible
ĠA m
Ġc ity
Ġn ut
ĠD o
anc ed
Ġtyp es
Ġm ot
Ġt arget
j ust
ĠP y
l u
j oy
Ġdesign ed
! <|
Ġcont ribut
Ġsh are
Ġec onom
Ġpo int
Ġl ow
th on
a ve
Ġth ink
Ġhist ory
fere nces
ic ult
Ġchang es
Ġg r
ruct ure
Ġm ess
Ġm ust
Ġeduc ation
Ġinclud es
Ġde v
Ġf iel
av a
it ing
Ġeffic ient
Ġpol ic
Ġstr ing
Ġpr iv
er ing
ĠE n
Ġmon itor
ĠE x
es e
ib ility
ur ns
Ġmarket ing
Ġch oose
our ce
ual ly
iz ations
Ġfollow ing
Ġ .
Ġs ame
r ite
Ġst ory
Ġf ac
Ġredu cing
Ġl ess
Ġdiff icult
Ġcult ural
Ġm uch
an ces
Ġinvolv es
Ġcompan ies
Ġha pp
ĠW h
Ġst and
Ġachie ve
ĠS ome
hy s
Ġa fter
Ġr un
Ġm ight
ient s
Ġqu ality
t o
ĠA l
ĠW hen
Ġag ain
pl ace
ĠS p
Ġp ain
Ġev ents
Ġm ove
Ġup d
Ġinteg r
Ġexpl ore
Ġro le
Ġp rior
ra ms
us ion
Ġp ort
Ġappro ach
ĠS he
Ġmater ials
Ġor der
im ent
Ġcommun ity
ff ic
in ed
Ġto wards
Ġele ment
Ġs elf
Ġ est
Ġinc orpor
Ġw ide
ĠPy thon
Ġbel ie
ĠC ons
Ġbe aut
Ġcomp ut
Ġop en
Ġover all
ĠJ ava
Ġcontro l
Ġs ense
Ġp ar
Ġprom ote
ic ate
dition ally
rap h
Ġro bots
Ġc r
Ġgo vern
ro ss
u ra
Ġstrateg ies
Ġt em
Ġmaint ain
Ġe ar
Ġl iving
Ġsp e
Ġf it
Ġ ,
) .
Ġad just
em s
Ġfact ors
Ġtransp ort
Ġta king
o ot
ur ate
Ġexperien ces
Ġpartic ular
Ġrecommend ations
Ġj o
Ġmod ern
as ing
Ġ1 0
Ġc ertain
Ġ 8
l ess
h ips
Ġmin im
i res
ar ing
Ġch ild
ĠW ith
Ġaud ience
Ġp ay
en cy
av or
ĠA nd
Ġcom fort
Ġh ope
' ll
Ġcol labor
ĠD e
ent ion
m ed
Ġf ore
ĠAd ditionally
Ġle g
c i
Ġcommun ication
Ġp hys
Ġ *
Ġsoc iety
oura ge
ĠU n
Ġcharact er
b e
Ġme ans
Ġv iew
Ġd ress
Ġopportun ities
Ġ âĢ
Ġm oney
Ġbehav ior
Ġs ens
Ġfam ily
ĠG o
Ġt ell
ou se
v ant
Ġmulti ple
Ġs omet
o ol
at or
Ġacc urate
Ġc ent
irt ual
Ġsy m
Ġen joy
as on
at ch
Ġcon cer
Ġf ul
Ġret urns
ut es
ress ion
Ġta kes
Ġr out
Ġinf lu
Ġqu ick
c ul
Ġ err
v ed
Ġgener ate
ib r
ell ig
f it
Ġcon st
f act
Ġbra nd
r on
in ing
Ġsu mm
v en
Ġem ail
d ay
Ġaff ect
ur s
Ġpr int
ire ct
b ased
Ġtra vel
Ġo il
Ġc ap
Ġme et
Ġsim ple
Ġconcer ns
Ġnum bers
Ġc amp
Ġret urn
Ġneg ative
Ġexp ens
t ime
Ġsit u
Ġl and
Ġv ide
Ġchat bot
Ġpre ferences
v es
Ġprog rams
Ġrep resent
rou nd
Ġye ars
Ġdecis ion
ĠP l
ĠS h
f riend
u g
ĠF in
Ġs n
Ġpro te
Ġcult ure
ĠI nt
ĠAd d
p ro
Ġst ress
a ces
ĠB ut
Ġeng age
) ,
Ġc rit
Ġde ep
Ġstr ong
Ġprofess ional
Ġreg ul
Ġprom ot
Ġwith in
Ġhum ans
Ġim ages
Ġgrow th
ĠM an
ist ic
Ġbuild ing
Ġele ct
Ġre new
Ġne cess
th ing
r al
Ġan other
Ġyour self
ag n
Ġcons um
Ġorgan izations
a h
Ġbre ak
Ġdis e
Ġst ock
Ġta x
ĠW hat
Ġide as
Ġgrou p
an k
Ġt our
Ġa ir
Ġbec ause
re ate
Ġs ent
w ay
Ġc ase
Ġenvironment al
Ġmot iv
w ord
o ver
Ġunderstand ing
ĠIn st
Ġsh ort
ire d
Ġs av
Ġtransport ation
Ġo cc
Ġdiffere nce
. "
friend ly
al e
Ġin it
Ġd ig
Ġan im
Ġvis ual
b r
Ġpract ice
ĠA r
Ġb as
Ġcom e
f ect
al u
Ġtreat ment
w ard
Ġev ent
e es
Ġeffective ly
ien cy
Ġmin utes
Ġm ix
le t
Ġint erv
oo ks
Ġcond itions
Ġcol ors
Ġcour se
Ġl og
Ġapplic ations
il ar
le x
us h
Ġp ast
pt ion
Ġcle an
Ġtechnolog ies
Ġcl imate
le ction
Ġm ov
Ġrenew able
Ġ [
Ġp ost
Ġprogram ming
Ġl ove
er ic
Ġb o
res h
g in
us s
or ing
le ase
Ġab ility
t le
at h
he re
Ġn on
Ġrev iew
ĠI nd
Ġhand le
is ed
Ġplatform s
ri ate
Ġnecess ary
ash ion
Ġth ough
Ġ $
l er
Ġf ile
ord ing
Ġlevel s
n ov
Ġdeterm ine
Ġdep end
Ġprote in
are nt
w s
Ġproble m
Ġexp ect
Ġimpro ving
led ge
om p
Ġ i
Ġsu pp
\ _
Ġare a
b o
Ġvis it
op p
om s
ter n
a ign
Ġmethod s
at ure
Ġsuccess ful
g er
are d
Ġsomet hing
u ct
Ġper fect
k en
Ġwe b
Ġv irtual
Ġtim es
Ġstre ng
Ġsc he
Ġh im
ne y
Ġad apt
n ot
Ġeffect s
Ġw aste
Ġe l
oc i
Ġthrough out
Ġopt ion
am es
f or
Ġdi et
u ment
ĠM ake
ĠT e
Ġprior it
Ġpriv acy
o es
Ġcharact ers
Ġmem bers
Ġappro p
Ġre ce
ific ation
ur ther
Ġrele vant
Ġprocess ing
i pp
Ġd id
Ġme an
al k
Ġphys ical
Ġpatient s
ĠCons ider
Ġpre p
Ġh ig
Ġcol lect
l ight
Ġint ellig
Ġd irect
Ġcall ed
ĠL e
l and
p o
Ġemot ions
m e
Ġf ashion
o or
ĠT ra
Ġneed ed
Ġoptim ize
Ġapprop riate
Ġmodel s
Ġfiel d
c ome
Ġs at
Ġg reen
Ġc aus
Ġl ay
Ġexercis e
Ġcamp aign
Ġcommun ities
ap e
Ġagain st
Ġcomple te
Ġsc en
h or
Ġfriend s
e k
Ġrec ip
Ġh arm
Ġcomp et
Ġtas k
Ġd est
Ġcontin ue
b on
Ġl it
Ġwrit ing
Ġsa ve
Ġeffic iency
Ġa ware
Ġspec ial
c ial
Ġhe art
Ġd ra
Ġv ers
ĠC l
ĠCh oose
com es
Ġp res
s c
ig ate
Ġbal ance
Ġanalyz ing
Ġl ine
Ġth ings
Ġdevelop ing
Ġcal cul
a ur
Ġm il
ac hes
ĠI m
re t
a f
Ġdi agn
Ġcomfort able
Ġris ks
Ġide a
Ġpe pp
in al
ĠE m
ond s
Ġresult s
Ġrequ ires
os p
Ġfu nd
d r
Ġmeas ures
Ġtrain ed
ĠO nce
ch ool
Ġout comes
Ġp resent
ĠL et
Ġl ives
Ġdevelop ed
Ġgrou ps
Ġlead ing
ĠS c
st r
r ics
Ġc y
Ġveget ables
on es
Ġ Q
Ġin nov
on se
Ġout put
ire ment
c le
Ġsaf ety
Ġstate ment
Ġinter n
Ġeff orts
ra st
Ġvari able
Ġexercis es
r im
Ġne xt
Ġj our
Ġexpens es
Ġt er
Ġar g
Ġf re
Ġt ri
Ġl oss
olut ions
ver t
ura cy
Ġre ach
Ġh ot
Ġrelations hips
her s
Ġnet work
Ġbl ock
Ġeng ine
u ce
Ġknow ledge
Ġcon vers
Ġa ction
Ġ Z
Ġm ar
Ġhelp ful
red ients
Ġpur ch
Ġf ace
Ġs le
Ġl ower
Ġ =
d ing
Ġl ooking
en ces
I t
Ġf low
Ġsuggest ions
Ġinvest ing
Ġeconom ic
Ġaddition al
Ġmat ch
ĠC on
Ġrequ est
iss ions
Ġ 9
Ġb ro
Ġhe ad
L P
Ġpower ful
re ct
Ġb ook
Ġadv ice
Ġex ist
Ġacc uracy
Ġprodu ction
ĠC ol
Ġh ard
Ġret irement
ast er
Ġwor ds
Ġtre nds
Ġs w
Ġs ide
n ers
Ġn ame
ter m
ill ed
iz es
ro du
it ation
ar ies
Ġac ross
pl ay
Ġass oci
ic ious
Ġp ack
Ġde b
Ġlike ly
if ul
Ġstud y
Ġw arm
Ġapplic ation
Ġim age
ĠFin ally
Ġins p
Ġresp ect
ial ly
Ġdat as
Ġquick ly
) :
Ġn ow
t on
Ġrecogn ition
Ġcount ries
Ġcol um
Ġs olutions
Ġs ize
ut e
Ġen h
Ġsome one
Ġst ructure
Ġc ause
Ġgovern ment
Ġapp e
Ġrest aur
os ing
Ġproble ms
Ġbr ing
Ġdivers e
Ġsim ilar
Ġstreng th
p r
in ce
o h
or k
ĠWh ile
Ġgo al
Ġinc ome
olog y
Ġma kes
Ġf resh
Ġchat bots
Ġincre asing
Ġadv anced
Ġn av
id es
m at
our s
ĠK e
ack s
Ġs ol
wor ks
cl usion
Ġcre d
Ġl ibr
Ġcan not
Ġrespons ible
Ġev alu
oth ing
Ġ1 9
ore d
Ġit ems
Ġresp onse
Ġemploy ees
Ġpol it
Ġc ook
Ġst ru
ic les
Ġdev ices
Ġse lect
ur y
el ines
c hes
Ġw ind
A s
us e
s ide
at ives
Ġcost s
Ġp a
ĠS et
Ġd one
Ġs ect
ab ilities
Ġimport ance
qu ality
Ġne ver
Ġins ights
Ġbeaut iful
ort h
Ġgl ob
Ġindust ries
Ġintellig ence
Ġmon th
Ġbl ack
Ġwe ather
Ġpl ant
ail y
at a
Ġem erg
Ġhig her
s es
Ġsat is
Ġinst ead
i um
Ġpolic ies
it es
Ġresp ond
e xt
t ics
Ġemot ional
Ġf ru
Ġit er
Ġproject s
ific ial
p ar
ad e
Ġstru gg
Ġas k
S cript
g ing
Ġbe gin
Ġmess age
Ġeng aging
Ġcont ain
f ol
Ġim m
Ġma x
og le
Ġdec or
Ġch ick
Ġthe rap
Ġf urther
Ġe y
Ġdig ital
Ġwork out
Ġout fit
ive ly
ĠS e
Ġdetail s
Ġpie ces
Ġro bot
Ġpriorit ize
y n
Ġw om
Ġh old
ĠAm eric
t t
Ġpur p
Ġs ource
ram e
Ġye ar
ers on
f er
Ġc ru
ĠS o
Ġ ing
Ġcar bon
Ġb reat
ent ly
Ġre ally
Ġsaf e
Ġp air
e le
Ġcon c
Ġfeat ure
Ġd aily
Ġregular ly
T hat
en er
Ġaff ord
Ġfocus ed
Ġl if
00 0
Ġst at
h old
Ġcons ist
Ġwho le
a ks
ot s
Ġchalleng ing
Ġpl ants
ak es
Ġma in
Ġchild ren
' ve
Ġdisc uss
Ġh ab
Ġallow ing
Ġtra ffic
ĠS u
Ġevery one
Ġs ing
g es
is ing
f ace
b y
Ġrel ated
Ġc up
Ġenc ourage
Ġhapp y
Ġf r
Ġacc ording
re he
Ġinvest ments
Ġcor rect
ĠI s
Ġnot e
Ġv ol
Ġeas ier
ele br
Ġch oice
ĠJava Script
Ġen ough
ag ed
Ġnat ure
ĠN ew
is hed
l ife
ud e
Ġport fol
Ġref lect
Ġiss ue
Ġd ue
en c
Ġear ly
Ġ esp
Ġal ong
Ġcl othing
Ġor ig
Ġexp ress
ĠIn c
Ġb row
Ġt urn
Ġt ou
Ġrec ord
an n
Ġcon cept
Ġcour ses
Ġbec om
Ġtr ust
Ġcomplex ity
al ing
Ġwhe ther
Ġg ain
ĠAn other
Ġadv ance
ĠY our
Ġex ec
Ġg iven
Ġstrateg y
iv al
Ġl ast
Ġtyp ically
il t
i ate
Ġm iss
ĠA v
Ġest ab
at ors
Ġon es
Ġcond ition
Ġt ables
Ġrout ine
Ġph ot
imate ly
i ver
Ġactiv ity
Ġguid elines
ĠGo ogle
Ġch o
Ġparticular ly
Ġse qu
s w
Ġval u
Ġapp s
Ġs we
Ġpl ans
ĠC reate
Ġvide o
Ġ 0
er ve
T h
ĠT ake
i k
y le
se qu
Ġdat ab
id d
ĠU s
Ġatt ention
Ġr ate
Ġrel ax
Ġloc ation
Ġatt ract
ĠM y
Ġd oc
Ġs ong
ĠR eg
en ing
Ġc u
Ġportfol io
Ġassoci ated
Ġl ab
Ġs chool
Ġf air
ar c
f s
Ġind ex
Ġhist or
Ġar ch
Ġl ive
Ġtest ing
per v
I n
Ġfu nds
Ġfood s
m on
Ġrep ort
Ġwe ight
ru g
Ġcount ry
Ġcreat ed
Ġmem ory
end er
Ġinterest ing
Ġglob al
Ġcomm it
Ġcontin u
Ġ very
l o
Ġve h
Ġf oot
Ġ20 1
Ġcom es
Ġlim it
ec ially
ut ion
Ġsec ure
Ġd am
Ġh y
Ġadd ing
Ġcomput er
Ġp ress
, "
Ġ z
Ġquest ion
Ġsitu ation
Ġm ob
Ġl ed
Ġan sw
Ġle ft
Ġc apt
erv ation
Ġesp ecially
Ġgreat er
Ġgener al
Ġmax im
i od
Ġcru cial
Ġy og
Ġto ler
ĠL ook
Ġsty les
Ġobject s
ĠO n
Ġincre ased
Ġdep ending
Ġmean ing
Ġam ong
re am
ly ing
Ġmotiv ated
Ġs ay
Ġnew s
du le
m aking
Ġinv olve
Ġhelp ed
it ure
Ġbi as
Ġproduct ivity
Ġth ree
Ġcrit ical
t he
Ġens uring
Ġan x
Q L
Ġmind ful
for ce
Ġc ard
ul ation
Ġf ra
Ġem issions
ruct ions
s u
ir d
Ġk ind
Ġloc ated
Ġplay ers
Ġstart ed
or age
Ġamount s
el t
Ġ X
Ġse ason
Ġpromot ing
Ġact ions
Ġm om
urn iture
Ġal ign
ĠKe ep
P I
Ġsm o
en ge
op s
g o
Ġful l
ed s
y m
ver age
Ġre d
ve y
Ġimplement ing
Ġfit ness
g est
Ġf arm
Ġing redients
Ġper iod
Ġha ving
Ġprofess ion
Ġpers pect
Ġsustain ability
at ic
Ġsmall er
ct ions
Ġcreat ive
it ect
ĠN LP
Ġclass ic
iv ed
Ġpie ce
a u
Ġart ists
Ġengage ment
Ġan t
Ġex c
Ġtrans form
Ġhow ever
ĠT r
Ġpartic ip
Ġjour ney
Ġfeel ing
Ġs l
Ġstud ent
r ation
all s
Ġf urniture
Ġconf lic
c rib
Ġsle ep
A I
id ence
an e
ĠE ng
Ġprocess es
Ġf lex
in a
Ġsound s
un ch
Ġpepp er
2 0
Ġafford able
Ġn ight
Ġuse ful
v est
are n
Ġsa uce
a pp
Ġter ms
Ġinterest s
Ġincorpor ate
it able
Ġtry ing
Ġb at
ric ult
Ġcon clusion
Ġdem and
Ġtechn ique
r ing
Ġp lease
Ġcollabor ation
ĠC omp
Ġdis hes
Ġpolit ical
' d
ru ction
u fact
Ġsumm ary
Ġma j
Ġdel icious
id s
Ġrespons es
Ġfl avor
i et
Ġinform ed
Ġsp read
Ġb ig
Ġtem per
Ġche ese
ĠB l
am et
Ġrequire ments
Ġtoler ance
ict ion
Ġsal es
W rite
Ġtou ch
ĠDe velop
in ite
Ġqu ery
Ġal tern
Ġcommun icate
a cc
Ġget ting
rehe ns
perv ised
Ġwork ers
Ġsm art
pt oms
Ġsc ient
Ġenh ance
Ġorgan ization
Ġ '
Ġerr or
Ġanx iety
Ġv oice
ell ing
eng th
ĠPro v
Ġf avor
Ġfre qu
av es
he l
Ġmach ines
Ġsk in
Ġhe at
Ġchick en
Ġst orage
Ġb ar
Ġwh ite
Ġset ting
Ġlangu ages
ĠMan y
Ġarch itect
Ġop in
er ies
y stem
Ġwe ek
Ġmeas ure
Ġdiagn os
iven ess
ur t
s p
Ġlight ing
Ġprovid ed
Ġ ur
Ġs low
ĠM ach
Ġrelations hip
Ġpr im
Ġplan ning
if t
Ġregul ations
Ġcon sequ
u ck
Ġrel i
Ġ ill
ee ch
ĠSt art
Ġdisc rim
Ġprev ious
Ġd rug
aren cy
sel ves
Ġstart ing
ĠC ont
Ġcomp rehens
h ood
Ġsav ings
Ġass ess
Ġcons id
t ies
Ġem p
Ġgo ing
Ġf rame
ic ing
Ġaut hor
Ġme al
Ġsym ptoms
Ġexist ing
a i
Ġpos ition
Ġcontribut e
Ġoper ations
in ary
Ġdatab ase
Ġa p
ot t
ivers ity
R A
b ol
Ġleg al
Ġh ours
Ġg ar
Ġaware ness
Ġinit i
et ic
o very
Ġvalu able
Ġerr ors
Ġmaj or
Ġdo ct
Ġaccess ible
y cl
Ġgu ide
Ġconsequ ences
Ġtr ue
Ġo ld
Ġrem ain
Ġon ce
i ans
g ar
The re
Ġrec urs
ĠD ata
Ġsche dule
em ic
Ġta il
Ġc ases
Ġmod ify
Ġcred it
ak ers
Ġc elebr
Ġp an
Ġsec ond
Ġpol l
Ġp age
Ġth reat
og raph
olv ing
Ġcont ext
Ġm en
Ġany thing
Ġl ot
Ġl at
Ġm ut
m osp
Ġdise ase
as c
Ġman ufact
Ġa way
e ly
Ġw ild
c ase
arn ing
ow s
t ers
Ġstock s
at ory
Ġinterest ed
be ing
Ġwh y
Ġsequ ence
Ġmonitor ing
inite ly
Ġrem ind
Ġset s
ĠA pp
Ġpoint s
ĠS oc
read y
Ġcomb ination
Ġg raph
Ġprofession als
Ġfind ing
am ic
Ġat mosp
Ġback g
Ġconsid ered
ul es
Ġrecogn ize
Ġchall enge
Ġbi ases
Ġg e
un ning
Ġcomp os
Ġdatas et
Ġinst all
Ġto day
Ġfam ous
ach ing
ĠD on
Ġstre am
ĠM on
Ġadd ed
Ġplay er
Ġwom en
Ġout d
Ġal ready
Ġrecip e
Ġr ates
Ġanaly tics
Ġdise ases
Ġec o
ĠQ u
Ġre place
Ġne ar
Ġp ow
in king
Ġtrack ing
ill ing
u ments
Ġrequire d
Ġimplement ation
Ġbu ilt
am ed
Ġas pect
Ġbu y
Ġimplement ed
Ġimpact s
op h
Ġcare er
Ġad op
Ġma g
Ġdis h
Ġidentify ing
Ġb ooks
ĠA PI
Ġeas ily
Ġsur round
Ġem b
Ġinvolv ed
he nt
ou d
ĠEn c
Ġcare ful
Ġta ken
Ġst ra
Ġsing le
ĠC he
Ġprovid ers
Ġf ish
Ġag ricult
Ġm it
Ġst e
Ġk new
Ġart ificial
k y
Ġadv is
Ġpat h
ĠC omm
Ġmob ile
Ġsym bol
Ġrem ote
Ġautom ation
Ġwe ar
ĠO r
ron ic
anc ing
Ġlibr ary
in o
Ġpro p
Ġp ut
Ġdis play
Ġcl ose
Ġs qu
er a
s h
Ġgrou nd
Ġdist ribut
Ġw rite
ast ic
Ġn ode
Ġevery thing
ers e
u nd
Ġsal t
Ġmed itation
Ġdes cript
u le
Ġpr in
ĠS m
Ġr ights
Ġfun ctions
Ġcol lection
Ġnut ri
Ġorig inal
Ġeff ort
Ġspec ies
Ġle ast
Ġc ra
Ġtext ure
Ġcontin ues
a w
Ġsu n
Ġbra nds
Ġcont ains
ic le
c ast
um p
l ines
Ġtop ics
ĠM ed
Ġe gg
ĠJ oh
Ġse en
Ġl ink
Ġbeaut y
ĠR ed
Ġf est
Ġsub ject
Ã ©
ar is
Ġr ich
Ġc ir
Ġcomprehens ive
us ive
Ġyou ng
Ġf elt
ip ment
fere nce
Ġswe et
ib er
Ġa ge
Ġinterv iew
Ġcomp on
he ad
Ġcond uct
Ġr ather
Ġjo bs
Ġdivers ity
Ġm ist
Ġhelp ing
Ġclass es
ist ics
ate gor
g ra
Ġatmosp here
Ġtrans l
Ġar r
ar r
o f
ap an
Ġpurp ose
Ġsent iment
Ġadv ant
Ġelect ric
Ġw orth
Ġbelie fs
Ġcons ult
Ġsa id
Ġw a
olut ely
Ġs ince
ĠMach ine
Ġocc ur
Ġlong er
Ġa im
end ed
Ġproper ty
Ġco ol
ĠS QL
ĠP erson
Ġco ver
Ġc ut
ĠR ec
Ġext ra
hold ers
il s
Ġd ark
u rop
Ġcolum n
oc ol
Ġrece ive
Ġstr ings
g ed
al king
u ild
Ġd ays
Ġsc ience
Ġsc ript
st er
an a
Ġaut hent
Ġbr ight
m ar
Ġequ al
Ġint rodu
Ġm el
Ġt ree
Ġtherap y
ph as
Ġanim als
opp ing
Ġl ength
Ġdo ing
Ġs olution
rast ructure
Ġexper iment
Ġhe av
o le
Ġass ign
Ġdef initely
Ġdetect ion
Ġex ce
iz z
Ġpar amet
Ġpurch ase
Ġbas ic
Ġst unning
Ġinter p
Ġrel ig
Ġinteract ive
Ġbe gan
Ġman aging
Ġcom pl
ĠAr t
Ġfavor ite
f ree
ro om
Ġbut ter
Ġst ake
Ġguid ance
ir ing
Ġwebs ites
or n
est s
Ġhigh ly
Ġassist ance
ff ee
Ġrec ent
Ġincorpor ating
Ġkey word
Ġlat est
p e
E R
Ġs am
Ġd iv
Ġspe ed
urop e
t ings
Ġtransp arency
re ci
Ġb ow
ĠAmeric an
Ġ ì
Ġent ire
Ġestab lish
âĢ Ŀ
ĠAv oid
im es
Ġc ell
Ġsol ar
ĠâĢ ľ
ĠHe alth
b ook
e at
Ġse par
Ġc ooking
art h
Ġfor ms
Ġvers ion
Ġmove ment
ens ion
Ġcomple ment
Ġequ ipment
ĠSoc ial
Ġexper t
Ġfore st
Ġreg ard
Ġlar ger
Ġt ut
Ġd ed
Ġval id
Ġcont act
Ġcampaign s
Ġbeh ind
Ġab ove
Ġchang ing
Ġs lic
ĠV is
Ġrun ning
ch an
Ġrev olution
ĠG ree
Ġw in
Ġe ver
Ġrec ycl
Ġveh icles
Ġdoc ument
Ġc ou
Ġh om
Ġf ail
Ġwor d
Ġrem ember
er ous
Ġview s
ĠT ry
Ġlim ited
Ġg ames
Ġam az
ĠAs s
ĠJ apan
ĠA ut
Ġel se
os ed
Ġbre aks
Ġover come
Ġs ou
ri ed
Ġmindful ness
is c
ĠP r
Ġmom ent
ĠâĢ ĵ
Ġal m
re l
Ġdra w
Ġapp reci
M L
Ġsitu ations
Ġcu is
out h
Ġd yn
al f
ĠR ob
f ric
Ġme als
ĠAn aly
i xt
Ġsh ap
ĠF r
Ġb ase
i ol
Ġdam age
ust r
Ġinf rastructure
Ġpredict ions
Ġcult ures
Ġb le
Ġh ost
ic ed
Ġla w
in ations
Ġgar lic
Ġtreat ments
Ġthem selves
Ġc am
in ks
Ġsp eech
Ġph one
Ġ ult
Ġthough t
i king
Ġw ond
Ġem phas
nd om
Ġsc reen
Ġc ategor
Ġg re
ut ral
Ġsort ing
Ġprodu ce
Ġdevelop ers
Ġh ouse
Ġ ut
Ġr ice
Ġman ner
le y
Ġnet works
ĠE urope
Ġvide os
ines e
Ġdetail ed
Ġpre fer
ĠO ur
ĠA fter
Ġt aste
Ġmed ic
Ġefficient ly
Ġvari ables
Ġiniti atives
l ive
og rap
v iew
ĠP ract
Ġ3 0
ari an
Ġg as
Ġsp ir
Ġassist ants
Ġst ories
Ġall oc
Ġstake holders
Ġfiel ds
Ġde ad
Ġinst ru
Ġv ary
fact ion
Ġtransp arent
Ġupd ated
Ġassist ant
Ġf ab
Ġ #
ĠR es
ic ro
Ġout side
Ġlit er
Ġme chan
re p
Ġb ed
Ġm or
Ġreg ion
c ent
Ġdiffere nces
Ġcons ervation
Ġs olve
Ġbec ame
Ġnav igate
Ġra ndom
Ġne ural
Ġun ivers
Ġmus e
ĠA t
ĠTe chn
Ġf aster
Ġus age
Ġhistor ical
opp ed
Ġan c
Ġcre am
" ,
um e
and s
Ġtemper ature
Ġch ann
Ġinst ructions
ific ations
ĠPerson al
Ġopin ions
Ġinteract ions
um s
ĠProv ide
ĠH T
ĠS ar
Ġenc oura
Ġpr ice
Ġmater ial
Ġshow s
Ġident ity
Ġcol le
Ġso il
Ġaccess ories
ĠI RA
ĠN ational
Ġp arent
Ġext ract
ag s
Ġto mat
Ġim ag
Ġt erm
Ġco ffee
ĠTr ans
z e
Ġc and
Ġoutd oor
Ġfil m
Ġlead ers
Ġbreat h
Ġrem ove
Ġg ard
Ġfra ud
Ġarchitect ure
Ġte ac
Ġw ood
Ġd ang
Ġp al
Ġeconom y
Ġc op
Ġsc ore
ĠUn ited
Ġfam il
Ġpa per
Ġteam s
z y
Ġrestaur ant
Ġadvis or
ad s
ĠP ark
ĠA ll
b i
Ġbelie ve
ĠS im
Ġin e
Ġbow l
Ġb old
Ġfeel ings
Ġha ir
ov ed
ĠIn vest
. .
Ġthem es
lic ations
Ġbenef it
ad o
Ġl ack
Ġrecommend ed
ĠReg ular
Ġinflu en
ĠW or
Ġcuis ine
Ġproper ties
f low
Ġse eds
Ġpe ace
ĠA re
Ġsy nt
Ġsmo oth
Ġsee k
Ġdem on
Ġp ark
un e
omm od
Ġintern ational
ent y
o int
en ue
Ġansw er
h ouse
Ġmet rics
Ġpain ting
Ġadv ent
Ġcreat ivity
Ġtri p
Ġstand ards
Ġsatis faction
ĠA fric
Ġsu bs
ig ation
ĠS al
Ġexpl oring
en ance
Ġw atch
Ġlit tle
Ġinst ance
Ġfil es
Ġsens ors
it ch
Ġinnov ative
Ġsu m
he t
ul l
ov ers
iv il
Ġin j
Ġw alk
Ġprogram med
Ġmat ter
t ra
Ġmaxim um
Ġro ws
Ġeffect iveness
Ġprin ci
Ġser ies
ĠD r
Ġconsum ption
Ġtre es
d ed
olog ical
Ġminim al
en ed
ar a
Ġn amed
an ks
ul ate
Ġexp ression
Ġo live
Ġt one
Ġex h
el ed
ac ed
Ġdiscrim ination
av ing
Ġmaint enance
ep end
Ġsh ape
p ly
Ġsupp ly
bs olutely
Ġre ality
Ġevalu ate
Ġst ruct
Ġaccount s
Ġf ats
Ġbi ased
Ġser ve
Ġstre t
Ġimpro ved
ĠR ep
Ġpr ices
ĠJoh n
Ġh or
Ġsn ack
Ġd ate
Ġne utral
Ġhand s
I N
1 0
Ġform at
r ition
Ġprep are
v ent
Ġinflu ence
m an
ĠSt ep
is es
ĠSar ah
bo ard
Ġenc ry
Ġsp ending
Ġag ree
Ġopportun ity
O f
Ġc od
Ġinter face
Ġapp l
Ġacc ommod
Ġaltern ative
es ign
Ġhab it
Ġmaintain ing
ffic ient
Ġpl enty
oy al
ĠCh at
Ġproper ly
Ġrestaur ants
Ġde cl
Ġw ed
Ġimp lications
Ġsty lish
Ġlearn ed
Ġs il
Ġbe ach
Ġtechn ical
5 0
c hed
Ġlif est
b or
du c
orm al
ad es
Ġinit ial
um b
Ġdef ine
a res
Ġreview s
Ġf ix
Ġpolic y
Ġmil k
Ġconst ant
Ġpart s
Ġachie ving
Ġs us
Ġv ast
Ġcaus ed
Ġf ast
ĠCh inese
Ġamaz ing
it ude
Ġtrans act
Ġex cept
Ġm ill
r ict
T o
Ġcir c
le g
Ġdemon str
Ġthough ts
onom ous
Ġpatter n
Ġdepend s
Ġbl ood
m it
Ġsort ed
er ce
Ġorgan ic
Ġimprove ment
Ġfru it
Ġf ar
Ġhigh light
Ġb onds
ĠP e
ĠC ar
Ġupd ate
Ġind ic
Ġconnect ion
Ġautom ate
Ġpoll ution
ul ner
Ġv iol
Ġpart ners
Ġprim ary
Ġpay ment
Ġpass word
ĠTh at
Ġcalcul ate
Ġre pl
Ġsu gar
Ġsur v
Ġconsist ent
Ġcreat es
Ġl ines
A bsolutely
Ġexce ll
Ġagricult ure
enc ies
Ġanc ient
Ġb it
ĠGree k
Ġbl ue
n a
Ġpract ical
1 9
s et
Ġf iber
Ġfor ward
f ast
ove red
Ġpress ure
ĠS ec
Ġo vers
ĠM e
ĠE duc
Ġdes ired
Ġpl aces
ur ance
Ġm is
Ġstore s
os ystem
ĠR o
on y
Ġde ploy
arc hers
Ġarg ument
Ġbl og
Ġre nt
Ġab s
Ġd ream
at hy
Ġser ver
Ġfac ed
I s
Ġdest ination
Ġpart y
ĠF rom
Ġc ities
Ġs ess
ast ed
ĠC al
ĠInst ead
ĠC om
Ġmit igate
Ġdeb t
Ġus ually
Ġsignificant ly
Ġun c
Ġover w
Ġcl ient
Ġ &
Ġplay ed
po on
Ġth r
Ġe t
Ġbrow n
ĠEnc ourage
Ġab ilities
l ike
Ġob st
Ġb ound
ĠI d
Ġsh aring
id ge
Ġv ulner
go ing
a ff
Ġtra de
lo ad
W ow
Ġ :
iss ion
Ġec osystem
z z
Ġcommon ly
pr int
m in
now n
idd le
Ġ ver
u x
Ġsh opping
os es
l ier
Ġne igh
Ġplan et
Ġm ount
Ġupd ates
Ġgener ated
Ġdr ive
Ġ1 2
Ġg ender
Ġland sc
is k
ĠM ay
Ġap art
Ġf ig
Ġdev ice
Ġsc hed
b an
Ġto t
Ġoper ator
Ġdep th
Ġaccount ability
Ġmus cle
Ġac cept
Ġshare d
Ġart work
Ġaccording ly
ĠH ave
Ġgra du
ĠChe ck
Ġcomp are
Ġey es
ĠC ity
Ġlifest yle
Ġf all
Ġsens itive
Ġadop t
l ished
Ġdist ract
ident s
Ġtra d
Ġdesign s
Ġey e
Ġcent er
ĠPract ice
ap s
Ġbecom ing
ĠP h
Ġra d
s y
so le
Ġse em
Ġpriv ate
es c
y ond
Ġpr ime
Ġcapt ure
Ġs and
Ġcl ients
ograp hy
Ġ +
C reate
Ġmut ual
ul ations
Ġwe ak
Ġch ain
Ġa verage
un g
Ġprom pt
ic ated
Ġinst it
Ġexpect ed
Ġsp orts
Ġenc ount
Ġfin al
Ġc as
Ġch opped
Ġc ars
Ġres ource
Ġent ertain
Ġconvers ation
ixt ure
Ġprotect ion
Ġexec ut
com ing
Ġm ood
ĠA g
Ġfru its
ri e
med iate
an y
Ġcan cer
o on
Ġdoes n
Ġd om
Ġyog urt
in ate
Ġobst ac
ch ange
Ġf ire
Ġo bs
Ġtre nd
in ating
un te
Ġoverw hel
Ġallow ed
ĠId ent
Ġmod ified
Ġfil ter
Ġbra in
en e
u ps
v al
pect ed
ĠR ese
Ġoffer ing
Ġtut or
i very
Ġrespons ib
Ġspec if
Ġmed ium
e ed
Ġprinci ples
Ġinnov ation
ic ial
i ers
Ġeduc ational
Ġmess ages
Ġcho osing
ĠM arket
Ġbecom es
Ġad vert
Ġmeet ing
am b
Ġh iking
H ere
ĠA cc
Ġ1 5
Ġtop ic
Ġaffect ed
Ġro ck
Ġs end
i ation
Ġmanufact uring
por ary
ĠC ustom
/ /
ol l
Ġdes crib
Ġbat ter
Ġexcell ent
Ġsh own
ĠF irst
Ġult imately
Ġfact or
+ +
Ġd ance
ĠE ach
Ġqu eries
ĠComm un
Ġsatis f
Ġminim ize
Ġvisit ors
d ate
Ġstruct ures
Ġreli able
Ġe arn
Ġcap abilities
os ure
Ġris e
Ġme at
Ġm ass
Ġgrow ing
at ural
Ġsu itable
Ġnut rition
Ġw all
Ġins ide
ĠF l
Ġinterp ret
u ff
ment al
Ġbe yond
Ġact ive
Ġchann els
ĠSt ates
omm erce
is ion
Ġgovern ments
ens ity
Ġemerg ency
Ġmove ments
Ġth ing
Ġla ws
c o
Ġbal anced
Ġj u
Ġon going
az on
it ual
Ġdoct ors
Ġexper ts
Ġinteg er
ĠUs ing
ous ly
cis e
Ġaccurate ly
t ain
r ist
u ly
Ġth ird
" .
Ġorgan ized
Ġb ur
Ġrecord s
p ort
il ing
Ġsim ply
ĠLe arning
ino a
at ically
ĠG r
Ġcall s
Ġe ating
Ġread ing
Ġb oo
Ġl oyal
ĠT re
Ġbuild ings
Ġmonth s
Ġess ay
ĠMon itor
Ġth inking
Ġit self
Ġro ot
ru pt
ĠH er
. ,
Ġmist akes
ĠO ff
Ġresult ing
ic ks
ag er
Ġm ixture
Ġb urn
Ġf ight
Ġtail ored
Ġser ious
Ġperspect ives
Ġst ir
Ġve gan
Ġdirect ly
ĠP art
Ġmov ie
Ġlay er
pp ing
Ġsh oes
ĠAm azon
Ġt ur
it am
Ġdel ivery
Ġful ly
ra w
Ġapp ly
ce an
ĠSt ud
Ġbackg round
Ġw on
Ġpo em
d d
Ġto wn
Ġcolum ns
Ġplay ing
ir m
ĠIdent ify
Ġc ivil
Ġlist s
Ġpl astic
Ġreal ized
Ġbre ad
ĠH igh
Ġwrit ten
orpor ate
Ġsign s
it ors
Ġadvance ments
Ġim mediate
Ġwork place
Ġcurrent ly
ĠCh ina
Ġscen ari
wor ld
Ġinvest ors
Ġcontinu ed
Ġcon vey
Ġf at
Ġb ir
Ġw ar
Ġtot al
ĠB re
Ġjo in
Ġwill ing
Ġatt end
id ing
Ġqu al
Ġf our
Ġ ic
Ġwild life
Ġac ad
ĠD et
Ġlist en
em y
ens ive
or ation
Ġnutri ents
Ġcontribut ions
Ġrese archers
ren ch
Ġhab its
res ents
Ġment ion
Ġstud ies
red ict
Ġr ules
er ia
Ġc ert
ĠU S
Ġrecip es
Ġret ail
Ġfarm ers
it her
Ġspe ak
Ġy et
c ious
m er
Ġr at
ĠA lex
Ġintegr ated
Ġl ost
ef ore
Ġwide ly
Ġexpert ise
Ġe at
Ġcareful ly
Ġaspect s
ĠY ork
ĠT est
Ġgener ally
Ġemploy ee
Ġhe ar
Ġstret ch
Ġthem e
Ġrep resents
ĠH um
Ġstay ing
Ġlink ed
Ġdiagnos is
ĠF ocus
Ġev idence
Ġdist ance
Ġb an
A re
Ġflex ible
Ġfe et
Ġpersonal ity
Ġg ather
Ġs or
ĠO ut
Ġph r
ipp ing
Ġ x
Ġdisc over
Ġanim al
ĠG u
Ġd ry
O N
Ġnut s
Ġaccount able
Ġfin ance
G reat
ist ance
olv ed
Ġu nd
ĠM us
ĠE ns
sy ch
Ġocc as
Ġaddress ing
Ġg old
Ġscen e
Ġsub st
Ġcon sole
on ic
force ment
ou b
ĠAl so
Ġrep ut
ĠC o
Ġd ial
ĠN et
ĠB ra
Ġgen etic
T F
ĠF ace
ĠSt ay
Ġreal istic
Ġco zy
ff ect
Ġincreasing ly
Ġexp and
Ġfe ar
Ġegg s
Ġun ex
Ġsect ion
Ġa f
Ġdis ord
ĠC ent
l t
ĠWor ld
ĠB r
Th is
Ġconflic t
ĠB al
Ġin qu
Ġjust ice
ĠHT ML
Ġd ivid
it le
Ġsepar ate
Ġen ab
back s
ang ing
Ġle aves
o k
Ġinc ent
Ġadd s
S t
Ġcand id
oc al
Ġpost s
Ġstat us
Ġrev enue
Ġche m
Ġc ross
ĠB us
ĠT w
c he
is ms
g ment
Ġcho ices
Ġrespons ibility
ĠM ix
oc ado
Ġra in
Ġperspect ive
Ġfu el
ut ions
Ġyog a
e ar
Ġ {
Ġcre ation
Ġpop ulation
Ġear lier
ress ive
Ġs ite
Ġpot at
Ġfoot print
Ġautom atically
Ġf asc
ĠP lease
Ġfr ont
Ġadvant age
Ġform al
Ġlo ad
Ġemp athy
Ġwork ed
Ġwed ding
p et
il es
Ġres il
Ġor d
ĠP re
Ġc ro
Ġind epend
Ġthreat s
ew el
ĠO pt
Ġan n
Ġsa w
Ġcy ber
Ġcr is
ĠRese arch
ness es
Ġind icate
Ġb ott
Ġprint s
Ġsumm er
Ġdid n
Ġunex pected
ke y
Ġso on
ur ies
Ġstre et
Ġv ac
Ġle ave
Ġsu per
Ġdr iving
Ġpotential ly
a im
Ġsam ple
in ner
Ġstrength s
ĠThere fore
Ġreg ions
o x
Ġfe es
Ġo ven
ĠN ot
y ing
n al
acc i
Ġre ason
Ġ rap
Ġpow der
Ġl abor
Ġman ip
f u
ĠA ct
Ġ Ð
Ġdyn amic
ĠPl an
on acci
esp ite
ĠB ased
I D
D o
ib onacci
ipp ed
Ġexperien ced
ĠS E
et ry
ĠG ood
Ġlar gest
Ġret rie
Ġstore d
Ġo pp
Ġbe ll
Ġadv oc
Ġcook ed
Ġvis ion
Ġex change
Ġre in
Ġpart ner
Ġappe ar
Ġsp aces
ac hed
Ġatt acks
Ġoff ice
Ġintern et
Ġs izes
ra id
Ġse lection
Ġl ooks
Ġcheck s
ĠM use
idd en
ou ble
Ġsal ad
Y ou
Ġrelig ious
ĠD espite
N N
Ġp and
ud d
Ġsp end
ĠGo vern
Ġinclud ed
ative ly
Ġinfluen ced
het ic
Ġobstac les
Ġarg uments
Ġt al
Ġgreen house
Ġb inary
po int
ĠF ibonacci
it ary
a ult
Ġt alk
ĠP er
Ġteac hers
Ġaf raid
pt y
w w
ĠM ar
Ġphot os
Ġsn acks
Ġset tings
b al
Ġsche me
Ġte a
ĠB efore
Ġfamil ies
in ated
Ġkeep ing
Ġ1 8
ĠO ther
ast ers
Ġent er
ĠFace book
ĠCol labor
ert s
Ġinqu ir
ve re
ir ation
or us
Ġaut onomous
Ġattract ions
Ġart icles
ĠE l
( )
Ġbreak fast
Ġst op
Ġno vel
Ġv ibr
Ġn od
Ġcomm and
Ġredu ced
Ġdest inations
Ġcl oud
ag ram
o ist
Ġbro ad
Ġinf ect
i ance
Ġh alf
Ġcont em
Ġdec re
Ġh on
Ġveget arian
gh t
Ġble nd
Ġcas ual
ot hes
ĠP at
Ġcon vert
Ġcaus ing
Ġsurround ing
Ġconflic ts
ĠN e
Ġdatas ets
I T
Ġp ush
ĠP aris
Ġcomp ared
ĠThe n
ĠB ar
Ġs oph
Ġmarket s
ĠThe ir
3 0
Ġens ures
Ġinv ent
ĠM od
Ġsuccessful ly
Ġlibr aries
ĠB uild
Ġtrad itions
u gg
Ġfac ial
Ġup on
ra ce
Ġne ck
Ġintegr ation
cis ion
Ġest ate
r ong
Ġconc ern
Ġw alking
Ġminim um
ĠF rench
Ġj ewel
Ġconnect ed
ir r
Ġe ither
ĠG l
Ġincl usive
Ġexpens ive
pp ed
Ġmem ber
Ġen able
Ġcont rast
Ġdisc ount
Ġexpect ations
ro ll
Ġcheck ing
Ġcon ven
Ġass et
c on
Ġneigh bor
Ġadvent ure
Ġn ational
m a
Ġaud io
Ġun su
Ġscient ific
Ġflex ibility
ĠW est
Ġlist ening
Ġhas h
Ġconf ident
Ġconcept s
Ġcent ury
Ġro ll
Ġexh ib
Ġslic ed
Ġexc iting
Ġcl in
ocol ate
Ġrelax ation
Ġvis ually
c les
Ġfl av
Ġadvert ising
Ġmus ical
Ġc atch
Ġsent ence
Ġtr uly
Ġstrugg ling
Ġentertain ment
Ġany one
ple ment
fore st
Ġschool s
as ons
ĠV e
ĠN ote
ĠS w
Ġpres ence
Ġst ack
Ġsim pl
Ġstand ard
Ġincre d
Ġcommit ted
Ġse a
Ġhot el
Ġbrow s
ĠBus iness
Ġth row
Ġconsider ations
Ġh ous
Ġeng aged
Ġro ad
Ġv itam
Ġcomplete ly
Ġconst ruction
ray s
Ġst ri
Ġrequest s
Ġbe ans
el ess
Ġvol unte
Ġp ict
om pl
Ġtomat oes
Ġtoo k
Ġw ine
ä ¸
Ġemail s
ĠO p
Ġem pty
Ġra ise
w ise
Ġpro ced
Ġsav ing
Ġinteg ers
ĠU lt
Ġr hy
wor king
Ġlimit ations
ĠG ener
Ġqu ant
Ġhe ld
Ġcompon ents
Ġmiss ion
ify ing
Ġcod ing
Ġele g
Ġinstit utions
Ġro les
at ile
Ġd ow
Ġtext ures
Ġa head
Ġintegr ate
Ġcollabor ate
Ġrep orts
Ġrevolution ize
Ġbound aries
Ġ ë
Ġto w
Ġparamet ers
Ġrem ov
Ġdis abilities
res p
et h
i ar
Ġacc ompl
Ġchang ed
Ġarray s
Ġb aking
Ġ1 00
Ġdep ression
ost er
Ġencry ption
ic a
ĠJ ack
Ġtri ed
Ġsp r
ig en
ĠIm pro
ĠEng lish
ĠEns ure
ĠP ol
k nown
Ġbreat hing
Ġboo st
1 5
Ġpack age
m ore
iel d
Ġc at
rough t
Ġexpl an
* *
h a
Ġb ul
Ġc row
ag on
Ġworkout s
Ġh ol
ĠInc re
Ġut il
e fficient
Ġrep air
Ġcal ories
Ġc overs
Ġst ick
ell ow
ra ft
Ġv ill
se m
Ġsk y
Ġc ame
Ġbo ard
Ġrem ains
Ġmention ed
ĠUn iversity
Ġsur vey
Ġspecif ically
Ġacad emic
rom e
al se
et te
ĠChat bots
Ġpepp ers
um es
Ġ* *
f l
ĠG ra
ab ly
Ġfore ign
Ġre ly
i os
Ġoptim ization
Ġc rop
Ġsee king
Ġgu ests
c ommerce
Ġhe ard
Ġsupport ing
Ġl ater
ur ation
Ġregard less
Ġa th
Ġl y
Ġwond er
W h
Ġauthent ication
Ġc ry
age ment
Ġo cean
ĠA ccess
Ġshow case
Ġshe l
Ġtarget ed
Ġdel iver
Ġur ban
Ġloyal ty
it age
Ġprep ared
Ġengine ering
Ġis land
ir us
Ġappro aches
Ġscient ists
ll o
Ġgener ation
Ġjewel ry
Ġcould n
er ge
dr iven
ĠEn ergy
it ate
Ġpurp oses
ĠEx pl
Ġtransact ions
qu e
Ġde al
Ġatt ack
ĠInt ern
Ġmov ing
i ors
Ġread ers
Ġw id
Ġapp oint
Ġsynt ax
rou nds
Ġcaus es
Ġclean ing
Ġmix ed
ĠCh rist
Ġart icle
ĠN o
ĠE st
Ġcont ract
Ġfl oor
Ġper pet
Ġ esc
Ġserv ing
ĠW ar
Ġt u
as k
Ġcompet itive
og ue
o e
Ġwe alth
ĠMuse um
Ġde g
Ġse ems
Ġal one
Ġcon cise
Ġdep art
Ġavail ability
ĠS outh
Ġon ion
Ġh ar
Ġl oved
ir l
Ġ }
ogn itive
Ġp sych
Ġre act
od ies
Ġcap able
Ġd og
ĠG et
ut s
Ġcl os
Ġart ist
Ġh osp
Ġun s
am ing
ĠTechn ology
Ġsor ry
Ġp u
Ġhand ling
Ġpass ed
am m
Ġappreci ate
Ġinstru ments
Ġread y
Ġcell s
Ġunsu pervised
1 2
iv als
Ġm al
ç ļ
Ġsk ill
ĠUlt imately
ot ton
Ġg iving
ĠR en
Ġdistract ions
ĠM ore
ic y
ĠR oth
Ġgl ass
Ġc it
ĠA tt
Ġtutor ials
Ġtax es
Ġobject ives
çļ Ħ
Ġmuse um
Ġdisc overy
Ġro w
Ġcompet ition
am s
Ġpast a
Ġcontem porary
Ġit em
Ġmen u
Ġgard en
Ġsus p
Ġsignific ance
e per
id ed
ĠAfric an
Ġj ud
ĠC SS
re me
ĠA ir
d own
Ġju ice
Ġneg ot
Ġlay ers
b re
ĠEx am
Ġqu inoa
Ġt end
Ġelect ronic
Ġkeyword s
Ġmov ies
us ed
Ġharm ful
Ġmatch ing
Ġn ames
ĠJ O
Ġexp osure
Ġw ent
? "
Ġgener ating
Ġimm ers
Ġsched ul
ac ing
ant ic
Ġfest ival
Ġcolor ful
end ar
ĠM icro
Ġlab eled
Ġ4 0
Ġfollow s
Ġrobot ics
Ġs ell
Ġconst ruct
Ġfund ing
Ġserv ed
Ġcommit ment
Ġdis asters
Ġsu it
Ġconsum ers
Ġdistribut ion
Ġperform ing
er ation
S T
Ġworks h
ĠN atural
Ġbut ton
if f
ro oms
Â °
in i
Ġminimal ist
Ġguid ed
Ð ¾
Ġf illed
ĠC O
Ġpract icing
az z
Ġcompos ition
ĠA c
Ġmed ication
Ġk ne
Ġprovid er
Ġpand emic
er ries
Ġenviron ments
ĠEx per
ul a
we ight
Ġh oney
Ġdead lines
angu age
Ġre ward
Ġcal m
Ġrepresent ative
Ġvis iting
el ine
r s
bi ased
Ġbo x
ĠE arth
Ġp ages
Ġchem ical
Ġcorrect ly
Ġparticip ate
it ter
Ġflav ors
Ġgradu ally
ĠInd ia
ic ip
Ġlandsc ape
Ġpart ies
Ġl ate
ĠS l
Ġtransl ation
Ġfocus es
ĠR et
Ġselect ing
b all
Ġun biased
pp er
ub e
Ġra ce
N A
ri ef
Ġcon ver
ĠEduc ation
Ġown ers
Ġrele ase
ĠD is
Ġcompon ent
ĠJ ust
Ġfore cast
Ġh idden
Ġte as
Ġatt ribut
Ġl ights
Ġsec onds
Ġmil itary
Ġcar ry
cl ude
Ġfrequ ently
Ġst aff
Ġtrans ition
Ġstart s
Ġde ath
Ġfunction ality
in ter
ou n
Ġet c
ĠE TF
Ġconnect ions
Ġm ark
Ġmedic ine
ĠSu pport
Ġfl o
Ġwith d
ĠJapan ese
g en
Ġsupp l
Ġtour s
Ġine quality
ĠIm plement
Ġframe work
Ġfab ric
Ġl ux
Ġneighbor hood
Ġav ocado
Ġcl othes
Ġrest rict
Ġcollect ed
\_ \_
: //
w here
Ġp en
Ġcomb ine
ì Ŀ
ĠD ef
Ġperpet u
Ġb ag
m ission
Ġwa it
Ġnum erous
Ġparent s
ĠD ec
Ġd en
Ġfunction al
Ġfac ing
igen ous
Ġtour ism
Ġl apt
Ġvibr ant
Ġper cent
nder stand
rel ated
Ġmem or
Ġsur face
ĠC ost
at t
Ġbegin ners
ub lic
Ġsp ot
Ġprotect ed
Ġm id
A R
Ġinf l
Ġ2 00
Ġfasc inating
Ġlet ter
Ġachie ved
ĠL ily
v is
Ġvac ation
Ġsess ions
Ġf ive
Ġnot es
Ġcl ut
Ġelectric ity
Ġsong s
Ġfl u
so ft
Ġinquir ies
Ġk it
Ġsqu are
un ction
Ġcom ing
ĠD uring
ĠInst agram
Ġcolle ag
d om
Ġlead s
Ġbudget ing
Ġfor get
Ġspec ified
Ġpredict ive
Ġqu e
ing er
Ġte ach
Ġdis p
Ġc otton
ast ing
Ġhom es
Ġcomput ing
Ġded icated
Ġg ro
Ġinsp ired
st ep
Ġw rong
um ps
y s
Ġpop ulations
Ġfor ce
Ġcor resp
Ġmeaning ful
Ġp et
ĠF ind
Ġev olve
Ġrecycl ed
Ġproduct ive
Ġbar ri
w ater
ce ed
Ġnod es
Ġcra ft
e ks
Ġass ets
Ġsoc iet
il let
Ġfocus ing
ag ers
Ġpr icing
Ġsc al
Ġsect or
Ġg ram
Ġcl ick
Ġinsp ire
om an
Ġspe aking
ograph ic
Ġrep e
Ġc oc
Ġro asted
Ġbatter y
s uch
ĠJO IN
Ġcontro ll
Ġno ise
an ies
c ol
Ġheav y
Ġfest ivals
Ġcop y
Ġch ocolate
Ġm iddle
Ġstrong er
ĠP redict
ĠCh orus
Ġr ug
Ġl uck
Ġgood s
erv ing
Ġdef ined
ĠN ame
Ġautom ated
s olving
Ġveget able
Ġcap ital
ough t
im al
Ġb all
j s
place ment
Ġrel ie
ass ion
ky o
Ġclass ification
Ġde eper
it ute
Ġ1 1
Ġn ormal
ĠE v
) ;
Ġdis aster
Ġw alls
Ġmake up
ĠS erve
Ġrece ived
ĠS ort
Ġloc ations
Ġmill ion
ĠTh rough
Ġhor iz
Ġth ick
u it
Ġspir itual
Ġsc ul
Ġscul pt
Ġliter ature
Ġf alse
Ġc ards
Ġmat ches
pro cess
Ġ er
Ġbegin ning
Ġsomet imes
ĠL anguage
Ġly rics
Ġrap id
Ġon to
Ġalm ond
o ke
Ġpass ion
Ġmusic ians
Ġcustom ized
Ġ2 5
Ġsk illet
ĠA ust
Ġan g
Ġco ord
ffect ive
ĠBre ak
Ġp un
Ġve gg
Ġbenef icial
Ġinsp iration
ĠG reat
Ġc ognitive
Ġgra ins
Ġmar ine
Ġbackg rounds
ĠOp en
Ġd im
Ġur g
Ġfollow ed
er al
Ġadjust ments
g ener
Ġaccompl ish
Ġcol d
Ġorgan ize
Ġch art
d o
ĠH is
Ġstrugg le
Ġcl ust
ĠInc orporate
Ġs pl
ro ts
ĠB i
ĠOr gan
Ġsp ices
Ġresil ience
í ķ
Ġ rom
Ġphr ases
Ġfrequ ency
Ġcl im
ec urity
Ġcol l
ĠGovern ments
Ġbelie ved
ĠD ay
Ġre wards
r ont
er o
Ġcro ps
ĠApp le
Ġwithd raw
Ġsh ipping
ver ty
Ġv ict
Ġappe aling
re g
Ġpo verty
Ġher self
Ġins urance
Ġsc ale
Ġtrans fer
tt ps
Ġemot ion
Ġpo etry
Ġaccess ibility
ĠC ook
Ġdang erous
Ġg ot
Ġparamet er
ex ic
em pt
Ġsw im
Ġincent ives
Ġvers atile
Ġill ustr
Ġrep et
Ġwant ed
ĠP ay
Ġhy dr
Ġexpress ions
ĠInt ellig
Ġeth ically
ĠBl ack
Ġsit es
Ġte aching
Ġdiagnos es
Ġmess aging
Ġdial ogue
Ġleaders hip
hy dr
is on
ĠPro g
ĠM ind
Ġme ets
Ġb erries
ien ces
Ġs light
Ġmy self
Ġb ill
ĠD ep
Ġtest s
ri x
Ġprotect ing
Ġconf idence
Ġestab lished
el i
Ġwom an
erv ed
Ġframe works
ĠE th
Ġsp in
ĠT V
Ġdoct or
Ġredu ction
Ġful f
Ġd iction
Ġecosystem s
Ġstra ight
ĠComp anies
Ġheav ily
Ġf em
act ive
ce l
Ġinvent ory
Ġis ol
ĠV irtual
Ġpo or
Ġshap es
Ġw el
Ġtem pl
Ġcreat ures
ar ily
Ġexplore s
ol i
Ġoptim izing
Ġconstant ly
Ġeng ines
ĠP rior
Ġar ise
Ġgener ations
D e
bers ecurity
Ġexpl oration
Ġdoc uments
re ne
Ġb rought
Ġrec overy
Ġle mon
Ġavoid ing
ĠE d
Ġdifficult y
Ġrecurs ive
ill a
Ġr ule
enc ers
Ġimpact ed
Ġplay s
Ġpa id
Ġinj ury
Ġle an
Ġenab ling
ĠC le
st ract
Ġj oy
ĠS k
ĠM et
ã Ģ
af ood
ĠP rom
Ġmod ule
ĠMicro soft
Ġsh ift
Ġexperien cing
ac ity
Ġimmediate ly
Ġh un
Ġsu pervised
ĠL a
ym akers
Ġident ified
Ġob tain
ch ain
Ġto fu
6 0
Ġ ice
Ġaddress ed
Ġbehav iors
Ġt ag
Ġfl our
Ġpow ers
istic ated
Ġcandid ates
Ġprocess ed
Ġla unch
in ct
Ġref ers
Ġ2 4
ĠM exic
ish ing
Ġbre aking
Ġd ess
Ġrecycl ing
ĠInst ructions
Ġst ates
form ation
ĠTo kyo
Ġher bs
Ġmor ning
Ġsou p
b it
at itude
Ġd u
Ġpre cision
Ġsoph isticated
ond uct
Ġbe aches
ĠD esign
Ġre b
Ġsupport s
tern al
he st
Ġinteract ion
Ġunivers e
ĠPredict ive
en n
ĠG e
Ġch ance
Ġveh icle
Ġrepresent ation
Ġw al
Ġte le
Ġcorresp ond
cept ion
ĠTre llo
Ġrecurs ion
il ed
ĠDe ep
ura ble
N LP
i ra
Ġiter ate
Ġt ension
ĠC reat
Ġstate ments
el ing
ĠH ar
ĠL im
Ġath let
ut en
c hen
Ġw at
Ġbuy ing
Ġmanufact ure
Ġlog o
Ġdis placement
Ġte ch
Ġc ere
Ġalloc ation
ar ge
Ġremind ers
Ġexecut ed
Ġreg ist
orm s
ov es
Ġcomple ted
ust ain
Ġmus cles
Ġher itage
ĠJ o
Ġinv iting
Ġcou n
p art
ĠHealth care
Ġide al
Ġcom ments
Ġel im
Ġaccommod ations
Ġmel ody
Ġd iced
Ġch ronic
rep rene
k ay
mar ks
Ġroom s
Ġtra ils
Ġres on
ĠL ist
Ġfin ally
Ġb ike
Ġact ually
Ġtechnolog ical
ab et
Ġw ider
Ġrhy th
ic ations
Ġc ore
fit ting
Ġtr ig
ĠS an
ĠV al
ck ing
ĠSt ate
g y
w rit
Ġfig ure
ĠM in
ra in
Ġst age
C omp
m us
ĠW ater
Ġb ank
Ġman aged
Ġcam era
ĠAut om
ĠSim ilar
ĠIn g
Ġcu ps
Ġex act
Ġpredict ing
Ġwe ap
as ure
ĠDet erm
Ġadvant ages
ĠS ur
Ġsn ipp
Ġgo es
or ough
Ġic onic
Ġ il
est ic
Ġdisc overed
Ġk n
w h
Ġse vere
Ġst able
Ġpo ol
Ġoper ation
Ġcharacter istics
Ġar m
Ġdesign ing
Ġwe eks
Ġins ert
Ġsp ent
Ġcl ause
ĠEm ily
int s
Ġp od
ĠS ee
an ch
Ġoff ic
ĠW ill
Ġfab rics
ound s
ect ion
Ġord ers
Ġd inner
Ġe arth
ĠL ink
ĠEn joy
o ff
Ġfarm ing
Ġn arr
Ġdr ink
Ġinput s
i j
f its
ĠCustom er
k a
Ġch air
Ġres istance
Ġse afood
Ġconvers ations
r ings
Ġcustom ize
Ġserv es
Ġretrie ve
str ing
Ġeleg ant
Ġcl aim
Ġin ner
on ut
Ġint ric
ĠT ime
ĠPersonal ized
Ġext reme
um ber
Ġperform ances
ĠF urther
Ġalign s
ĠAmeric a
Ġre asons
Ġauthent ic
Ġjour nal
Ġclin ical
Ð °
ic king
Ġ20 2
cl usive
Ġreflect s
Ġnet working
Ġworksh ops
v able
Ġc ash
Ġless ons
Ġvegg ies
Ġproced ures
Ġsw itch
I nt
Ġcomp aris
Ġpeace ful
Ġnutri ent
Ġgener ates
Ġtra il
Ġst ability
S ON
Ġs old
Ġp ars
t ail
Ġfl at
yp e
Ġco ast
Ġfriend ly
Ġcolleag ues
int age
Ġex cess
Ġag ent
Ġd ram
er as
Ġport ion
Ġt ender
U T
ĠA ng
ang es
ĠSt and
Ġf its
Ð µ
Ġgen res
ĠSm art
Ġconf ig
Ġschedul ing
aut hor
Ġoccas ion
Ġcr im
Ġbre ast
Ġteas poon
Ġdat es
ĠIng redients
Ġcon v
Ġb ond
Ġshow c
Ġil leg
ur ch
Ġdeterm ined
il i
Ġcirc um
m p
Ġwin ter
n am
Ġpotat oes
al ian
Ġinflu encers
Ġslight ly
Ġweak nesses
ĠS erv
Ġfix ed
ĠG reen
Ġth orough
Ġdiagn ose
Ġhe s
Ġemploy ment
Ġf ine
ĠE ast
Ġs ac
P S
Ġj ack
Ġdr inks
Ġincl usion
ĠS ystem
Ġflow ers
ĠF e
Ġimmers ive
ĠPrior it
Ġv ital
am ps
Ġthe ory
Ġint ake
Ġnear by
Ġrout es
Ġph il
Ġgro cer
ĠPl ay
Ġfeel s
Ġa id
r ig
os ition
Ġconven ient
A N
Ġf a
ĠF ollow
Ġun f
Ġintric ate
Ġlay out
ec ess
Ġatt empt
ĠHum an
Ġcit iz
onom ic
cript ion
gener ated
ĠW ork
Ġdis rupt
Ġact ively
Ġf ert
u ge
c an
A T
Ġsh op
Ġprot ocol
Ġpersonal ize
Ġdes p
Ġun n
ĠPe ople
ĠEx p
Ġpl ot
Ġw aves
Ġma p
Ġdescript ion
Ġsu ff
Ġl ose
Ġpro s
Ġre ference
iv ot
ad a
Ġb and
ist ant
Ġappl ied
Ġexec ute
Ġsumm ar
ĠDeterm ine
Ġ1 6
Ġwork flow
min ist
ĠI D
Ġimag ery
r ight
ĠF ore
Ġ1 4
E x
Ġpack aging
author ized
Ġcar rots
ĠMus ic
Ġ5 0
ĠCh ar
Ġpu zz
Ġreturn ed
Ġmiss ing
Ġmotiv ation
Ġilleg al
ĠC ut
rodu ction
Ġmuse ums
ĠH ot
Ġl ik
Ġimprove ments
Ġmeet ings
ĠTw itter
Ġovers ight
Ġf illing
ĠInd ian
at ures
e y
Ġhistor ic
Ġmus h
ul ent
Ġar ms
Ġpolic ymakers
Ġ1 3
l ights
Ġre ve
Ġdrug s
ire ction
Ġpro b
Ġres olution
ro l
Ġgraph ics
Ġdiet ary
Ġlim its
Ġrep s
Ġadopt ion
Ġs ides
Ġco hes
ograph ics
ĠM ount
ä »
Ġun authorized
Ġp ick
Ġconsider ing
Ġp ill
Ġreput ation
om en
Ġaffect s
Ġdescrib e
Ġde als
ĠMan agement
Ġint ent
Ġmaxim ize
P T
Ġdemonstr ate
iz er
ĠIntern ational
Ġfac il
Ġcol on
Ġmechan isms
Ġsur f
Ġimp ressive
ĠS ince
g ers
Ġg irl
Ġredu ces
Th ank
Ġed iting
ĠRe view
Ġac qu
Ġposs ib
fere d
ĠFurther more
ĠN ow
Ġconsum er
le ments
Ġpresent ation
u k
Ġhous ing
p y
Ġj e
est er
ĠG erm
Ġscenari os
Ġle aving
ĠW he
Ġcons cious
Ġhot els
N T
Ġcent ral
he mat
ac he
Ġcal endar
Ġof fered
ĠSE O
Ġm icro
l ock
Ġcorrespond ing
Ġtables poon
Ġfre ed
Ġstrugg les
Ġoverwhel ming
Ġiter ation
Ġh our
Ġr ide
ĠOn line
Ġmodel ing
Ġprevent ing
Ġsnipp et
ak ed
Ġent reprene
Ġequ ality
anc y
Ġread er
ut h
du ct
Ġperiod s
Ġpl ug
Ġdescript ions
Ġgr atitude
y l
Ġmemor able
ĠIn clude
Ġc in
Ġdiction ary
ĠB oth
ĠS am
ĠA b
Ġdiscount s
Ġcircum st
ĠSimilar ly
Ġcl ar
Ġhabit ats
ĠAs k
Ġm oist
Ġp ivot
Ġdress ing
" :
Ġemerg ing
Ġloss es
c raft
Ġhuman ity
R L
Ġunn ecess
Ġresponsib ilities
ĠIt alian
Ġg all
Ġc ertainly
ure d
Ġachie vable
ĠLink ed
Ñ Ĥ
Ġwe aring
os en
Ġcy bersecurity
ĠD isc
Ġv an
b ing
ĠS n
Ġman ager
ĠB ro
Ġdisord ers
Ġed ge
ĠPr iv
ĠP ort
Ġint ensity
Ġtrack s
Ġg ent
Ġj azz
n ic
Ġad ult
Ġcr ime
ĠInt er
Ġmedic ations
Ġpain t
Ġgen re
Ġexc ited
Ġle ather
Ġg ives
Ġhig hest
gra d
c ons
c ending
Ġresponsib ly
Ġmet al
Ġrep eat
Ġ ir
Ġj ump
ĠB rit
ĠUs er
Ġperform ed
ĠTh ank
ĠEurope an
Ġbe low
Ġhe ight
izz a
Ġcelebr ate
le ts
ment ed
Ġvulner able
ens ions
Ġoper ate
Ġs our
Ġemb race
Ġtal ent
Ġevent ually
Ġ /
ĠMore over
Ġcrit eria
ĠOpt im
Ġcategor ies
Ġsal mon
O S
Ġoper ating
Ġv intage
an ish
Ġbe ef
Ġm ig
ĠCont in
Ġsc ope
er ate
Ġencoura ging
Ġra ises
Ġp le
Ġpay ments
Ġint u
Ġcircumst ances
ck now
Ġpod cast
Ġland marks
Ġimm une
end s
Ġlead er
Ġh op
Ġoptim ized
ĠC onduct
Ġregul atory
i ant
Ġe ase
ĠSt re
Ġspin ach
Ġp ants
Ġmar gin
ate ful
Ġbl az
ent al
Ġcomput ers
ell o
ĠOff er
Ġbarri ers
Ġunder lying
dr iving
Ġunnecess ary
ĠBal i
Ġenvironment ally
P A
ĠPriorit ize
g r
ĠS ustain
Ġprodu ced
Ġindepend ent
Ġacc ent
Ġlapt op
ĠT od
ĠN orth
ad ing
ord er
Ġex ternal
iel ds
Ġf oss
Ġqu ite
ĠIn s
Ġact ual
Ġsy n
Ð ¸
ĠM ax
Ġpar ks
Ġhoriz on
Ġevery day
Ġup coming
Ġover view
Ġche st
Ġd oll
Ġslow ly
Ġh iring
Ġp ap
Ġsur g
h and
Ġro t
Ġb rief
Ġgram mar
Ġro b
ain t
Ġneck l
Ġwatch ing
her n
Ġdesign ers
ian ces
Ġon ions
Ġocc urs
Ġbas k
ĠAnaly tics
Ġr an
ar ant
d ro
ol a
f a
Ġcolle ge
Ġen ables
pe as
r m
Ġal ert
Ġf ro
um in
Ġvitam ins
ĠD ivers
ĠU p
Ġ iron
ab lish
Ġwind ow
Ġsearch ing
Ġcere mon
Ġremov ing
lic k
Ġst ars
Ġloop s
Ġarr ange
ĠBe ach
Ġkit chen
Ġs em
Ġsupport ive
Ġc her
Ġd irection
Ġlab els
Ġpay ing
th ough
Ġn est
er als
or al
Ġkey s
Ġinterv ention
ĠC ould
r ial
Ġdes k
Ġas king
Ġf ans
t elling
us hing
Ġg od
Ġin se
Ġvisual ization
Ġv ivid
Ġphil os
Ġincred ible
Ġqu iet
Ġab stract
ĠVis ual
Ġse am
Ġu pper
Ġask ed
Ġp ace
Ġcoun sel
Ġh it
Ġpan els
Ġcur ious
ĠR iver
] ,
Ġgra nd
Ġe p
Ġsol id
bo hydr
Ġb es
ĠETF s
Ġear rings
Ġse x
E D
ig ating
im p
in er
ĠRegular ly
Ġm as
ist ical
Ġdec ided
Ġs now
ä º
ĠEm p
Ġmat hemat
Ġmount ains
er cial
ĠIt s
Ġgl uten
Ġcontain er
ĠT om
Ġcrim inal
Ġstudy ing
g on
cl ass
Ġprof it
\ *
ĠRe v
Ġlearn s
Ġcon gest
eli hood
Ġsu c
Ġbig gest
Ġdis pl
Ġv acc
Ġcrit ic
le vel
Ġintellig ent
E ns
ĠE very
Ġv irus
Ġequ ipped
Ġa gg
et her
ĠLinked In
Ġd ining
ce ler
Ġdesign er
id ay
n ed
Ġbus y
Ġa est
ĠAust ral
Ġequ itable
i pl
Ġlik elihood
Ġdream s
Ġcontribut ed
ĠEst ablish
Ens uring
Ġpass ing
u ed
ĠCon clusion
omet ric
Ġrun s
Ġest im
ĠRe al
Ġan om
e qu
Ġintrodu ced
Ġso y
n y
Ġt act
Ġdevelop ments
t es
ĠPro t
Ġc ast
ĠC elebr
Ġb oot
ĠP al
A r
Ġprior ity
Ġencoura ges
ot es
Ġrespect ful
Ġcap acity
Ġle ver
Ġdocument ation
Ġhe els
Ġcomp rom
ĠMarket ing
ĠAfric a
Ġpur su
Ġrepe ated
ĠPro cess
ĠYou T
Ġdeploy ment
Ġfoss il
Ġoptim al
Ġtr ial
Ġinform ative
ad vant
Ġcohes ive
Ġbir th
Ġcomp assion
ĠPl ace
Ġv oc
ĠO b
iz ers
Ġsmart ph
s ource
Ġfollow ers
Ġb ags
ĠN ext
Ġfin ances
Ġvalid ation
Ġwe ights
ĠDef ine
Ġout l
Ġag encies
id ential
Ġal b
ĠH aw
Ġwant s
ĠL ight
Ġmom ents
Ġtomat o
Ġspecial ized
Ġsuc ceed
Ġhealth ier
Ġt ick
Ġco op
Ġremain ing
Ġwarm th
oh ol
ĠG od
og ether
Ġdep ict
le te
w ide
Ġv ine
Ġtarget s
Ġadjust ing
Ġseam less
Ġgr ateful
Ġevalu ation
ĠExam ples
Ġs elling
c ohol
Ġt ight
os al
Ġclass ical
Ġve ct
Ġexcept ion
Ġve nd
Ġsatisf ied
2 5
cc oli
Ġcy cl
Ġbott om
Ġassess ment
Ġint ended
i ov
Ġcitiz ens
Ġb ills
l ist
Ġmod e
Ġhard ware
Ġl i
Ð ½
Ġra re
Ġaim s
p ack
ĠW rite
Ġman ual
ĠRed uce
Ġinj uries
Ġcongest ion
bo x
C h
Ġaud iences
Ġsur pr
ĠS y
Ġprof ile
Ġmount ain
V ID
Ġim aging
Ġdesp ite
Ġrespons ive
ĠW ind
Ġpain tings
Ġr ural
Ġspec ify
Ġopin ion
Ġfraud ulent
r or
Ġweap ons
Ġcoc onut
Ġres ume
ĠIntellig ence
Ġcomple ting
Ġcomb ined
Ġmix ing
ĠMind ful
Ġdeg ree
ĠM at
Ġtemper atures
Ġpen al
Ġsp ark
Ġfu els
Ġviol ence
ink le
Ġ5 00
ĠU RL
ĠYouT ube
L L
Ġcomb at
Ġ1 7
Ġfac ilities
ĠS chool
Ġsle ek
ãĢ Ĥ
ĠCl imate
Ġseem ed
Ġnot ifications
Ġmag ical
Ġfail ure
Ġturn ed
S C
Ġ )
Ġburn out
Ġhydr ated
Ġnot ice
Ġlight weight
Ġreport ing
ar ation
Ġhigh lights
Ġmonth ly
n ame
Ġcy cle
Ġsal ary
ond on
Ġalloc ate
Ġleg s
Ġshe et
ĠSec urity
ru it
B T
C T
Ġprint ing
Ġdivers ified
Ġappoint ments
Ġconc ent
Ġbu b
Ġres idents
Ġdu pl
Ġtrend y
Ġpossib ilities
Ġapp lying
Ġshap ing
Ġdist inct
Ġcomm ercial
ĠSp anish
Ġabs or
Ġparticip ants
Ġin her
Ġindust rial
asc ular
Ġbir ds
Ġb ird
ĠRep eat
Ġstory telling
Ġa st
Ġwas n
Ġmin erals
u ght
bohydr ates
Ġpl aced
ch ol
ĠRob ot
ĠA im
Ġregard ing
Ġcomparis on
Ġclos er
Ġadd iction
ĠB en
Ġrat io
Ġpres erve
um ing
Ġgent le
Ġst ar
Ġac celer
Ġdress es
a ul
sc ale
ĠS qu
Ġgre ens
Ġrom antic
apt er
n el
Ġdiff er
Ġdef ault
Ġexplan ation
Ġclose ly
Ġinst ruction
H P
Ġpurch ases
Ġas ide
w ood
Ġr ound
Ġrestrict ions
Ġhon est
W e
Ġf old
Ġs ix
Ġpurch asing
Ġconsist ency
Ġb ot
Ġpal ette
Ġcam eras
Ġbro th
Ġ king
Ġpercent age
Ġtour ist
ĠM or
Ġg aming
Ġfish ing
a per
ĠP ar
Ġchick peas
if ies
Ġfl ight
Ġsc an
in y
Ġcategor y
ë ĭ
ĠIncre ased
Ġg ift
at en
Ġhim self
Ġmin ced
Ġminim izing
Ġfreed om
g round
Ġansw ers
Ġtw ist
Ġ ign
ber ries
Ġnot able
ĠW all
Ġrev erse
abet es
Ġmag n
ru ption
Ġnot hing
ĠH old
Ġper m
Ġcontrol s
Ġad s
Ġhapp en
Ġbed room
Ġma ster
Ġstream ing
Ġha irst
Ġmat rix
ĠInt eg
Ġch osen
Ġforest s
Ġline ar
ars h
Ġa cknow
Ġmy st
Ġdescript ive
Ġind igenous
n ight
Ġcount er
Ġpartners hips
Ġvol ume
ĠSal t
Ġl ic
Ġw rap
Ġh ike
Ġdepart ment
ĠTra ining
Ġdow nt
st yle
Ġmush rooms
t ered
Ġth in
Ġsh ades
ĠPro ject
Ġoverwhel med
Ġbi od
ĠF est
ur p
I f
Ġagricult ural
Ġpol ice
ĠC ours
iov ascular
e ah
Ġperpetu ate
Ġbes ides
ĠIs land
Ġconduct ed
ĠM a
Ġant i
Ġfor g
l in
Ġstr ict
Ġb ad
ro id
ĠI I
Ġdec ide
ĠEm ploy
Ġg ray
Ġdecor ative
Ġc uc
Ġpair s
m ark
Ġd ried
Ġtest ed
Ġnarr ative
ord s
Ġf ill
Ġdess ert
Ġrepet itive
Ġre us
Ġk ids
Ġcomm ands
Ġcall ing
Ġmag ic
Ġstand ing
r ific
Ġad minist
Ġintern al
Th anks
Ġme ant
ig e
ent ions
Ġz ero
Ġl inks
Ġassess ments
Ġalm ost
Ġta ught
Ġunivers ities
Ġlet ters
Ġc ater
Ġw it
pro fit
l ass
Ġathlet es
ĠCollabor ation
Ġscenari o
ate ll
ĠSh are
Ġmem ories
ad emy
N o
Ġd er
as ive
Ġcontain ing
ĠMed ical
Ġfin ish
ic it
Ġh ip
Ġsess ion
Ġf ont
Ġspl it
Ġbrows er
Ġbiod iversity
ĠC ap
ash ing
Ġrecurs ively
iz able
Ġstat istical
Ġins ight
Ġpromot es
Ġsuggest s
i am
ra ction
Ġgr illed
onom y
Ġhold ing
Ġthan k
Ġfound ation
i us
Ġnav igation
Ġpict ure
R M
Ġappropriate ly
Ġa ug
Ġcent ers
Ġm other
Ġsect ors
Ġmanage able
Ġlook ed
os is
Ġdem oc
å ı
Ġdo or
E T
Ġt ough
agon ist
Ġsp o
ĠM ain
ate ly
P ro
Ġencount er
ĠR ef
De velop
ĠT op
Ġachieve ments
Ġe nds
Ġappreci ation
Ġlux ury
rit ious
we ar
ĠEv alu
Ġhum or
ĠF ood
Ġmind set
Ġencount ered
Ġret ention
Ġfair ness
Ġt un
Ġt ast
Ġ40 1
ing u
Ġthr ive
Ġatt ending
forest ation
Ġprotocol s
Ġrel atively
Ġprevious ly
ĠE nt
Ġse gment
am a
Ġint ense
ĠD A
Ġdiv is
Ġgu arant
Ġenjoy able
ĠR oman
Ġentreprene urs
Ġwrit ers
Ġdraw backs
Ġnut ritious
ap es
Ġcontinu ously
Ġcomple ments
ĠAd v
Ġrapid ly
C ould
Ġp ul
ĠSee k
Ġreach ing
Ġcompet itors
Ġrent al
Ġdown load
ĠL ondon
Ġpromot ions
ĠBusiness es
S QL
ĠCent er
Ġres olve
Ġs ne
ĠL oc
Ġconsider ation
1 1
Ġcomp aring
po ons
Ġfl ood
on a
ĠRob ots
Ġt itle
ĠAcc ording
ĠJ SON
Ġsub string
ĠLe arn
Ġl amps
Ġbel ong
Ġout fits
Ġneckl ace
et ed
Ġb odies
Ġl ent
Ġart istic
Ġopen ing
ĠSustain able
Ġy ields
Ġsurv ive
Ġcontribut ing
Ġinterv entions
Ġje ans
ĠP HP
ĠImpro ved
ĠArt ificial
Ġesc ape
Ġha z
R I
Ġstat istics
Ġdecre ase
bs p
Ġdecl ared
Ġb ath
Ġwor st
Ġd ouble
ĠVis it
Ġblock chain
l s
Ġrec over
Ġremind er
Ġfriends hip
ĠRem ove
Ġimm ig
Ġbas ics
Ġd ro
Ġfund a
Ġt all
Ġcollabor ative
Ġch ances
Ġshould er
Ġart s
S A
p ace
Ġbr ush
Ġteac her
Ġthe rm
Ġgold en
in come
Ġvis ibility
ĠAtt end
Ġsk irt
Ġp izza
Ġprof ound
Ġam b
ch arge
Ġrelie f
Ġsh ops
Ġac id
Ġun able
e ffective
ĠP ublic
Ġkind ness
re al
Ġintrodu ction
ĠE ven
t aking
Ġconvers ion
Ġpers ist
m y
T P
ad ow
Ġtim eline
Ġsac rific
ĠBrit ish
Ġdiv ide
Ġtr ials
Ġmy th
Ġsc ar
Ġgre w
ĠR ome
Ġemphas is
ĠR E
a e
Ġext ensive
rap y
Ġsc ans
mm a
Ġm irr
Ġent ity
ĠE lect
if ts
Ġdi abetes
Ġu pl
Ġf irm
Ġfeat uring
Ġconsist ently
re w
Ġrhyth m
Ġturn ing
Ġtravel ers
ĠA nt
ip e
em ade
Ġy ellow
we et
ul ated
Ġfil ms
Ġrelax ing
ĠSec ond
h us
Ġobject ive
Ġd uration
Ġtur b
S V
ĠWe b
if act
or g
air y
s m
Ġsuppl ies
Ġvari ations
Ġsociet al
Ġpill ows
Ġdistribut ed
Ġform ula
Ġsu ns
l a
r ical
ĠPriv acy
Ġl unch
Ġfr ustr
R O
Ġsu g
ĠCO VID
Ġinter ior
Ġsub t
: <|
Ġre ached
Ġalign ed
Ġto ken
crib e
ĠEn viron
Ġtravel ing
Ġprote ins
Ġout come
Ġswim ming
d a
Ġprior ities
Ġw ire
it ations
Ġreg ression
Ġpro active
ĠH y
Ġref er
ĠR est
Ġaccess ed
Ġl ived
Ġr iver
ne ver
Ġclear ly
Ġref ine
Ġdeb ugg
Ġcomp at
ĠM al
Ġsurvey s
Ġemploy ers
Ġev olved
re st
af e
Ġmanip ulate
Ġcris is
ĠFr ance
Ġd ough
ĠRev olution
ĠR esp
Ġfew er
Ġcomp ost
Ġaud its
ĠB o
b ed
Ġappear ance
Ġgr id
Ġs ight
if orn
en ly
ĠP ower
ĠA ud
Ġc aut
Ġprot agonist
d ef
ĠIn f
Ġconsum e
Ġmot ion
ĠS ol
Ġwor n
f ront
A ct
ist er
Ġen forcement
yp es
Ġappl iances
Ġsatisf ying
Ġtu ple
Ġque ue
Ġcollect ing
Ġs ke
Ġd ri
ĠL eg
Ġ ê
ĠBuild ing
Ġprefer red
Ġsh ares
Ġsh ot
Ġrecogn ized
Ġcent uries
z en
ad d
ĠHaw ai
' ,
Ġcar bohydrates
Ġvulner abilities
ĠFin ancial
Ġin h
ĠCelebr ate
iforn ia
Ġcheck ed
Ġslic es
Ġpass age
c ar
ĠSt e
ĠY og
Ġdeep ly
h ors
Ġdyn am
Ġsub mit
Ġrelig ion
Ġinst ant
or row
Ġbat tle
Ġbro ccoli
Ġcons ent
Ġf et
Ġinstru ment
Ġfert il
8 0
Ġco verage
ĠExper iment
Ġquant um
Ġtail or
Ġencry pt
Ġn ative
D esign
Ġdec line
p erson
ĠV R
re es
Ġacc idents
Ġlever aging
Ġpo inter
ar p
Ġent ry
Ġemerg ed
ir ts
R E
Ġs atell
ĠCh ick
Ġpassword s
Ġf oster
Ð¾ Ð
Ġlab el
Ġremote ly
c ont
ĠProg ram
ĠCon f
orpor ating
Ġd rop
Ġblock s
ĠCours era
ab y
ans ion
ĠEth ical
Ġf ed
Ġart ifact
Ġcharacter ized
Ġcard io
Ġrout e
Ġdirect ory
ĠC ur
is hes
ar ly
Ġo x
ĠV ol
f ry
Ġhosp ital
ĠGr illed
ud es
Ġd oub
ĠTe xt
ĠS ub
Ġh ob
ens or
ĠK ing
ĠL ast
Ġsec ret
Ġwell ness
ĠP ost
Ġinterview s
Ġbegin ner
ch ron
Ġhouse hold
ĠFest ival
ĠU nderstand
ĠCl oud
Ġn ood
ĠFore st
ĠWhe ther
Ġinstall ed
Ġincre ases
ew able
ĠM em
Ġhabit at
Ġstream line
Ġch ili
Ġover fitting
ĠD av
au ght
ĠB udd
Ġb ooking
I C
Ġcal ming
Ġstretch ing
gy pt
Ġaltern atives
ĠEx ercis
Ġhapp ening
Ġsay ing
c ue
Ġg ave
c ost
hus i
Ġch arm
Ġal cohol
g ins
th rough
w a
Ġselect ed
Ġt bsp
Ġhy per
ĠR ub
Ġemploy er
Ġdiscuss ing
Ġr ust
ĠD ig
Ġfamil iar
Ġra ised
Ġany where
it ar
Ġarg ue
Ġdisord er
Ġp ose
Ġun p
Ġtra vers
Ġtell s
Ġlong est
ĠM c
Ġh ttps
Ġvill age
Ġintu itive
Ġ vert
Ġill ness
ĠTra il
esp read
Ġchemical s
ww w
] .
Ġf aces
Ġpur s
A C
Ġt sp
Ġstr ange
Ġco ach
ic ine
t a
Ġold er
. )
Ġboot s
Ġstre ets
Ġhapp iness
Ñ Ģ
Ġdisc ipl
Ġwork force
Ġpre process
Ġphot o
Ġcommun ic
and er
Ġsit ting
Ġent husi
ĠR el
ĠE c
ĠâĢ ¢
Ġst one
ĠO f
Ġother wise
r ich
ĠC T
ĠH ost
ĠL ack
ĠRe act
ar row
Ġmil es
Ġth ous
Ġman agers
Ġwid espread
Ġun int
oss ible
ĠJ ames
Ġtempl ates
Ġhum mus
Ġemphas izes
ĠC ult
Ġsurv ival
Ġc ab
Ġsee ing
id th
ĠHot el
ĠC ount
Ġjack et
Ġpopular ity
Ġst im
Ġlo an
Ġp ump
Ġcycl ing
Ġpurs ue
Ġrob ust
ĠH ouse
ite ment
Ġs olving
Ġpos itions
Ġmass ive
f all
Ġsurround ings
æ ľ
Ġaddress es
Ġsuggest ed
ĠT em
u gh
A M
Ġtransact ion
Ġchar ge
il le
ill er
Ġfl ights
Ġunder st
Ġsc r
ro s
Ġcor n
ĠCol lect
Ġtra ding
Ġgl ad
Wh ile
Ġsk illed
an es
x ic
Ġdetect ing
Ġcalcul ates
ock s
Ġbring ing
t op
Ġunc ertain
Ġt err
Ġagree ment
ĠL ay
Ġsu its
Ġret ain
Ġcour t
Ġc el
Ġposs ess
ĠT ur
Ġgard ens
Ġadult s
Ġour selves
part y
Ġt ones
Ġb ars
ret end
od or
Ġc e
Ġworld wide
Ġregul ation
ore s
Ġv ot
Ġvect or
uild ing
au gh
Ġcomp elling
Ġgain ed
Ġexec ution
Ġexc itement
Ġded ication
Ġpub lished
ĠIm p
Ġsc rap
Ġdispl ays
Ġde aling
Ġgrow n
amm ation
Ġtim eless
Ġbas is
Ġintegr ating
Ġtact ics
ĠP ot
ĠTra ditional
ast s
ĠCal ifornia
Ġke pt
Ġt alking
ĠB as
ol k
ĠS elf
Ġcra ck
ec ific
Ġsub tle
L E
Ġfind s
ress ed
ĠWh ich
Ġsu dd
ĠS omet
Ġref err
Ġmargin al
Ġsched ules
ĠD es
P retend
Ġc overed
Ġn u
t hen
Ġpict ures
Ġharm ony
r ate
Ġreus able
on ym
Ġreal ize
h op
or a
Ġg al
Ġtables poons
Ġran king
ĠRed uc
Ġhighlight ing
Ġhost ing
ab il
Ġtherap ist
Ġpre c
it ivity
ĠMexic o
uc le
Ġj umps
ĠSu pp
Ġanim ation
Ġhe ro
Ġwork load
Ġsummar ize
ĠE gypt
Ġev olution
Ġillustr ate
ĠT aking
Comp ose
ĠU d
Ġpolit ics
Ġblaz er
as m
atch ing
Ġhar vest
w idth
art er
ĠBi as
Ġrele ased
: **
Ġflavor ful
Ġretail ers
ĠW ould
Ġrein forcement
Ġra w
Ġrecommend ation
ĠRen ewable
r isk
he alth
Ġrepl aced
Ġisol ation
iv ate
Ġsp icy
ib ly
Ġover l
1 4
Ġtra um
uct u
Ġcompl iance
Ġele v
Ġsafe ly
Ġfl uctu
les h
m ber
Ġinstall ation
Ġtr ouble
Ġanalyz ed
b ell
Ġreli ability
Ġal t
Ġapp le
Ġinfl ammation
Ġacc ents
fere nt
u ous
oot ing
Ġbl ouse
Ġco aching
te xt
pp ings
Ġshow ing
Ġalb um
l im
ĠAnaly sis
o ad
fere n
ĠH ol
ĠIt aly
M S
ĠFr an
Ġget s
rou p
Ġoccur re
ic he
Ġsymbol s
Ġcream y
Ġvine gar
all ic
ĠWest ern
ĠCl ass
m es
Ġ19 9
Ġw ard
Ġanom al
Ġown er
em ploy
Ġj ar
Ġcoop eration
Ġmill ions
Ġdivers ification
Ġdig est
Ġth read
Ġt ags
Ġw ise
ot ic
ĠAdd ress
Ġc aught
ic ians
k in
Ġeven ing
ur ric
ĠPro duct
Ġcard iovascular
Ġdatab ases
Y our
ĠAs ana
Ġvisual s
Ġl as
or ie
Ġdiscrim in
Ġphilos op
Ġgraph ic
ĠAn y
Ġconst ra
Ġpath s
Ġgr an
Ġregul ate
il ant
u ation
Ġla un
Ġshort er
Ġev olving
if ting
out s
Ġwa iting
Ġexpl o
Ġcustom s
Ġst oring
l og
or ient
a ware
Ġc ake
ual ity
Ġautom ating
ou nce
ĠE r
Ġcl osed
ĠTod ay
ĠUn ion
Ġaim ed
ĠB u
Ġpre m
Ġann ual
Ġdeterm ination
ĠV erse
ĠB ay
Ġperform s
Ġant icip
Ġh yp
Ġmin or
ĠSh ow
Ġprompt s
Ġco ck
iqu id
ter ing
el lect
al es
ĠH el
Ġref res
( "
Ġgra in
ĠS ent
Ġsign al
Ġprint ed
Ġimp ossible
Ġphot ography
p age
Ġcontinu ous
ĠB est
al ities
Ġcut ting
Ġeduc ate
ĠM ich
Ġgra v
Ġbask et
Ġsp ots
Ġde forestation
Ar t
c ies
A D
ro be
Ġpresent ed
Ġal erts
r atic
Ġso fa
Ġkne es
Ġnot iced
Ġst ation
m al
Ġappro x
ĠM ac
Ġs chol
ab ular
Ġre charge
Ġfrequ ent
ĠT im
rim p
Ġrepresent ing
Ġn erv
Ġest imate
o om
Ġb act
Ġurg ency
Ġs ad
Ġpriorit izing
o ices
f ound
ĠAdd ing
Ġn orms
sem b
Ġ era
Ġbe at
Ġtransform ed
om odor
Ġbo ards
Ġowners hip
Ġdom ain
ĠAPI s
he tt
ĠAcc ount
ĠS um
Ġ201 9
Ñ ģ
Ġdel icate
Ġbre aches
Ġsh all
ag ue
es an
ĠSt r
ĠC ode
ĠA ug
Ġsens ory
Ġt ire
Ġbe ige
ĠRe ad
Ġhosp it
Ġconduct ing
Ġfig ures
Ġcomb inations
Ġfil ters
Ġpa ired
val ue
Y eah
Ġmor al
Ġwor ry
Ġch un
Ġdiscuss ions
Ġeth ics
Ġpsych ological
Ġclass ify
Ġmil est
Ġto ppings
Ġgreat ly
or rect
ĠInvest ing
H ey
Ġres ort
Ġsupp lements
ĠF resh
ĠB an
Ġprodu cing
Ġtour ists
ĠAs ia
Ġstrateg ic
Ġco at
Ġf ant
Ġdow ns
us hed
Ġdes ire
! "
Ġtreat ed
Ġv ia
ĠTrans p
ĠB ring
Ġfactor ial
nd rome
ĠK ore
iss ance
ĠAl tern
Ġgra d
ject ion
ĠSt ir
Ġmiss ed
Ġpredict ion
Ġauthor ities
Ġnest ed
Ġs ending
Ġsubst itute
ĠS oph
arm esan
Ġt ie
Ġs ays
Ġgen e
ĠCommun ication
Ġto ld
ĠP et
ĠDevelop ment
S h
Ġdis advant
hett i
g s
Ġstand s
op t
Ġinst ances
Ġclass room
ors hip
Ġ |
Ġsp ort
Ġlandsc apes
5 00
Ġm er
Ġset backs
row n
Ġsl ice
Ġappe al
ant ed
m ade
ĠTra ck
Ġsurg ery
ĠAss oci
Ġfa ith
Ġanomal ies
C on
Ġreput able
ĠSh op
Ġg ate
ĠBl ue
Ġinsp iring
ag hetti
Ġrec ently
Ġassign ed
Ġbroad er
Ġdr ones
Ġm ole
Ġout line
ĠW ord
Ġadapt ed
ĠAng el
Ġstructure d
a el
Ġport ray
ul ating
Ġfor ces
Ġgu itar
Ġlog istics
Ġha ck
Ġ201 8
Ġindic ates
Ġo kay
Ġsusp icious
Ġnutrition al
o ors
ĠList en
Ġsc re
Ġpre ference
Ġdem ographics
Ġsim ulate
Ġcock tail
Ġcry pt
ac eted
ĠE mma
om b
Ġhom emade
Ġtr uth
ĠSo ft
ĠSc ience
ĠAnaly ze
B M
Ġhy dro
ĠC at
ĠPl ant
u ro
Ġfl ag
Ġexplan ations
Ġcom ment
Ġent ities
ĠDig ital
Ġpres erving
ĠH ome
nect ed
ĠM ark
Ġpack ages
ĠEmp ire
Ġdang er
Ġexp ense
Ġteam work
Ġsand w
Ġdis app
Ġfor ced
Ġincorpor ated
c il
k er
Ġcon ferences
um n
Ġcomb ines
Ġm erg
Ġkne e
Ġspe akers
Ġvend ors
2 00
ĠU N
Ġhard er
Ġpotat o
Ġenh ancing
Ġd urable
Ġl osing
ĠCreat ing
Ġun us
ĠW rit
Ġprep aration
Ġprevent ion
Ġbr ings
Ġlearn ers
ĠR O
ĠC r
Ġspir it
n ormal
Ġm ur
Ġlent ils
ox ide
Ġward robe
se e
ĠH ist
Ġsupport ed
Ġmist ake
ĠVe get
ĠExercis e
ĠInd ividual
Ġv ent
Ġentire ly
l ab
Ġcou ple
Ġtr oub
Ġbl ank
ĠPro f
ĠUs ers
abular y
Ġbr idge
eng er
ck et
ĠBr idge
Ġsam ples
Ġcontain ers
Ġm ort
Ġal ive
Ġtreat ing
Ġthous ands
Ġc orpor
b ra
Ġnav y
Ġoff icial
Ġ202 1
uc ch
Ġnood les
olog ists
Ġs od
ĠFran cis
Ġdest ro
w er
Ġcontroll ed
Ġthorough ly
Ġma c
ellect ual
Ġ .<|
Ġopen ed
Ġwind ows
Ġg inger
ins p
Ġs an
ĠCont ent
end ant
form ance
Ġse ating
ĠD ress
ĠCommun ity
Ġdecl are
Ġform er
Ġd a
Ġh arsh
Ġchart s
Ġt ack
Ġindic ating
Ġdraw ing
Ġintegr ity
Ġw arning
Ġstreng then
Ġre lying
I m
n et
Ġn arrow
ĠD I
ĠT ower
as y
ĠQu ick
Ġmeas uring
ĠSe ason
Ġdr ivers
ĠIs l
Ġprim arily
Ġgrow s
ĠMed ia
Ġtime ly
Ġha ven
Ġelim inate
h ost
Ġinvest ed
Ġrem oved
Ġcry st
ĠP omodor
Ġo dd
g n
umb led
Ġorgan izing
Ġs on
Ġp ull
y on
Ġsun light
ve ill
Ġhe aring
Ġappe ars
Ġal le
Ġless on
Ġge ar
Ġhes itate
Ġexact ly
Ġre ef
Ġaffect ing
Ġm ic
o op
veill ance
Ġdeterm ining
ĠP an
r ative
f ord
b ur
Ġsuccess es
Ġmov es
Ġresult ed
S D
Ġacc ident
Ġeven ly
F T
ĠP res
Ġvolunte er
ĠAustral ia
Ġattribut e
ĠB el
te in
Ġpe an
Ġspeak er
y cle
Ġsou l
S E
us ivity
a j
Ġoffic ials
at o
Ġso le
ĠD el
F i
ĠEnviron mental
Ġaddition ally
Ġcons ists
i able
l i
m eg
Ġknow ing
O ne
ot ypes
Ġincred ibly
Ġmob ility
ĠCan ada
Ġp estic
Ġexpl icit
Ġcor al
Ġhash t
Ġqual ified
o oth
c ers
Ġag ents
ĠF und
Ġag ency
Ġsurround ed
Ġmoist ure
9 9
Ġsent ences
ob al
Ġshould ers
Ġexcept ions
Ġpo ems
ron ics
Ġreve al
Ġflu id
Ġsa ut
Ġ20 20
x id
al le
ì Ĺ
ar ray
os ion
Ġden im
ĠG ard
Ġengine ers
ĠTra in
Ġbub ble
1 8
Ġtransform ing
Ġle af
Ġins pect
ĠL og
Ġview ers
M OSS
Ġun iversity
Ġalong side
Ġsaut Ã©
ush i
F low
at in
Ġor ange
ĠComp any
Ġout er
Ġsh irt
ĠSp ec
ĠEvalu ate
Ġwat ers
rehe at
ra b
Ġnegot i
å Ĵ
ĠChrist ian
Ġconf usion
d rop
ĠOptim ize
u bs
Ġ //
Ġpol y
ucch ini
Ġrev ers
Ġf ocal
Ġt ang
Ġn ucle
Ġmarginal ized
ĠJ ob
ĠG old
Ġf ly
ĠA R
Ġf ather
Ġcr ust
The se
Ġassign ments
ĠMindful ness
Ġwrit er
Ġmet allic
ĠM ult
re ts
Ġfacil itate
Ġch ips
Ġun st
ĠP reheat
y ear
Ġpal ind
Ġunus ual
Ġscore s
Ġoper ators
ur ities
Ġreplace ment
Ġvict im
ri p
ange red
Ġcher ry
Ġnot ing
Ġlast ing
Ġhe aling
Ġcalcul ated
Ġwhe never
Ġmet ap
Ġlo ans
Ġarr ived
Ġr itual
åĴ Į
orient ed
io xid
ĠZ ara
Ġdis s
Ġfind ings
it udes
Ġrepresent atives
Ġspo ken
Ġequ ity
Ġfore ver
t ains
Ġst ere
Ġcompet e
Ġworks pace
Ġt en
ĠR uss
ul um
im ents
Ġcor ner
Ġhairst yle
Ġg low
ĠM ag
4 0
ĠB er
Ġvitam in
Ġscen es
æ Ī
7 5
Ġap olog
Ġp ed
Ġt ab
ĠTransp arency
int erest
ur ious
Ġwond ering
ĠT reat
Ġk id
ĠF oster
ful ly
Ġb oy
Ġrelax ed
Ġgrocer y
ĠEng ine
Ġparticip ation
Ġthere fore
Ġmotiv ate
im ens
Ġupd ating
ĠN ode
ĠD i
Ġdiscuss ion
Ġf ake
Ġinc om
Ġprev al
ĠSm ith
Ġunint ended
Ġsm ell
ov en
Ġch a
feren cing
nam on
k le
Ġab normal
ĠB ig
Ġauthor ity
Ġext ended
Ġrece iving
Ġpat ience
ĠProv iding
Ġprodu ces
ĠH ard
Ġvoc abulary
ç Ķ
ĠL ou
ĠSomet imes
ĠGra nd
Ġoil s
Ġla ugh
Ġvan illa
ort ion
ed y
Ġcompl ications
Ġlaun ched
ĠSc he
Ġbe gins
sp ecific
Ġpuzz les
en ities
am il
tra ined
Ġt iss
Ġl ock
Ġguid es
Ġevalu ating
Ġg un
ĠInst all
Ġsand als
ĠT ensor
Ġreport ed
Ġbro ken
ĠCent ral
Ġscen ic
Ġ2 1
br id
Ġinter f
ron aut
Ġb ust
Ġatt ach
se c
ĠW i
Ġrespect ively
ak er
Ġcl oves
ac on
Ġdri ver
ĠI R
ĠFirst ly
ob e
ĠJ ane
, âĢĿ
Ġbill ion
Ġp ink
Ġre aches
ĠL ife
in st
ĠS af
ĠY es
\_\_ \_\_
Ġvalu ed
ĠB et
ĠA ns
vent ional
ĠTrans port
Ġcomb ining
H ello
ĠWh ite
ĠI r
ĠS un
Ġf an
Ġex clusive
Ġant ioxid
Ġp ushing
ĠCon nect
Ġfro zen
in ch
Ġsy ndrome
Ġmod erate
Ġcelebr ated
ĠP air
Ġend less
Ġban ana
Ġc art
Ġestim ated
Ġrepresent ed
Ġpun ct
Ġst ead
ĠJ our
Ġma ps
.. .
Ġg ains
Ġvis ited
7 0
Ġlic ens
Ġenjoy ed
Ġperson nel
." <|
Ġcur tains
min ute
health y
esp ace
ĠCost a
Ġwel come
ĠIn v
m et
Ġsal ads
er b
Ġtransl ate
ĠAut onomous
z il
ĠPomodor o
ĠB ack
ail s
ĠC SV
ĠL ead
Ġpro c
Ġattend ees
Ġgu ess
Ġcount less
Ġspr inkle
A n
Ġm outh
Ġend angered
Ġplant ing
act ion
ĠUd emy
ly mp
ist ed
Ġmat h
Ġleg acy
ren cy
izz le
Ġturb ines
Ġfe ars
ĠCh ild
U s
ĠT O
Ġed ges
ol ic
Ġtarget ing
Ġnegative ly
Ġ irr
ĠN ative
Ġtem ples
Ġfunda mental
ect s
Ġtra dition
Ġdi oxide
Ġencoura ged
Ġaest hetic
Ġfem ale
Ġapart ment
F or
ĠC lick
Ġposs ibility
Ġdis put
P R
Ġsh rimp
Ġaccess ing
ĠP o
ust ration
Ġh ier
Ġac ids
Ġun like
Ġfor ums
Ġind oor
ĠF it
Ġvis ible
M y
ĠServ ice
oura ging
Ġad m
Ġput ting
ik u
u nderstand
Ġurg ent
U LL
ies t
ĠWe ar
y e
Ġdam aged
if ferent
ĠNet work
ĠDav id
ĠOb ject
Ġphys ically
land s
ol f
Ġsur veillance
ĠG roup
Ġl iquid
a issance
ĠMay a
Ġint ellectual
Ġadop ting
ple te
1 6
ĠGerm any
ol s
Ġam enities
ĠKe y
Ġdivid ed
Ġad equ
Ġl oose
Ġt it
ber t
ĠMod el
ĠRub y
Ġcris py
Ġcontribut ion
Ġout bre
f ield
Ġmathemat ical
Ġorig in
Ġsh arp
en a
ĠS il
ĠRen aissance
Ġbas il
Ġcomp ares
er ial
ĠZ e
Ġinterp re
ian o
Ġc umin
Ġab use
Ġo ats
ĠSe arch
ĠO UT
Ġcon ference
os it
Ġforecast ing
Ġclust ering
Ġschol ars
ĠSt ick
ĠHe ad
ĠYog a
ĠCle an
Ġsk i
Ġag es
ĠFrancis co
Ġthan ks
Ġsu ited
Ġclut ch
ĠVis itors
Ġsub sequ
ĠRec ogn
Ġeth nic
ĠIn it
ĠTensor Flow
Ġpl ate
Ġjo int
at ility
Ġmin ute
Ġattribut es
Ġsil ver
Ġauthor ized
Ġlog ic
Ġjud gment
ĠD irect
s k
ru p
ĠI BM
Ġfem in
ĠBudd h
Ġconf irm
Ġine qu
ĠJo in
izz es
NN s
Ġinfluen cer
Ġre ferences
Ġun known
Ġcollect ions
ĠDevelop ers
ĠU K
b ul
Ġfe e
cons uming
in du
Ġto ss
Ġto ast
Ġpre t
ck s
Ġl ip
ĠSent iment
Ġapprox imately
Ġinvolv ing
Ġend urance
Ġrec ording
z ing
ĠF ound
ed ia
Ġis n
Ġadv ances
Ġpr on
Ġinse ct
Ġadvoc ate
b ies
Ġfor t
Ġl ime
Ġben ch
Ġt ort
ri a
Ġshowc ases
Ġta p
ĠWh ole
Ġprom ising
Ġprom in
Ġdiscrimin atory
Ġsp ring
ĠP ass
Ġinfect ions
ĠM ut
re te
Ġsh ip
Ġdivid ing
Ġliter ary
Ġrel ative
Ġref rig
Ġstrugg led
Ġre form
ĠMonitor ing
Ġsculpt ure
ĠTh ink
Ġst ages
Art ificial
fact or
Ġfulf ill
P lease
in en
Ġwood en
Ġloc als
ĠCol or
t ion
ĠProcess ing
Ġdeploy ed
Ġdec imal
Ġdivers ify
Ġrespond ing
Ġrat ings
Ġr ig
Ġtransform ation
Ġl amb
ä ½
Ġv enue
ĠSal es
Ġgu est
Ġintrodu ce
Ġform ats
Ġtut oring
Ġr u
Ġexist ence
ĠMay be
ll a
Ġpartners hip
ot he
Ġloc ally
Ġsh ut
as p
ĠM iddle
Ġartifact s
Ġw et
ĠSp ace
Ġaccommod ation
Ġunf air
Ġconvers ational
if ier
rop h
Ġsatell ite
ĠT urn
Ġun it
Ġmov ed
ĠHawai i
Ġun eth
Ġdest ruction
ĠD ist
Ġshow ed
in ant
Ġsubject s
ch ing
Ġh al
hes is
Ġrefres hing
Ġpars ley
Ġenab led
ĠF ire
Ġtrust ed
ĠStre et
Ġabs olutely
Ġm erge
Ġcamp ing
Ġt urns
Ġn ull
Ġhapp ened
ang er
Ġqu izzes
Ġsign als
Ġde lete
Ġall erg
Ġimp air
Ġsne akers
Ġdim ension
ĠJoh ns
Ġconcent ration
ĠAssoci ation
Ġs orts
Ġlower case
ĠM ost
Ġc ul
ter y
un ting
id ation
Ġflo ating
ĠC amp
Ġoccas ions
app ing
a ment
Ġst orm
d en
ĠLoc ated
Ġcod es
Ġsav ed
Ġdist rict
Ġh uge
Ġcuc umber
is her
Ġcert ification
ĠAnd roid
Ġover head
b uilding
Ġmet ric
y gen
Ġf ost
Ġemb ra
Ġexhib its
ĠExpl ain
it er
Ġincl usivity
P N
Ġrece ives
Ġdoll ars
Ġto m
imens ional
ock et
ci um
Ġback up
Ġexpress ing
gra in
Ġdang ers
v as
Ġter rain
Ġmed itations
Ġcl ub
Ġb aby
icks ort
Ġdram a
Ġtrans mission
Ġd airy
Ġun its
Ġpestic ides
Ġdisplay ed
Ġbr anch
ĠIm age
p ie
Ġcounsel ing
a ust
Ġend ing
Ġbe ings
Ġrobot ic
Ġwhe at
ĠSe lect
ĠInst itute
1 00
Ġmem o
ĠI NT
Ġd ash
ag o
ĠHT TP
Ġinc orrect
Ġenjoy ing
ort ed
ce ll
Ġexplain able
ĠD id
Ġprep aring
Ġc ourage
ĠSt ar
Ġbra ke
Ġmanufacture rs
Ġiniti ative
Ġsp aghetti
Ġneigh b
B ut
d ense
Ġprop osed
O M
Ġh at
Ġunderst ood
Ġalm onds
Ġceremon y
Ġpe ak
b ody
Ġcin namon
Ġnew found
ĠMy SQL
ed ing
Ġdig its
sem ble
Ġ6 0
ĠM ond
our se
ĠWith out
gra de
Ġc ope
ĠExpl ore
Ġwell being
Ġsus pect
h am
ĠAc ademy
Ġas cending
Ġcare ers
Ġg ap
Ġrepeated ly
eng ers
ec onomic
ĠP our
ĠE nd
Ġmin ing
Ġcoast al
Ġr ough
Ġle verage
Ġload ing
ĠL ike
Ġshel ves
ĠEng age
le an
Ġearn ings
Ġcel ery
Ġtim er
se en
Ġsuppl iers
Ġinequ alities
e em
com p
Ġvers ions
Ġexplore d
Ġinitial ize
Ġsp a
ob ile
ĠB le
Ġcont ents
Ġp ure
Ġuneth ical
Ġimag ine
Ġra ising
Ġclaim s
it a
Ġris ing
ĠA p
Ġfall ing
is p
Ġphilosop hy
ri an
ĠW hy
amb oo
Ġdef in
ĠV oice
Ġdebugg ing
Ġcur ric
t able
Ġtrans mit
Ġform ation
Ġass um
ĠK now
ĠAlex a
Ġro ads
S p
ĠCh urch
Ġsociet ies
Ġfat ty
Ġocc up
Ġdestro y
Ġdevelop er
Ġr ub
Ġsh ade
ĠSc ene
Ġchann el
st s
G ener
Ġper ce
ĠS ir
Ġg ently
ĠM il
insp ired
an as
Ġpack ed
Ġro o
Ġb anks
Ġdr inking
Ġfin ished
ĠC or
Ġw ave
ram es
ari a
urp ose
or ous
Ġexp osed
ĠDI Y
Ġsmall est
in ars
Ġadv ers
ĠCom put
Ġr anging
Ġout lines
olog ies
ĠR ica
Ġinst ruct
al a
Ġwho se
od ing
Ġoutput s
Ġrec all
Ġfulf illing
other mal
at ur
Ġnot ation
Ġcandid ate
olv es
cl ud
Ġinterf aces
s ized
ain ts
B C
Ġvolunte ering
ail and
b and
Ġp ork
ĠCh all
Ġhold s
O R
ĠHe at
ĠM erge
Ġsp ect
Ġb un
ork eling
Ġincorpor ates
Ġfra gr
Ġf er
Ġcommunic ating
Ġm ale
Ġeduc ators
Ġc orporate
ĠT able
ĠN av
ell a
ind ing
Ġlux urious
Ġact ors
ĠDA Y
ĠD em
O nce
Ġdivis ible
Ġhol iday
il er
Ġtroub lesh
Ġscre ens
E N
Ġn ice
Ġe ld
or ize
ĠI ce
Ġequ ation
ĠAss ess
arr ant
Ġemp ower
ĠTransport ation
ĠC oc
Ġrevolution ized
Ġatt itudes
Ġdel ays
Ġkeep s
Ġreson ates
ĠH I
Ġshap ed
Ġp y
å Ī
ever ance
Ġemphas ize
ĠO lymp
è ¿
Ġconnect ing
Ġcustom ization
ĠInd ex
Ġchar ging
Ġm o
Ġyoung er
us es
Ġsect ions
h av
ĠRo asted
Ġcustom izable
Ġreact ions
ig ue
ixt ures
Ġcre w
Ġelect ronics
Ġcop ing
Ġdiagn ost
Ġbact eria
ĠInc orporating
Ġsecure ly
u ction
Ġp hen
Ġrecogn izing
S L
ast ics
Ġbreath taking
Ġsculpt ures
m eric
ĠF ree
Ġwh isk
sel s
ott a
ĠW omen
ĠQu est
ag raph
re ed
Ġintegr al
Ġz ucchini
ĠQu inoa
Ġmyst ery
Ġimp ression
ĠB eg
ĠD NA
ĠAv a
2 3
Ġhier arch
Ġaud it
Ġscen ery
Ġge ometric
Ġg one
Ġvisual ize
ĠX ML
Ġer osion
ĠG ive
Ġbott les
Ġautom atic
r um
Ġunp redict
Ġc os
Ġgal ax
writ ing
ĠPh ot
ĠQ ue
ĠN on
ĠSm all
Ġgr ass
ĠIndividual s
Ġbelie f
en ues
Ġun healthy
ĠS ing
Ġf iction
Ġf le
pt ions
Ġcall back
1 3
un a
Ġsp ons
ĠT ogether
Ġaccommod ate
Ġansw ering
or ph
Ġbrand ing
rou d
h an
Ġfunction ing
at he
ĠI T
Ġref lection
Ġv oices
ĠAl though
Ġgener ator
un t
Ġestablish ing
ĠD ifferent
Ġoffer ings
Ġox ygen
Ġdynam ics
Ġstra w
Ġcreat ors
he m
ĠN uts
Ġrec ruit
Ġlif t
Ġliter acy
Ġpromot ion
ap ed
Ġmanufacture r
g ments
Ġsever ity
Ġpursu ing
Ġe labor
ab it
Ġmal icious
Ġmal ware
Ġw ish
Ġdress ed
ĠG it
Ġspread ing
Ġf o
Ġfluctu ations
Ġpol ished
) )
ot ics
ĠUnderstand ing
Ġcook ies
ĠChick en
Ġc af
Ġv ocal
Ġsoc io
Ġsil k
ĠE at
Ġne ur
Ġgra b
å Ĭ
Ġc ow
Ġrec on
Ġp ic
Ġsp ac
Ġtraum a
Ġth y
Ġgrocer ies
Ġb ake
Ġal ph
ĠBra zil
Ġhe ap
Ġbel t
Ġshel ter
Ġcrow d
on ed
Ġiter ates
Ġserious ly
ĠC ross
ĠSt ore
Ġb ands
ĠAns wer
ĠMich ael
ĠC ard
Ġfl oral
g age
Ġadvoc acy
Ġstr ive
Ġdeg rees
ĠW ild
Ġnucle ar
Ġdel ay
employ ment
Ġperfect ly
Ġharm on
erv ations
Ġcharm ing
Ġrel at
ĠA lp
ĠH aving
l or
Ġen erg
Ġhob bies
Ġs olved
Ġte en
Ġpl ain
Ġantioxid ants
Ġtrig ger
augh ter
Ġworkflow s
n uts
ĠDevelop ing
Ġun w
Ġcomp ly
Ġremain ed
chn ology
Ġf ixtures
ĠP armesan
le ep
h ttps
Ġconstra ints
point s
Ġdes ert
ĠIR As
d ep
ĠInt roduction
Ġchair s
Ġpalind rome
Ġrain forest
Ġevalu ated
ra cy
ĠGl obal
ĠPh il
Ġre ass
ilant ro
ĠC are
ang ed
Ġst ations
Ġdog s
un ges
ĠM ont
is ions
Ġinterv ene
Ġdiscuss ed
Ġcons erve
Ġfight ing
Ġbut t
Ġcomp ound
Ġgreat est
Ġphr ase
Ġsy rup
ĠTh ailand
Ġnews let
il a
Ġparticip ating
Ġa ids
int ensity
et ime
Ġgr ill
str ings
ĠB ot
Ġconf idential
Ġspecif ies
Ġment or
Ġirr igation
rast ination
G PT
u ine
z er
Ġstere otypes
Ġrein force
Ġel ig
alle l
Ġdiv ision
Ġreward ing
pp y
ĠM ental
ort hern
Ġchild hood
Ġcal cium
ĠCon st
ĠOther wise
ĠServ ices
Ġsubs et
low er
Ġphys ics
Ġanalyz es
Ġdeb ate
Ġc ues
ĠCh apter
Ġed itor
Ġexcess ive
L T
o ch
s on
in c
ĠMexic an
ĠL G
ĠStud io
Ġprob ability
ĠS ant
ĠH and
Ġm oon
4 5
Ġcontro vers
ĠWh o
uck s
Ġver ify
Ġm ild
Ġimpro ves
C A
ĠLast ly
s he
Ġde leg
ĠSche dule
Ġinflu ences
ĠC y
ĠT ax
ĠSet ting
Ġconven ience
Ġwalk ed
ĠMond ay
Ġserv ers
Ġd ut
st one
Ġsmooth ly
F S
Ġtim ing
Ġh orm
ĠWind ows
Ġwilling ness
ĠP rep
Ġland ing
Ġwor s
ot ion
less ly
ĠI P
Ġp ip
Ġmilest ones
als a
ur d
. âĢĿ
Ġhum id
ag rams
Ġund ers
ri ka
ov ing
ĠLim it
ĠL ake
st ream
Ġaccept ance
P l
ad ows
Ġrepair s
Ġrout ines
Ġst ro
Ġprocess or
Ġinher it
ĠNe ural
Ġcryst al
Ġsex ual
Ġl on
Ġapolog ize
Ġsec rets
Ġdepend ent
Ġprodu cers
Ġsupp lement
Ġp ray
un k
Ġneighborhood s
ir s
Ġw arrant
Ġform ed
Ġp itch
v ision
Ġ í
Ġdeliver ing
íķ ĺ
Ġreg ional
W S
Ġpunct uation
d isc
Ġindic ators
Ġbo at
con nected
Ġdifferent ly
ĠMut ual
n es
Ġsh red
Ġfail ures
Ġphen omen
chron ous
Ġpos es
ĠPro per
r ants
Ġm issions
o T
d imensional
ment ation
ĠS out
it ives
Ġprof its
Ġthe ater
ĠAg ricult
Ġfilter ing
Ġfact s
Ġdec ades
Ġdecre ased
Ġwa ist
s ize
Ġcool ing
Ġpoll ut
Ġexpress ed
Ġsim mer
ĠCap ital
Ġext ension
Ġf alls
b l
col ored
Ġcomprom ise
Ġrad iation
Ġtempl ate
Ġcert ifications
Ġ id
M A
qu er
bo ards
ĠJohns on
a id
Ġlog s
Ġle nd
ĠL ow
ar rays
Ġpost ure
Ġmark ed
ac ific
board ing
air s
Ġcompat ible
Ġdes cending
ĠInvest ment
Ġregist ered
pl ain
ĠSn ack
Ġb on
Ġadminist rative
ate ver
Ġindepend ence
Ġref uge
Ġelabor ate
Ġconscious ness
Ġgen uine
ĠB at
Ġqual ities
ĠE ating
Ġtem ple
lab eled
Ġtre asure
Ġanim ations
Ġd ust
ot al
Ġgr ated
ential s
p an
Ġs en
v a
Ġacc omp
ĠProf ess
Ġast ronaut
Ġgra ce
ur rent
Ġinfl ation
C D
Ġwit ness
et ing
Ġcab in
Ġgall eries
Ġpar agraph
Ġh ips
Ġpan el
pt ember
m ic
y a
Ġs ushi
Ġscar f
Ġplay ful
ĠC ivil
par amet
Ġmel ted
Ġmirr or
Ġcons erv
Ġin n
ĠM ove
Ġt rib
ĠM ad
Ġsurv iv
ĠL ocal
ĠSaf ety
Ġstead y
in ates
ĠL E
Ġit iner
ĠRo ad
Ġ9 0
Ġsubs cription
ĠG ar
ind er
Ġacknow ledge
å ®
ĠCommun icate
ĠC D
h r
ĠA z
Ġhe ating
Ġacc um
ĠAl low
ĠTh anks
ĠO ld
Ġsmartph one
ch o
Ġdef ense
1 7
Ġaccomplish ments
Ġan onym
ĠB ake
ĠGener ate
ĠInd igenous
Ġjump ing
T ime
ĠE xt
Ġc ilantro
im on
Ġ ).
Ġsal e
ĠDep ending
Ġguarant ee
Ġch ord
l ength
ĠW here
Ġspac ious
Ġphot ograph
Ġappoint ment
Ġcomp ens
Ġcon ferencing
Ġant ib
ĠD yn
ĠVol unte
Ġcur ry
Ġjumps uit
meg a
W hen
Ġmig ration
Ġ201 6
ĠF eed
y les
ĠW al
Ġfrustr ating
fort un
Ġrad io
Ġdiscover ies
h aps
ĠD iv
Ġpuzz le
% .
re ach
ĠJ e
Ġsc ent
b ase
ĠM o
Ġpre cise
Ġnegot iate
ĠC anc
ĠP op
u el
Ġfat igue
or ge
U n
in ity
ĠN ULL
Ġtur key
Ġinflu ential
Ġdifferent iate
b n
Ġearth qu
ĠCom b
h ou
ĠE arly
Ġent ers
d ings
ĠT our
Ġch ic
Ġover coming
Ġback l
arn ess
est eem
Ġshe ll
ĠN ature
Ġrepl acing
Ġqual ifications
Ġcivil ization
Ġclar ity
Ġal ike
ĠJ an
Ġp roud
t r
Ġp ra
ĠP M
ort hy
ĠR isk
Ġstart up
Ġa ward
Ġgra ding
Ġp our
ĠL os
Ġpl ag
Ġaut onomy
Ġcapt ures
Ġpro of
Ġch ia
Ġent ered
ĠH indu
ĠCont rol
b ooks
ĠN arr
ĠM ary
Ġshowc asing
ber ry
Ġag o
Ġclean er
å ľ
Ġthe ft
cel ona
ĠC am
Ġjo ining
ĠR un
ĠâĢ Ķ
art ment
at hetic
ĠAss istant
ĠD u
Ġelect rical
Ġconfig uration
Ġpub lish
s erv
Ġread s
ĠL ine
Ġhy brid
ic ity
ĠCult ural
ĠTh ai
Ġdifficult ies
Ġch ains
Ġchar ity
Ġas semb
Ġsmartph ones
Ġs ought
Ġra cial
Ġban king
ĠAt l
ĠOUT ER
Ġcurric ulum
Ġpean ut
and a
ĠAd obe
ur istic
om fort
ĠPart icip
ĠWrit ing
Ġper ception
Ġsmooth ie
Ġrem ed
ĠO h
Ġst uff
Ġhead er
Ġabnormal ities
ĠAl ways
wh ich
ĠVal ley
Ġsub qu
E S
Ġsn orkeling
ĠB ook
ac hel
Ġph ase
Ġdem ographic
Ġinteract ing
ĠBl ock
" )
Ġpers everance
st ra
Ġ201 7
Ġconc ert
ant ha
Ġmulti pl
Ġmechan ics
m ind
Ġbrows ing
ub ble
ĠCont act
ĠJ ew
Ġcompos itions
Ġinvolve ment
ĠR ock
Ġinnov ations
ĠD rug
H ave
Ġbatter ies
Ġcalcul ations
h igh
Ġconver ting
å ħ
^ ^
ĠL ove
Ġoutd oors
Ġinvest igation
Ġd ip
Ġp aste
Ġg rap
Ġapp les
Ġaut hors
Ġresil ient
D A
Ġexperiment ing
Ġpreval ent
Ġattract ive
Ġfed eral
Ġarrange ments
agon ia
et erm
Ġg am
Ġed it
Ġplan ets
ĠAutom ation
Ġmot or
Ġh arness
Ġmel odies
Ġmanip ulation
ig ma
ĠL ower
Ġste el
Ġcor rel
Ġbreak down
ĠEn h
Ġtu ples
Ġ vel
ĠSystem s
med icine
olut ional
Ġn iche
pro ble
Ġex ists
Ġmis understand
Ġcert ific
Ġtri ps
ĠBeg in
Ġbot tle
Q u
Ġc ub
ic hes
Ġsaf er
Ġatt itude
v ille
or ney
t alk
ĠAug ust
ĠW ell
ie f
ĠIn side
ĠProm ote
o a
it ical
Ġse ed
Ġtem porary
Ġinit ially
Ġa w
ĠL ong
ĠG ame
Ġstat ic
Ġle aks
Ġexcept ional
ĠSecond ly
um bers
g l
Ġadapt ing
br is
ĠS T
ĠN eg
Ġwhe el
ie ve
Ã ³
ree ment
I I
Ġh ang
Ġr ul
Ġadequ ate
ive red
Ġ â
u ary
å ¤
an o
Ġg ym
Ġseason ing
ou st
ĠTh ird
Ġinterv als
Ġfr idge
Ġinter connected
Ġcorpor ations
id a
Ġwhere as
Ġexp ansion
Ġseason al
Ġemotion ally
ats on
Ġcan vas
B A
Ġreli ance
ail ing
Ġpar allel
Ġdark ness
Ġpap rika
Ġdisadvant ages
ĠPal ace
ĠStr ateg
Ġnerv ous
Ġqu otes
Ġadapt able
Ġbre w
L A
Ġcollabor ations
Ġun lock
u ing
Ġan kle
reat ing
Ġres cue
Ġste ak
st orm
sh aring
Ġsold iers
Ġpredict ed
Ġlim iting
ĠS a
Ġcolon ial
Ġtick ets
Ġcirc ular
ĠVe gan
Ġfacil it
ul s
Ġuncertain ty
Ġt rop
m as
ĠC RM
Ġn urs
Ġg arn
al and
p ath
Ġma st
T e
Ġinterpret ation
Ġreason able
Ġun employment
it ative
ĠSp ain
aut ions
Ġbe er
id ers
Ġab and
Ġgather ing
Ġhous es
Ġl ung
Ġpred ators
oc ument
Ġill nesses
ĠRe ach
Ġgreen ery
Ġdisc omfort
ĠLG BT
Ġsymbol ism
Ġgall ery
ë Ĭ
Ġcomplement ary
Ġrad i
wh ile
Ġun labeled
Ġdescrib ed
Ġadapt ive
Ġp il
Ġdist ances
ĠGener al
Ġpr ide
Ġking dom
Ġhasht ags
hav ior
Ġbright er
Ġdemonstr ates
Ġm alf
Ġcollect ive
ac erb
O T
Ġrest ore
Ġ8 0
Ġdram atic
Ġha iku
Ã ¡
Ġextra ction
Ġ- -
Ġspecial ize
Ġfl ash
** :
Ġconf ront
ĠPat agonia
t ax
Ġkey board
ĠB udget
ra d
Ġde bris
Ġsp ray
Ġob l
Ġp anc
Ġoccurre nces
j ud
ĠV ide
Ġex acerb
ĠBreak fast
Ġpromin ent
Ġma pping
ĠCon vers
ĠLim ited
M e
Ġint ers
Ġcon j
ĠCol le
Int roduction
me al
Ġfair ly
Ġspecial izes
ĠDe v
Ġgran ola
Ġtra its
Ġconstruct ive
D B
Ġreturn ing
rodu ct
ous es
ou p
ĠL and
A X
ĠU ns
ĠTest ing
ĠT ype
Ġ Â
Ġhor ror
us ing
r ated
Ġunpredict able
er ly
Ġwise ly
Ġd iving
Ġproc rastination
Ġgen et
ĠW atson
ĠEnc ouraging
ĠM R
Ġdef ining
sp eech
Ġcontext s
Ġh urt
Ġext end
Ġuns ure
Ġin acc
ĠStud ents
ĠL is
Ġb aked
Ġrisk y
ĠD en
c al
Ġbust ling
ĠT arget
Ġcal orie
aware ness
Ġident ifies
Ġhapp ens
Ġcompl aints
Ġmag az
ce ans
Ġman ually
Ġpros pect
Ġtext iles
ĠNarr ator
ĠBar celona
Ġaccess ory
Ġcl ubs
Ġknow s
or i
ĠF il
ĠSol ar
Ġh anging
Ġalle v
sh irt
Ġpass engers
Ġpap ers
ê ³
Wh ich
ĠG en
Ġ \*
Ġdev ast
ĠG al
Ġshred ded
f alls
Ġext ent
a ws
ist ry
Ġagree ments
Ġg host
ĠGerm an
Ġconcern ed
ĠP hys
Ġdirect ions
Ġun e
Ġlaw y
Ġcoord ination
Ġsole ly
Ġpodcast s
Ġmeas urable
ĠN ight
Ġsurpr ise
it an
ĠAngel es
ord ers
Ġplug ins
ĠL ive
ay ing
ex ist
Ġcaut ious
Ġl ush
pr il
elf are
ĠW arm
on ts
Ġf olk
Ġpres ervation
ĠBen ef
Ġp ests
ĠCh ange
ĠExam ple
Ġbul bs
Ġaug mented
Ġdesign ated
Ġprop osal
agn a
Ġdel ivered
Ġf ib
Ġsav ory
Ġresearch ing
Ġwithdraw als
ĠJour nal
Ġas yn
Ġvalid ate
Ġhon or
Ġdupl icate
Ġbasket ball
Ġh am
Ġf ried
Ġgraph s
Ġfeature d
bo iled
Ġover c
imp act
Ġimpair ments
art hy
Ġadv erse
u nder
Ġplan ner
ĠN ut
Ġwal ks
Ġreflect ing
Ġexpand ing
Ġcrow ded
Ġtack le
ep ing
Ġcont am
Ġgl am
Ġlog in
op y
ĠO per
Ð° Ð
ens es
Ġgu ard
ĠT itle
Ġst ood
Ġwarm ing
C l
Ġsche mes
Ġovers ized
ĠIncre ase
ĠSam antha
ĠB ody
ĠA rab
Ġitiner ary
ry pt
V erse
Ġp iano
Ġdetect ed
Ġdecor ations
Ġtutor ial
Ġvisual izations
er ie
Ġb acon
Ġc ure
Ġesc al
Ġdiagnost ic
ib ert
Ġst ew
ĠCal cul
Ġep is
P h
Ġpers u
ĠR ice
ĠSp read
l ong
ëĭ ¤
rop riate
ĠWe bs
Ġconc rete
Ġtrans it
ä» ¥
Ġfr ustration
Ġl inen
ĠU r
ĠFound ation
Ġb one
T itle
ĠEm ail
Ġvert ical
Ġh urric
ĠC ore
Ġter rit
ĠCar bon
Ġaccount ing
S ome
Ġas p
ane ously
Ġcr unch
Ġtherap ies
Ġfree ing
Ġmar ks
Ġz one
Ġexh aust
ĠW ashing
ĠAltern atively
Ġritual s
Ġpassion ate
Ġsimpl er
Ġreview ing
ten ance
Ġro ots
ĠB ur
Ġult imate
ang o
Ġdemand s
Ġbreak through
Ġst em
Ġcor ruption
Ġdef ines
Ġinvest ig
ro t
Ġblog s
Ġal ien
ry ption
Ġpenal ties
Ġprec autions
ĠC E
Ġtherm ost
Ġprof iles
ĠEc onomic
o king
Ġsign ature
Ñ ĥ
Ġp ad
ri er
and om
Ġmay be
ĠAl gorith
Ġl amp
ĠM r
Ġobs erve
Ġqu arter
Ġarchitect ural
bn b
ĠEduc ate
ĠB ec
ĠO ct
Ġpurch ased
P y
hold er
] <|
Ġam pl
u ard
ĠCons ult
ĠInd ust
ĠP ic
a o
Ġmit igating
ĠâĢ ĺ
ĠIsl amic
Ġinfect ion
l ation
Ġqu icksort
Ġadvent ures
Ġsp am
Ġslow er
Ġal though
Ã Ń
Ġsec urities
al d
Ġtrain er
Ġpress ing
c her
Ġemb ed
Ġcreat ure
be at
O P
Ġweek end
Ġdirect ed
Ġrequ iring
Ġtit les
ĠAmeric ans
Ġspir its
Ġmult if
Ġflow er
Ġpoly ester
Ġn ations
ĠSl ack
ĠL atin
Ġmet ab
Ġunderstand able
Ġatt orney
Ġupl oad
Ġsubject ive
l ists
ĠSoph ie
Ġdef end
ĠP acific
Ġrespect ive
Ġactiv ism
Ġrug s
Ġview ing
Ġg est
Ġacceler ate
Ġsp ell
ode grad
Ġsol o
Ġwat ched
ĠP ush
ĠC ert
opt ional
Ġbutt ons
iv ating
Ġcul inary
iet nam
Ġdisp osal
Ġattempt s
Ġd aughter
Ġenthusi asts
ĠCl ub
Ġo ceans
ct ic
rep resent
Ġsm ile
Ġdis par
ĠOut put
Ġdeb ts
Ġn ation
Ġintegr ates
Ġsusp ense
Ġsurf aces
ir atory
S P
I M
ĠM ong
ĠMod ern
j i
Ġcritic ism
Ġremain der
Ġinstall ing
Ġmechan ism
Ġopp on
Ġmod ifications
st ick
ĠMin im
ĠM ess
Ġimag ination
Ġexplicit ly
Ġcelebr ation
Ġinvest igate
Ġsuggest ion
Ġprofit ability
lass es
Ġpoint ers
ĠV ari
ĠA M
Ġencourage ment
Ġpenal ty
az e
Ġa rom
anc hes
Ġa str
Ġk ay
A l
ĠM ater
Ġdi pl
Ġstra in
Ġutil izing
Ġcred ibility
Ġdr um
Ġchar ges
Ġw elfare
w hat
ĠM art
Ġdepend encies
æ ĸ
Ġs ick
Ġme ats
Ġsubs crib
Ġpre f
Ġeleg ance
Ġpre y
Ġdra gon
ĠSe a
Ġinfect ious
un ci
mind ed
Ġw est
Ġche f
ĠZe aland
ĠM er
Ġinst ability
Ġ4 00
Ġf ing
Ġranking s
Ġbl ind
Ġf inger
Ġst ain
ĠAd just
ĠW ed
Ġconsum ing
k ed
ĠInteg ration
h i
ĠB ank
Ġsynt hetic
Ġstri ke
Ġd irt
Ġy es
Ġwid th
Ġprem ium
Ġexercis ing
âĢ Ķ
ber g
ustr ial
Ġrefrig er
Ġtast y
Ġbal ancing
Ġd ancing
ĠPer formance
Ġpl acing
ĠL u
he ast
Ġdipl om
pl ant
f at
odegrad able
Ġcred entials
st ruct
Ġstret ches
ĠE vent
Ġset t
Ġabsor b
Ġreef s
Ġsur ge
e v
ĠLay er
Ġtr ies
Ġfact ory
oun ced
a it
he rent
ĠStud ies
Ġover night
iv irus
fortun ately
ĠAr ch
Ġte aches
ĠSu pervised
Ġt on
Ġsim ult
Ġsimilar ities
ĠAgricult ure
Ġs alsa
cis m
Ġconc aten
Ġcha os
Ġperson ally
ĠHel p
Ġsim ulations
Ġgame play
Ġgate way
Ġhand les
ĠQ uality
Ġglob ally
Ġterr or
Ġdr iven
P C
Ġwear able
d is
it ting
ĠC all
Ġv aries
Ġpartic les
it arian
Ġhes it
Ġdra g
Ġtrans f
Ġpump kin
ĠSal ad
Ġb order
Ġcontribut es
Ġnatural ly
ĠTra vel
Ġp ound
Ġsu perv
Ġpart ition
Ġ201 5
l aim
Ġa i
ĠStre ng
ëĬ Ķ
Ġp est
Ġf onts
Gener ate
pie ce
Ġarr ive
ĠSp e
be an
fort able
Ġobstac le
Ġwel coming
Ġsk ip
pro of
at meal
ĠImp act
C E
Ġhaz ards
Ġmod es
Ġf ier
ĠRem ote
Ġsurviv ors
Ġc akes
Ġp ix
hed ral
Ġorgan isms
al i
Ġconvers ions
ĠM obile
Ġru ins
Ġdiscipl ine
ĠS and
Ġdistribut e
NN ER
Ġev oke
ĠSm ooth
Ġexper iments
ic ates
d am
Ġassum ptions
Ġbre ach
ĠAd apt
os itive
ĠM arch
Ġen force
Ġplace ment
t ical
Ġgovern ance
ĠB ang
Ġf ur
ĠCh ic
Ġallev iate
Ġclut ter
Ġw ines
b u
erv es
ĠLGBT Q
Ġdig it
Ġprom ise
h ow
fl ix
Ġcount s
Ġwal nuts
Ġoccur red
I G
Ġh ire
Ġadop ted
Ġa qu
Ġgain ing
ot o
ĠI NNER
Ġs arc
ĠCollabor ate
ĠChar act
ĠIn formation
ĠDr ive
ic iency
Ġw ool
Ġcalcul ating
P al
ĠP ack
Ġinterv al
ĠEx cel
Ġacknow led
Ġunivers al
Ġr ivers
Ġg aps
red ient
Ġsod a
Ġmod ul
Ġto xic
Ġwh it
Ġnecess arily
g ent
athe red
ĠChat GPT
im m
app ropriate
Ġres orts
ĠD ark
Ġmeasure ments
Ġbat t
ĠC over
Ġh ate
Ġbreath s
ĠSp r
Ġp it
y nt
ĠM aking
Ġvis its
ĠB rown
Ġeconom ies
Ġsw ap
Ġgod s
ist ication
ĠR om
Ġst ays
Ġbe ar
ëĭ Ī
ĠS ch
p ass
Ġcl osing
um eric
Ġp ine
Ġsoph istication
ĠReduc ed
Ġbu ff
Ġwarrant y
Ġvolunte ers
v ance
cle ar
ĠWashing ton
Ġev il
ĠW ood
Ġpos itives
Ġsegment ation
ĠAl ice
Ġtow ns
ar ks
Ġsou ven
or gan
Ġto ward
ĠE ss
m en
Ġsh oe
Ġad j
u its
Ġhyper paramet
Ġcap ability
H R
ĠAv ocado
Ġburn ing
S c
Ġbo il
Ġwas h
ĠN or
N ame
m l
ĠWe ek
Ġremed ies
Ġdra in
Ġstream s
Ġb oss
ĠM int
ĠAs ian
Ġse at
ĠW H
Ġadvance ment
ĠColle ge
c ular
Ġbra ce
ĠV in
Ġchar ged
Ġcapt uring
Ġcr imes
Ġcrow ds
Ġoff set
Ġclim bing
ĠFeed back
ig rap
Ġlog ical
ĠSe ptember
Ġch amp
und red
I nd
A d
Ġfire w
st ar
ĠE ver
Ġn ose
Ġst umbled
Ġcult ivate
ĠM L
Ġmisunderstand ings
ir ms
ĠS udd
Ġflow y
ĠAir bnb
Ġh all
Ġvol can
Ġpar king
ĠBe ing
Ġsour ced
ĠC oun
Ġyou th
ĠImplement ing
2 4
Ġ7 0
Ġrelat able
et ch
Ġprogress ion
ĠRep ublic
Ġinc idents
ĠMount ain
in se
H T
it is
Ġwe igh
Ġtext s
r us
Ġspace craft
p ower
ro te
Ġfoot age
Ġinter rupt
for ward
Ġsug ars
Ġsudd en
æ ĺ
ĠT er
Ġcin em
Ġincent iv
at ers
ĠBenef its
Ġb ree
Ġbr anches
Ġsimult aneously
f ile
ĠU nder
ĠL ab
ĠEast ern
Ġstart ups
Ġre use
E E
w in
p ool
Ġc ache
Ġrock s
O kay
Ġscr atch
sh aped
Ġconnect ivity
Ġagg reg
Ġill usion
Ġhol es
Ġmechan ic
Ġresp iratory
Ġemp athetic
unci ation
Ġex it
ĠTo ols
ol es
Ġbig ger
è ¯
Ġexhib it
Ġb orn
Ġequ ally
Ġfil mm
Ġas ks
ĠO cean
ĠGree ce
Ġang le
Ġpositive ly
che ck
Ġtou ches
ĠF ac
Ġlog ging
Ġve ter
ĠContin u
Ġceremon ies
Ġplag iar
Ġsle e
Ġemerg encies
ĠM id
Ġge othermal
em ies
ĠAd vent
Ġinc ident
Ġdowns ides
o ber
Ġcompos ed
Ġm ask
åı ¯
Ġmat ters
Ġpe ers
ut ch
Ġp ets
ĠPl us
Ġl oud
w est
Ġstream l
Ġto pped
Ġsend s
Ġo z
Ġstri p
ĠTe am
ĠTr ust
Ġdemoc racy
Ġa er
Ġic on
Ġharvest ing
Ġcost ly
Ġconver ted
Ġhom eless
ag us
Ġhun ting
b age
ĠBle nd
Ġr ating
us hes
Ġpr ison
Ġlisten ers
Ġpre gn
Ġsuns et
b ility
Ġk ale
Ġcomput e
E M
or ial
Ġaut o
Ġto oth
Ġing redient
Ġf usion
am ily
aul if
Ġthy me
Ġem erge
Ġrhyth ms
Ġunc over
aulif lower
Ġf ought
Ġsuggest ing
Ġun ity
Ġinsect s
Ġt ensions
ĠSudd enly
m od
ĠPres ident
ep s
Ġch urch
ĠG PS
app y
ĠR ad
ub a
Ġchalleng ed
Ġso ap
ĠJ une
ĠExp ress
Ġfre el
ĠM ic
ĠOut ro
Ġrec ycle
Ġph arm
ĠV ietnam
Ġenerg ized
Ġsqu ats
Ġtem po
Ġcarry ing
ĠF air
r id
Ġsens itivity
z a
ut ter
ĠE gg
f unction
Ġconsult ing
nown ed
ĠD ial
Ġregular ization
Ġsug ary
Ġsh ock
ĠRe qu
Ġent ering
Ġsubs id
ĠSl ide
Ġc aching
Ġvulner ability
Ġb amboo
Ġpol ar
Ġdist ingu
Ġsimpl icity
Ġsubqu ery
ĠLight ing
A pp
Ġlight er
Ġmin i
Ġdeb ug
Ġsubst it
Ġheart s
Ġce iling
Ġprov en
Ġtrain s
Ġlist ener
ac her
ot ional
Ġbu gs
Ġqu ad
Ġpair ing
Ġadjust ed
Ġeld erly
op es
Ġwh atever
Ġiter ative
ĠPlay ers
Ġt um
Ġad here
Ġexecut ing
ph ony
\ '
ic ian
Ġbe an
Ġde le
Ġcontract s
Ġmultif aceted
ook ed
Ġdef eat
ĠSu per
ĠS en
ĠT ips
ĠP ress
Ġbur den
Ġcl ues
ĠA pril
ĠGard en
Ġpro ceed
ĠL ent
Ġneur ons
Ġfund ra
Ġmis use
Ġfoot ball
ĠRet urn
ĠOrgan izations
Ġver b
ä¸ Ģ
Ġher b
ĠP u
Ġbus es
Ġv ib
Ġd ense
c ustom
Ġreflect ed
ĠContinu ously
ĠA WS
ĠF riend
Ġded uct
Ġban anas
" .<|
ĠD om
Ġadvoc ating
Ġsustain ably
Ġcert ified
k ens
oc ation
ĠF orm
Ġs ere
Ġact s
ĠSc ott
Ġtag ging
p m
ĠV en
Ġ >
Ġtom orrow
Ġa we
r is
Ġincre ment
Ġmyth ology
Ġdec ade
Ġshort est
Ġpic nic
ĠInd ones
Ġun seen
ĠF arm
Ġsh adows
ĠTh om
Ġachieve ment
Ġcomple tion
Ġbirth day
ĠCustom ers
ructure d
ie val
Ġbi king
Ġst opping
in formation
Ġencrypt ed
ìĿ Ħ
ĠW atch
ot ing
Ġperpetu ating
Ġan ger
Ġconver ts
re m
ĠSp ring
Ġwin ning
Ġz ones
ĠDep artment
Ġne uro
Ġmet a
ĠSim ply
Ġdo ors
ĠSupp ose
ĠT otal
stand ing
Ġfut uristic
Ġl ake
m ost
ĠM el
ĠInd ustrial
Ġsu fficient
Ġdead line
Ġsing ing
ura bility
Ġplug in
ĠMR Is
I F
Ġcir cle
ĠBec ause
ster ious
or ch
Ġg athered
Ġsuff ering
IT s
ĠP ers
Ġconserv ative
ĠC ast
Ġinvest or
Ġdownt ime
ve t
ĠTw o
ly n
Ġpop s
n atural
Ġres olved
i ro
ĠAccount ability
Ġglobal ization
aff e
Ġvol atility
og h
Ġped est
ĠMe asure
Ġastronaut s
ĠV er
Ġlapt ops
Ġdispar ities
Ġkid ney
Ġcontroll ing
Ġiter ating
Ġcopy right
Ġb alls
ri age
Ġment orship
Ġpl us
if fs
us ions
Ġrelig ions
ĠSk ills
Ġsil hou
oth ic
Ġl ively
ĠHist ory
P ress
dep th
Ġadj ac
Ġrest oration
Ġinsert ion
Ġscal ability
Ġmod eration
ir al
Ġair craft
ffic iency
Ġimmig ration
Ex plain
Ġra cism
b led
Ġex ch
Ġexperiment ation
Ġtrop ical
Ġcl oth
Ġfact ories
D id
ĥ ½
c omm
Ġstir ring
Ġdess erts
2 2
Ġcollabor ating
Ġhar ass
Ġconsum ed
ĠI oT
ĠSoc iety
ĠT ree
os ite
Ġint im
ĠL ED
Ġind ices
ang le
Ġmed ian
ow ns
ĠAg reement
ĠVide o
st e
Ġloc ate
ĠSqu are
bi ance
ĠTo fu
it ored
Ġv ote
Ġdom inant
ĠL aw
er ver
ĠRe place
Ġscal able
Ġth us
ycl ing
Ġagg ressive
ĠBra nd
Ġint ention
Ġbl ues
Ġtrig gers
Ġsequ ences
Ġm im
Ġtr ick
cept ions
Ġseamless ly
ĠPersonal ization
ĠEng land
Ġde grad
Ġcompost ing
Ġsub array
Ġtiss ue
Ġcris p
u pervised
Ġp umps
Ġw rote
ĠNet flix
Ġhospit als
Ġwas hing
pl ing
iff el
Ġg iant
Ġsepar ated
ĠSt an
ĠC ong
ĠHigh light
Ġcompos ers
Ġb ite
Ġmon itored
Ġtow er
cul es
ove mber
Ġpollut ants
ĠFin ance
ĠS low
ĠM ars
Ġmy sterious
] (
re qu
Ġcover ing
Ġse asons
ĠD inner
Ġout lets
Ġadapt ation
ĠR ights
Ġf rames
app le
ro ad
à ¤
Ġvict ory
ij ing
Ġsh orts
Ġfin ancing
Ġdr ives
ĠE qu
are st
Ġoutbre aks
Ġess ence
Ġv irt
Ġmas hed
Ġam biance
Ġ @
ly wood
ĠS ign
Ġfail ed
ĠSc ient
Ġvacc ine
Ġpret ty
Ġcaf es
Ġpl astics
Ġinse c
Ġch am
Ġnum er
Ġcaut ion
Ġout reach
Ġpar se
Ġearn ed
Ġfost ering
ĠRe formation
ĠV PN
Ġhor se
el iness
Ġess ays
ĠRO I
Ġenh ances
ĠF ut
ĠD an
Ġcomp ounds
Ġunder ground
Ġatt raction
ĠO vers
Ġsystem ic
proble ms
ĠR ich
Ġroll ing
Ġtw ice
ĠAutom ated
os a
G iven
ĠR andom
ci pl
Ġsh adow
Ġdupl icates
Ġhe al
p aced
Ġdist ur
ĠKore an
d ney
f are
Ġconnect s
Ġacqu is
Ġaccomplish ment
ĠChild ren
arc hed
Ġd ensity
ĠL in
Ġble nder
ru e
Ġnegot iation
ĠF ra
Ð »
ĠCal endar
e lect
G B
N D
ĠSt at
Ġmer ch
Ġa wards
vis it
Ġrevers ed
Ġdegrad ation
Ġst uck
Ġst icks
ĠA D
ĠIntellig ent
ĠTem ple
u an
Ġg ases
ster dam
Ġadvis ors
Ġdemoc ratic
Ġformat ting
ĠP en
Ġaff irm
st ore
o osing
Ġcrack ers
Ġi OS
Ġleg end
Ġsh ake
Ġj og
Ġmod ules
Ġland f
Ġdecor ate
ì Ħ
Ġcow ork
Ġsu ng
ĠN ike
Ġskin care
ĠV an
the med
Ġadvers ity
w ell
Ġentrepreneurs hip
ĠL unch
Ġrespect ed
Ġsad ness
ĠHum mus
Ġnear ly
C S
ëĭĪ ëĭ¤
Ġw ife
Ġtele vision
Ġlas agna
ach ine
il ation
Ġaccept ed
Ġproced ure
ĠL y
ĠWill iam
Ġut ilities
it ian
Ġreson ate
ĠB ubble
Ġinstru mental
Ġwealth y
Ġre ct
Ġsimpl ify
Ġfertil izers
Ġfe as
Ġma ple
ĠIn nov
iv ia
Ġmult ip
B l
Ġen emies
Ġview er
and el
ins ert
Ġg own
Ġmotiv ations
Ġhaz ard
ot a
Ġutil ize
ĠPort ug
es la
Ġpron unciation
Ġsurf ing
ë ¥
b ow
Ġdisc on
ìĿ ´
Ġign ore
( '
f rame
at ter
ĠP aul
ĠFr ank
Ġconc erts
ĠChrist mas
Ġbi odegradable
Ġpass es
igrap hy
Ġinter ns
Ġcom edy
Ġdra wn
Ġscal es
Ġexhib itions
ĠH ope
f ish
ĠF ed
Ġsubst ance
ĠP sych
ib bean
al og
Ġf lying
Ġintegr ations
Ġforg iveness
ĠGu ide
Ġrem ark
Ġpres ents
Ġacqu ire
Ġlif etime
Ġleg it
Ġder iv
ĠC UT
ĠMain tain
Ġspread she
Ġen emy
Ġfulfill ment
Ġexam ine
havior al
Ġreact ion
Ġscrap ing
Ġfeed ing
Ġsh ower
ĠAr r
Ġb orrow
ĠO l
Ġgr ant
|> "
Ġpars ing
g ien
Ġquant ity
ĠB Y
Ġdr izzle
u a
Ġbrain storm
n oon
ĠB onds
Ġf ell
ĠFr iday
Ġpersist ent
h ib
Ġanticip ate
Ġexplain ing
ĠH all
ĠIndust ry
ĠApp ly
Ġgirl s
Ġra il
Ġor che
Ġvary ing
ä ¹
Ġextreme ly
Ġdis ag
Ġor ient
b ound
Ġcraft s
Ġintrodu cing
ĠSh ould
Ġinstall ations
ĠG re
ĠPre cision
ĠE iffel
Ġdis cl
ĠU til
Ġquestion na
Ġm isc
pt ical
Ġbu zz
Ġcomprehens ion
l ib
Ġcontinu ing
Ġobs erved
Ġisol ated
Ġsubscrib ers
Ġunlike ly
Ġp owered
ab led
ĠI ll
hem ian
Ġcompl icated
Ġexpand ed
Ġplagiar ism
Ġind eed
ĠBe ijing
Ġab und
ig an
Ġun com
par agus
Ġli kes
Ġb low
pl aces
Ġconj unction
ĠWord Press
Ġe arthy
ĠH om
ĠPro tein
B ased
d oor
ĠS it
Ġh ub
ĠU I
disc overy
Ġref und
ĠMus lim
Ġm amm
A P
) .<|
ane an
t an
ĠBe aut
Ġbehavior al
Ġ ram
ĠM ah
Ġclim b
Ġdirect or
ad y
Ġ2 2
Ġpromot ional
Ġexp ort
ĠExper ience
Ġmust ard
ĠTur key
Ġgr ants
Ġplan ned
ĠM en
Ġbr id
Ġview ed
ĠDisc uss
Ġret reat
Ġspe eds
Ġbreath able
ĠPart ner
umb bell
oc ate
Ġiter able
ì ł
Ġo mega
Ġmas ks
Ġperm ut
Ġdom estic
6 5
g u
ĠG ogh
ugg ed
Ġprinci ple
Ġw is
Ġgra de
Ġinf ographics
Ġmajor ity
Ġvib e
Ġrecord ings
ĠY ear
R e
ov iet
çĶ ¨
Ġma nd
u ces
Ġsens or
å Ĳ
av ed
ap se
Ġun for
ĠA S
Ġsudd enly
Ġgra ms
re f
Ġfet a
Ġb atch
Ġremov es
ĠCons ist
c ount
ĠCons um
Ġassoci ations
Ġfant astic
Ġtest ament
ĠW ay
ĠUns upervised
Ñ ı
Ġjour n
ĠIce land
it ational
ĠC od
ĠIntern et
Ġdark er
Ġsacrific ing
Ġvacc ines
Ġte eth
ĠFe ature
em on
Ġst ops
it ches
Ġblock ing
ons ist
IN G
Ġsh ooting
Ġnav igating
Ġrel ies
Ġcred its
ios ity
ĠI N
c os
ro at
Ġ4 5
ĠTechn ical
ĠBet ter
I A
Ġpros per
Ġchun ks
Ġimmig rants
ĠC ath
it err
Ġrandom ly
Ġdim ensions
m art
Ġc ats
Ġto es
Ġhop ing
Ġphotograph s
Ġappro ached
Ġunst able
Ġjo ined
Ġutil ized
Ġw arn
clud ing
Ġequ ival
Ġselect s
Ġli ability
Ġrele vance
ĠTe le
Ġse gments
Ġpersonal ities
ĠSir i
Ð º
Ġbowl s
B e
ex p
Ġapp et
äº º
ĠTreat ment
v ide
ĠB ow
Ĥ ¬
se ll
ĠJ en
ad ian
2 1
ĠS SL
l asting
ĠGold en
Ġche aper
iterr anean
ĠState ment
bul lying
ce mber
Ġam eric
ĠPer u
Ġc able
3 5
Ġcompan ions
j u
Ġflow ing
Ġtyp ical
ĠH ang
Ġsh ots
Ġtw ists
Ġrot ation
Ġn am
Ġsandw iches
ĠE co
Ġle ct
Ġmed ieval
row s
Ġoff ensive
ĠJew ish
Ġconstruct or
P U
ann ed
Ġf ault
Ġh ide
Ġopp osite
Ġstud ied
Ġse ven
ĠImpro ve
Ġsem i
Ġro ast
Ġdepart ments
Ġboo lean
Ġdefin ition
du ction
ĠCan yon
Ġal i
Ġlist ed
Ġport ra
ĠS oviet
Ġdat ing
ĠY ellow
c ut
Ġs in
Ġd urability
rop ol
ĠOrgan ic
ER E
Ġcl ock
Ġw ings
Ġswe ater
Ġs outh
ĠN A
Ġuncom fortable
g ue
Ġh undred
Ġw ra
Ġvot ing
s ite
ĠInf lu
Ġch ol
anc ers
Ġflood s
Ġst a
Ġretail er
Ġelig ible
Ġbarri er
ĠJ es
ĠInv olve
Ġadapt ations
ĠH em
W ell
Ġsocio economic
in als
oc ur
b ru
y al
ir gin
Ġdiet itian
Ġembra cing
bal ance
othe rapy
ĠRep ort
Ġvari ed
Ġbreast s
6 4
Ġd y
he im
Ġupper case
et er
Ġinv asive
on na
Ġmole cules
ou ds
ĠReg ulation
ĠF act
Ġhy gien
ĠJ ul
ir ds
ast y
ĠE U
Ġdepend ence
Ġf irms
æ ķ
ĠDec ision
Ġmar in
ĠOct ober
ĠAm sterdam
ĠS ym
ĠElect ric
Ġauthentic ity
Ġir rit
ĠProt ection
Ġorder ing
Ġrun time
m ail
Ġmur der
Ġpl ates
tt oman
r ine
m ates
the ns
f ires
Ġbox es
Ġmoment um
Ġcur ve
Ġto ps
con f
ĠCanc un
Ġcl icking
ĠOff ice
Ġdec iding
Ġdash board
Ġtra pped
ĠPan el
Ġdra ft
iling ual
ĠReduc ing
Ġcelebr ates
Ġbree ze
he it
is ure
ĠNet works
Ġthe ories
Ġsmo king
Ġprompt ly
Ġsurg ical
it as
Ġident ification
y an
ĠThrough out
Ġhand led
Ġdeterm ines
è ĥ½
mm et
.. ..
l ooking
ĠSu nd
Ġhost s
play er
cript ions
Ġ19 8
art ial
Ġres olving
n o
ìĹ Ĳ
ĠRec urs
v ings
Ġh ole
Ġdiagnos ed
Ġl ingu
ĠH a
C ont
Ġmind s
Ġlamb da
Ġske w
Ġh us
Ġmaintain ed
ĠPl atform
Ġ2 3
Ġconv olutional
Ġprot ests
ĠSoft ware
al id
ĠMed itation
k ins
Ġfier ce
Ġprofession ally
Ġdes ires
Ġrel ate
resh old
Ġir re
L ist
Ġb ass
Ġst icking
t uce
Ġpass ions
Ġr ank
I ns
Ġrele ases
Ġisland s
writ ten
ah ren
E TF
Ġcoc oa
Ġnutrition ist
om ic
ĠAn n
Ġsh ine
T ra
Ġemerg ence
Ġnu anced
Ġphot ograp
ef initely
L e
ĠUn ivers
Ġvol umes
Ġcontin ually
Ġtick et
ag ine
Ġl iv
Ġmirr ors
Ġcompens ation
2 9
ĠG D
ĠDo es
Ġg ifts
Ġweek ly
Ġtell ing
b ar
Ġste ep
Ġmass age
m ain
Ġremark able
ĠStreng th
Ġsweet ness
el come
F A
ahren heit
Ġinc hes
Ġroo ft
Ġv enues
Ġopt ional
Ġhun t
in clusive
Ġprop ag
Ġst om
Ġinquir y
ĠLE FT
Ġequ ations
Ġre ject
am el
v in
Ġclust er
represent ed
affe ine
Ġpo ets
Ġen velop
U P
I P
Ġpresent ations
H e
Ġhumid ity
ã ģ
ĠC apt
ĠCar ibbean
Ġn ost
Ġsouven irs
Ġpersu asive
c ip
Ġw and
Ġport able
Ġwond ers
Ġcl icks
Ġcatch y
Ġche es
Ġgrad ient
ep hy
b ling
Ġleg is
Ġant ivirus
ĠDivers ification
Ġto ys
Ġì ŀ
en h
Ġma ze
Ġw oven
ĠK y
Ġpost er
Ġment ions
Ġbul let
ĠF our
ĠE ffective
ĠPrep are
Ġrepl icate
Ġlon eliness
ĠF lex
Ġpun ish
Ġe ight
ĠMan ager
ĠComm on
as hes
Ġtransmit ted
Ġfold er
Ġcomp iler
Ġcompet itions
Ġfac ility
Ġref ined
ĠSt ory
en ess
ĠSy dney
Ġhospit ality
Ġg ig
ĠAg ile
Ġper mission
Ġlicens ed
wa isted
Ġtest imon
Ġcapture d
Ġf ry
ĠMount ains
Ġteach ings
ĠPhys ical
Ġover r
ĠPart ners
Ġair lines
Ġpoor ly
ĠMed iterranean
Ġmut ations
Ġencount ers
Ġem it
Ġstud io
Ġwith stand
Ġdec ent
Ġdist ant
Ġinacc urate
ĠMor oc
rol og
f ire
Ġenh anced
als amic
bru ary
ĠJ uly
ĠCoun cil
if est
ĠN ovember
ì Ĭ
Ġs out
Ġfl akes
ĠPat ient
ĠCle ar
ĠCo ast
ĠCount y
Ġco aches
? :
Ġwor ried
l ane
Ġact ing
ĠRo bert
Ġathlet ic
Ġpublic ations
Ġmetab ol
Ġpe as
Ġaband oned
Ġaccomp an
ĠS ound
ĠF ort
Ġhal ves
Ġprop ort
Ġharass ment
ĠDe b
ĠG raph
ĠV ict
ĠResp ons
Ġmetap hor
le vant
D es
ess ion
Ġste am
Ġvirus es
d ess
m etic
ĠM aria
Ġtalent ed
O s
Ġrust ic
Ġl ies
ĠP oint
Ġsynt hes
are lla
ef ined
Ġwonder ful
w atch
Ġperform ers
Ġsandw ich
ĠP ositive
Ġbelong ing
Ġsc roll
ul f
ĠRec ommend
Ph one
Ġtax able
ĠMe an
ç »
ĠRobot ics
Ġcand les
Ġs ore
Ġto kens
Ġsung lasses
Ġy ield
og en
H ub
Ġinherit ance
Ġ19 60
bre aking
ĠProfess ional
f ly
Ġres ist
Ġp ads
ĠG PT
Ġinn oc
Ġcompat ibility
ĠShop ify
Ġv es
ĠT esla
zz arella
ĠT or
ro g
Ġincom plete
Ġin appropriate
i kes
Ġasyn chronous
ĠC our
ĠJ ump
ĠReg ard
ĠG othic
row ing
Ġsty ling
ĠC as
ĠB aked
ph ones
Ġinc onsist
Ġheart y
ĠC ir
O h
N et
Ġeffic acy
pt ic
Ġclar ify
Ġhurric anes
Ġsp ice
ĠTrans fer
C ommerce
Ġch ords
Ġkn ife
Ġhesit ant
ur ring
y ard
ak i
Ġmalf unction
if ted
iv ities
ĠIs ra
ĠComput er
Ġn orm
Ġper man
ĠA ge
Ġscient ist
Ġre nder
ret te
mat ory
Ġdiff ers
Ġw ake
Ġl akes
Ġoccur ring
Ġcast le
ĠRob o
Ġcou p
un ing
Ġp endant
ĠL ena
Ġrefuge es
Ġlet ting
ynt hesis
Ġflow s
Ġbreat he
ester ol
Ġint rig
els ius
Ġmort gage
å Ń
Ġgl ac
ĠRe in
cons cious
Ġcuc umbers
bur g
ĠRese archers
Ġdemonstr ated
am matory
ĠRes cue
ar ms
ĠD ra
Ġdro ps
Ġappl ies
os h
Ġmot if
Ġredu nd
Ġang les
Ġwire less
Ġdepict ed
ever al
Ġski ing
ĠComb ine
ĠS ky
ĠW alking
Ġobl ig
st ate
pr ise
Ġnight life
d ata
Ġc auliflower
serv ice
Ġdiv ine
Ġengine er
Ġbe es
Ġpsych ology
Ġdisput es
Ġcoord inate
ĠMult i
Ġwater falls
od es
Ġstraw berries
I S
Ġadv ancing
% ,
ĠGe orge
ĠP ain
if ically
ĠDivers ify
rodu ce
ĠEnc ryption
ĠZ ephy
Ġbra cket
Ġtast es
Ġdon ations
i ams
Ġo d
ĠFut ure
ign ed
Ġcir cul
Ġrecruit ment
ĠRe ward
Ġdef ects
Ġnegoti ating
Ġd ie
ĠR a
Ġdescrib es
ĠF ahrenheit
st ing
Ġr ing
Ġexperiment al
Ġcounsel or
æĪ ĳ
ĠF rame
Ġexam s
è ®
Ġappreci ated
Ġmathemat ics
Ġrefriger ator
he ro
ĠRes ort
ĠE X
D F
Ġland s
Ġc ave
ĠSt ocks
Ġregist ration
ĠChic ago
Ġstom ach
ol ine
Ġth reshold
Ġe cho
Ġl overs
ĠBan ff
Ġglass es
Ġcar ried
Ġe ager
ĠDiv ide
ĠBuddh ism
ed ge
Ġcl ouds
ĠPlan ning
m ers
om a
Ġinstit ution
In c
light en
Ġw are
am i
l ers
Ġdivers ifying
Ġalloc ated
ĠGovern ment
Ġsc oring
Ġdistract ing
Ġfar ms
Ġcheck out
Ġmult im
Ġantib i
U S
Ġpersonal ization
Ġiter ations
Ġcou ples
Ġsp elling
Ġhygien e
Ġweb inars
Ġcon ventional
S o
le arn
Ġk ill
Ġdistinct ive
Ġmethod ology
ĠRecogn ition
Ġaud iting
ĠBu y
9 0
Ġ3 5
Ġf ellow
ĠProt ect
Ġkay aking
Ġqu iz
ung le
ĠInt erv
st ers
Ġart is
Ġsp oke
Ġhyperparamet ers
Ġstraight forward
ĠT own
sp ace
ĠW alk
ĠS av
ĠF ish
Ġcur s
Ġmeasure d
ĠQue en
é Ģ
Ġslic ing
olut e
æĺ ¯
Ġart works
Ġplan k
Ġcur rency
as uring
Ġdesk top
ist an
ĠMan ufact
Ġnumer ical
Ġt we
h abil
Ġs ights
ĠD ij
Ġar rest
Ġmean ings
Ġut ility
Ñ ĸ
Ġoutl ook
Ġch apter
Ġdownt own
ĠN ations
Ġimm ense
Ġdis ruption
k i
Ġord inary
Ġres et
Ġbrown ed
w orthy
Ġin ch
\* \*
Ġthought ful
Ġeduc ating
Ġfing ers
iv ation
Ġlength s
ĠJ ake
Ġgard ening
ĠF u
W ill
Ġscript s
Ġoper ates
E n
Ã ±
Ġtreat s
ar l
ĠG ames
Ġoper ational
ĠHer itage
ĠUS A
Ġ2 7
ot ive
Ġtr icks
Ġexplain ed
r ise
Ġfail s
Ġcan ned
Ġwis dom
u ity
ĠB oo
r ating
a way
Ġmo zzarella
Ġind ul
ĠP il
Ġtravel ed
Ġcut s
Ġal ter
ĠQu ant
ĠN a
W hy
Ġdecor ating
Ġint r
Ġconst it
ina ig
em ia
Ġco al
v ity
Ġg ut
ĠCreat ive
Ġoccasion ally
ĠMet hod
Ġconsult ant
ĠH R
crib ed
pl ot
ĠSt one
ĠKore a
ĠS weet
ĠRes ource
Ġcategor ize
ĠG all
ĠL o
Ġunc on
ĠCons ervation
Ġadjac ent
Ġsacrific e
Ġspecific ations
ĠL arge
Ġjud ge
li hood
ĠT ex
l ene
Ġbr ut
Ġbatt les
lighten ment
Ġbi ological
in ery
Ġ2 8
ĠEm b
tra ded
Ġlet tuce
pack ed
AR T
c atching
w ar
Ġtyp ography
ĠC elsius
Ġdis k
inaig rette
Ġn an
Ġcur iosity
Ġcamp us
Ġexplain s
ck ets
Ġsub class
ĠD ead
Ġra ces
y ou
Ġsens ations
ill as
ĠM aster
ĠP ast
c uss
el esc
Ġk iller
ĠSu ccess
itam in
Ġtravers e
5 5
ĠR achel
Ġillustr ations
an qu
Ġse ar
Ġanx ious
b a
ou l
op ol
Ġafter noon
Ġones elf
as ks
Ġassemb ly
Ġcall igraphy
Ġ201 4
sc ape
Ġadvert ise
Ġ %
Ġanc est
it tle
ë¥ ¼
ĠDet ection
ĠB ob
Ġ Ã
Ġmax i
ĠIm port
Ġgenet ics
åı¯ ä»¥
ĠPart y
++ ,
Ġor anges
ĠPat ients
Ġcas he
f irst
Ġm int
ict ional
Ġsche ma
C C
un ctions
Ġmost ly
olog ist
pro duct
Ġdigest ive
Ġr ib
Ġì Ŀ
Ġwhit espace
ĠAr ctic
Ġestablish ment
ĠStand ard
Ġdeploy ing
Ġsens ation
Ġprotect ive
Ġrespond ers
Ġback pack
Ġmid i
p ress
Ġclust ers
Ġtim elines
Ġcomput ational
Ġpe er
Ġbro ther
Ġro of
ĠWor king
ĠJan uary
ì ļ
Ġk ick
Ġgrav ity
ĠDial og
ec ademy
ĠG ather
pl iance
Ġcomp ression
Ġviol ations
Ġhazard ous
Ġpar ad
Ġchol esterol
te e
Ġroll ed
Ġag ile
I ON
ult y
ĠL ord
D s
ĠT H
ote chnology
Ġsc ram
Ġn orth
Ġnon profit
ĠJ ess
Ġge ographic
ĠSpec ial
tra cking
Ġsaf eg
Ġimpact ful
Ġregul ating
ĠAss ign
car b
Ġele ph
E SC
Ġ1 000
Ġbackl inks
Ġaccept ing
ìĿ ĺ
Ġro yal
Ġacquis ition
ĠP ra
ĠM ass
c orn
Ġben e
Ġapp arent
Ġso othing
ĠCh anges
get table
Ġstro ke
Ġst igma
ĠBlock chain
D ata
Ġas paragus
Ġwed dings
acks on
the ning
PI s
Ġexacerb ate
Ġbene ath
Ġjo kes
Ġlive lihood
Ġr um
Ġsustain ed
Ġ ),
Ġpr one
Ġlawy er
b lock
Ġrein for
ãĢ ģ
r as
Ġdon ate
Ġinitial izes
ĠCath olic
Ġprin ter
Ġsarc asm
ĠD rop
Ġele ction
ĠEmploy ee
ĠAr ts
ĠAct ive
Ġass ert
aus es
Ġfrustr ated
Ġv ig
Ġexp on
ut ing
Ġhousehold s
Ġgrav itational
p urpose
ĠDivers e
Ġneighb ors
Ġres istant
Ġrelie ve
v i
Ġmain stream
f und
ĠOn ly
Ġnews p
Ġblend ing
ĠH ub
ik i
Ġl ob
Ġend ed
ĠMic hel
et tes
Ġsh oot
ott age
per form
Ġdra ined
ĠAccess orize
Ġequival ent
Ġt ires
E A
Ġent r
c ult
est ock
ĠL ee
at is
ĠMed icine
Ġt iny
ĠRuss ian
Ġe ast
ë ¡
Ġrig orous
ag g
ĠM au
su ited
Ġhierarch y
Ġunders erved
ec d
" ?<|
Ġus ual
Ġann ounced
Ġr ush
ĠD ub
Ġforecast s
Ġunfor gettable
Ġsub strings
end ers
Ġemphas ized
or ia
in fl
res istant
LT K
Ġpos itivity
ĠBer lin
Ġstim ulate
Ġdet er
Ġcomput ation
Ġstress ed
Ġro se
Ġpreprocess ing
id al
Ġunder represented
Ġr ides
def ined
Ġp add
Ġtravel s
Ġsubsid ies
un ted
Ġs ed
bal anced
å º
Ġbudget s
ĠTra de
Ġd ign
erest ing
ĠCE O
Ġimp ress
Ġiss ued
st ro
Ġdoub t
ĠR ain
Ġcost umes
Ġmusic ian
Ġgen es
Ġpost ing
Ġcons ol
Ġreferr al
ĠDe ploy
Ġwor se
Ġwar fare
Ġschedul ed
Ġunder water
Ġreveal ed
ĠD utch
Ġo w
Ġre nowned
Ġr anges
f aceted
Ġsuper natural
Ġneg lect
Ġgalax ies
Ġbul k
Ġsk irts
v ious
Ġsens es
Ġcelebr ations
ĠContin uous
ĠD ream
ap hr
Ġstri king
ĠVisual ize
Ġwood s
Ġrooft op
Ġmis information
Ġare n
get s
ĠT imes
ĠFe bruary
Ġl ots
C H
Ġc ush
Ġvictim s
Ġment ors
pro v
Ġcomplex ities
Ġdiscover ing
ĠVeget ables
Ġbi om
Ġpat ent
Ġt ired
Ġfasc inated
Ġed X
Ġdisrupt ions
Ġsauce pan
Ġarm y
3 3
Ġepis ode
ĠCharact er
ĠCh ocolate
Ġath lete
Ġnu ances
Ġo re
