{
  "version": "1.0",
  "truncation": null,
  "padding": null,
  "added_tokens": [
    {
      "id": 0,
      "content": "<|endoftext|>",
      "single_word": false,
      "lstrip": false,
      "rstrip": false,
      "normalized": false,
      "special": true
    },
    {
      "id": 1,
      "content": "<|im_start|>",
      "single_word": false,
      "lstrip": false,
      "rstrip": false,
      "normalized": false,
      "special": true
    },
    {
      "id": 2,
      "content": "<|im_end|>",
      "single_word": false,
      "lstrip": false,
      "rstrip": false,
      "normalized": false,
      "special": true
    }
  ],
  "normalizer": null,
  "pre_tokenizer": {
    "type": "ByteLevel",
    "add_prefix_space": false,
    "trim_offsets": true,
    "use_regex": true
  },
  "post_processor": null,
  "decoder": {
    "type": "ByteLevel",
    "add_prefix_space": true,
    "trim_offsets": true,
    "use_regex": true
  },
  "model": {
    "type": "BPE",
    "dropout": null,
    "unk_token": null,
    "continuing_subword_prefix": null,
    "end_of_word_suffix": null,
    "fuse_unk": false,
    "byte_fallback": false,
    "ignore_merges": false,
    "vocab": {
      "<|endoftext|>": 0,
      "<|im_start|>": 1,
      "<|im_end|>": 2,
      "!": 3,
      "\"": 4,
      "#": 5,
      "$": 6,
      "%": 7,
      "&": 8,
      "'": 9,
      "(": 10,
      ")": 11,
      "*": 12,
      "+": 13,
      ",": 14,
      "-": 15,
      ".": 16,
      "/": 17,
      "0": 18,
      "1": 19,
      "2": 20,
      "3": 21,
      "4": 22,
      "5": 23,
      "6": 24,
      "7": 25,
      "8": 26,
      "9": 27,
      ":": 28,
      ";": 29,
      "<": 30,
      "=": 31,
      ">": 32,
      "?": 33,
      "@": 34,
      "A": 35,
      "B": 36,
      "C": 37,
      "D": 38,
      "E": 39,
      "F": 40,
      "G": 41,
      "H": 42,
      "I": 43,
      "J": 44,
      "K": 45,
      "L": 46,
      "M": 47,
      "N": 48,
      "O": 49,
      "P": 50,
      "Q": 51,
      "R": 52,
      "S": 53,
      "T": 54,
      "U": 55,
      "V": 56,
      "W": 57,
      "X": 58,
      "Y": 59,
      "Z": 60,
      "[": 61,
      "\\": 62,
      "]": 63,
      "^": 64,
      "_": 65,
      "`": 66,
      "a": 67,
      "b": 68,
      "c": 69,
      "d": 70,
      "e": 71,
      "f": 72,
      "g": 73,
      "h": 74,
      "i": 75,
      "j": 76,
      "k": 77,
      "l": 78,
      "m": 79,
      "n": 80,
      "o": 81,
      "p": 82,
      "q": 83,
      "r": 84,
      "s": 85,
      "t": 86,
      "u": 87,
      "v": 88,
      "w": 89,
      "x": 90,
      "y": 91,
      "z": 92,
      "{": 93,
      "|": 94,
      "}": 95,
      "~": 96,
      "¡": 97,
      "¢": 98,
      "£": 99,
      "¤": 100,
      "¥": 101,
      "¦": 102,
      "§": 103,
      "¨": 104,
      "©": 105,
      "ª": 106,
      "«": 107,
      "¬": 108,
      "®": 109,
      "¯": 110,
      "°": 111,
      "±": 112,
      "²": 113,
      "³": 114,
      "´": 115,
      "µ": 116,
      "¶": 117,
      "·": 118,
      "¸": 119,
      "¹": 120,
      "º": 121,
      "»": 122,
      "¼": 123,
      "½": 124,
      "¾": 125,
      "¿": 126,
      "À": 127,
      "Á": 128,
      "Â": 129,
      "Ã": 130,
      "Ä": 131,
      "Å": 132,
      "Æ": 133,
      "Ç": 134,
      "È": 135,
      "É": 136,
      "Ê": 137,
      "Ë": 138,
      "Ì": 139,
      "Í": 140,
      "Î": 141,
      "Ï": 142,
      "Ð": 143,
      "Ñ": 144,
      "Ò": 145,
      "Ó": 146,
      "Ô": 147,
      "Õ": 148,
      "Ö": 149,
      "×": 150,
      "Ø": 151,
      "Ù": 152,
      "Ú": 153,
      "Û": 154,
      "Ü": 155,
      "Ý": 156,
      "Þ": 157,
      "ß": 158,
      "à": 159,
      "á": 160,
      "â": 161,
      "ã": 162,
      "ä": 163,
      "å": 164,
      "æ": 165,
      "ç": 166,
      "è": 167,
      "é": 168,
      "ê": 169,
      "ë": 170,
      "ì": 171,
      "í": 172,
      "î": 173,
      "ï": 174,
      "ð": 175,
      "ñ": 176,
      "ò": 177,
      "ó": 178,
      "ô": 179,
      "õ": 180,
      "ö": 181,
      "÷": 182,
      "ø": 183,
      "ù": 184,
      "ú": 185,
      "û": 186,
      "ü": 187,
      "ý": 188,
      "þ": 189,
      "ÿ": 190,
      "Ā": 191,
      "ā": 192,
      "Ă": 193,
      "ă": 194,
      "Ą": 195,
      "ą": 196,
      "Ć": 197,
      "ć": 198,
      "Ĉ": 199,
      "ĉ": 200,
      "Ċ": 201,
      "ċ": 202,
      "Č": 203,
      "č": 204,
      "Ď": 205,
      "ď": 206,
      "Đ": 207,
      "đ": 208,
      "Ē": 209,
      "ē": 210,
      "Ĕ": 211,
      "ĕ": 212,
      "Ė": 213,
      "ė": 214,
      "Ę": 215,
      "ę": 216,
      "Ě": 217,
      "ě": 218,
      "Ĝ": 219,
      "ĝ": 220,
      "Ğ": 221,
      "ğ": 222,
      "Ġ": 223,
      "ġ": 224,
      "Ģ": 225,
      "ģ": 226,
      "Ĥ": 227,
      "ĥ": 228,
      "Ħ": 229,
      "ħ": 230,
      "Ĩ": 231,
      "ĩ": 232,
      "Ī": 233,
      "ī": 234,
      "Ĭ": 235,
      "ĭ": 236,
      "Į": 237,
      "į": 238,
      "İ": 239,
      "ı": 240,
      "Ĳ": 241,
      "ĳ": 242,
      "Ĵ": 243,
      "ĵ": 244,
      "Ķ": 245,
      "ķ": 246,
      "ĸ": 247,
      "Ĺ": 248,
      "ĺ": 249,
      "Ļ": 250,
      "ļ": 251,
      "Ľ": 252,
      "ľ": 253,
      "Ŀ": 254,
      "ŀ": 255,
      "Ł": 256,
      "ł": 257,
      "Ń": 258,
      "Ġt": 259,
      "Ġa": 260,
      "in": 261,
      "he": 262,
      "re": 263,
      "nd": 264,
      "on": 265,
      "at": 266,
      "Ġc": 267,
      "Ġs": 268,
      "er": 269,
      "Ġthe": 270,
      "or": 271,
      "es": 272,
      "en": 273,
      "ou": 274,
      "an": 275,
      "it": 276,
      "ing": 277,
      "Ġand": 278,
      "Ġp": 279,
      "al": 280,
      "Ġw": 281,
      "Ġto": 282,
      "Ġf": 283,
      "is": 284,
      "Ġo": 285,
      "ar": 286,
      "Ġm": 287,
      "im": 288,
      "Ġb": 289,
      "Ġin": 290,
      "ed": 291,
      "ion": 292,
      "st": 293,
      "Ġd": 294,
      "le": 295,
      "ic": 296,
      "Ġof": 297,
      "ro": 298,
      "ent": 299,
      "Ġe": 300,
      "om": 301,
      "Ġre": 302,
      "Ġth": 303,
      "Ġy": 304,
      "|>": 305,
      "<|": 306,
      "ct": 307,
      "Ġh": 308,
      "Ġyou": 309,
      "ve": 310,
      "as": 311,
      "Ġl": 312,
      "us": 313,
      "et": 314,
      "il": 315,
      "ĠT": 316,
      "ch": 317,
      "ra": 318,
      "Ġcan": 319,
      "Ġn": 320,
      "Ġthat": 321,
      "end": 322,
      "art": 323,
      "ation": 324,
      "id": 325,
      "Ġg": 326,
      "Ġis": 327,
      "ce": 328,
      "Ġfor": 329,
      "Ġbe": 330,
      "ol": 331,
      "ow": 332,
      "Ġpro": 333,
      "ith": 334,
      "ot": 335,
      "Ġst": 336,
      "ĠI": 337,
      "ers": 338,
      "ĠA": 339,
      "ly": 340,
      "Ġhe": 341,
      "if": 342,
      "ig": 343,
      "Ġon": 344,
      "start": 345,
      "ut": 346,
      "Ġus": 347,
      "Ġwith": 348,
      "Ġare": 349,
      "Ġor": 350,
      "Ġsu": 351,
      "ment": 352,
      "Ġan": 353,
      "ir": 354,
      "ul": 355,
      "ate": 356,
      "se": 357,
      "ay": 358,
      "Ġex": 359,
      "Ġ<|": 360,
      "Ġyour": 361,
      "am": 362,
      "ur": 363,
      "Ġal": 364,
      "Ġas": 365,
      "ess": 366,
      "Ġit": 367,
      "el": 368,
      "ab": 369,
      "ver": 370,
      "Ġcon": 371,
      "ure": 372,
      "ke": 373,
      "ge": 374,
      "un": 375,
      "od": 376,
      "Ġcom": 377,
      "ere": 378,
      "ĠS": 379,
      "ĠThe": 380,
      "ies": 381,
      "ort": 382,
      "Ġv": 383,
      "Ġde": 384,
      "ĠC": 385,
      "iv": 386,
      "est": 387,
      "Ġha": 388,
      "Ġim": 389,
      "ore": 390,
      "op": 391,
      "ive": 392,
      "ect": 393,
      "qu": 394,
      "ity": 395,
      "out": 396,
      "'s": 397,
      "Ġwh": 398,
      "pp": 399,
      "her": 400,
      "Ġen": 401,
      "ant": 402,
      "ial": 403,
      "Ġma": 404,
      "Ġch": 405,
      "ck": 406,
      "Ġimp": 407,
      "Ġne": 408,
      "em": 409,
      "ist": 410,
      "Ġle": 411,
      "th": 412,
      ".<|": 413,
      "ions": 414,
      "ome": 415,
      "ld": 416,
      "iz": 417,
      "ĠH": 418,
      "ust": 419,
      "nt": 420,
      "ain": 421,
      "ud": 422,
      "Ġint": 423,
      "lp": 424,
      "ill": 425,
      "ĠM": 426,
      "Ġhelp": 427,
      "ad": 428,
      "um": 429,
      "oc": 430,
      "Ġr": 431,
      "igh": 432,
      "Ġad": 433,
      "pl": 434,
      "Ġse": 435,
      "ĠTh": 436,
      "res": 437,
      "our": 438,
      "Ġ1": 439,
      "ide": 440,
      "able": 441,
      "ĠP": 442,
      "ĠB": 443,
      "pt": 444,
      "Ġtheir": 445,
      "Ġwe": 446,
      "all": 447,
      "Ġwor": 448,
      "Ġinc": 449,
      "age": 450,
      "Ġsp": 451,
      "ĠThis": 452,
      "Ġte": 453,
      "Ġsh": 454,
      "ple": 455,
      "cc": 456,
      "ri": 457,
      "ine": 458,
      "?<|": 459,
      "ould": 460,
      "Ġhave": 461,
      "are": 462,
      "os": 463,
      "Ġpl": 464,
      "og": 465,
      "ĠAI": 466,
      "du": 467,
      "ff": 468,
      "act": 469,
      "ĠF": 470,
      "rom": 471,
      "ations": 472,
      "Ġ2": 473,
      "Ġmore": 474,
      "Ġby": 475,
      "ĠW": 476,
      "orm": 477,
      "ical": 478,
      "reat": 479,
      "Ġ-": 480,
      "Ġsome": 481,
      "per": 482,
      "ĠR": 483,
      "ther": 484,
      "ight": 485,
      "Ġfe": 486,
      "Ġu": 487,
      "Ġres": 488,
      "ces": 489,
      "Ġme": 490,
      "king": 491,
      "Ġdat": 492,
      "Ġab": 493,
      "and": 494,
      "Ġfrom": 495,
      "Ġtra": 496,
      "form": 497,
      "ter": 498,
      "ance": 499,
      "ĠD": 500,
      "Ġar": 501,
      "ag": 502,
      "vel": 503,
      "Ġprov": 504,
      "ign": 505,
      "ult": 506,
      "ĠE": 507,
      "oo": 508,
      "Ġ3": 509,
      "Ġsuch": 510,
      "ks": 511,
      "Ġuse": 512,
      "ĠO": 513,
      "so": 514,
      "ans": 515,
      "Ġcont": 516,
      "Ġother": 517,
      "ie": 518,
      "Ġman": 519,
      "Ġused": 520,
      "Ġdata": 521,
      "Ġat": 522,
      "ack": 523,
      "ach": 524,
      "Ġacc": 525,
      "ast": 526,
      "ec": 527,
      "ip": 528,
      "arn": 529,
      "Ġexam": 530,
      "ep": 531,
      "ĠIn": 532,
      "Ġtr": 533,
      "Ġj": 534,
      "Ġall": 535,
      "ress": 536,
      "Ġapp": 537,
      "ime": 538,
      "Ġcl": 539,
      "Ġalso": 540,
      "ĠL": 541,
      "ific": 542,
      "Ġhas": 543,
      "Ġrec": 544,
      "Ġ4": 545,
      "Ġcomp": 546,
      "ind": 547,
      "Ġnot": 548,
      "ction": 549,
      "rou": 550,
      "ich": 551,
      "Ġincl": 552,
      "Ġgo": 553,
      "ence": 554,
      "ib": 555,
      "fere": 556,
      "Ġun": 557,
      "ual": 558,
      "Ġhow": 559,
      "Ġany": 560,
      "ard": 561,
      "Ġpre": 562,
      "ice": 563,
      "ition": 564,
      "ell": 565,
      "Ġwill": 566,
      "Ġwhe": 567,
      "Ġthey": 568,
      "ĠIt": 569,
      "Ġthis": 570,
      "ous": 571,
      "Ġinclud": 572,
      "ost": 573,
      "ments": 574,
      "av": 575,
      "Ġdis": 576,
      "Ġro": 577,
      "gh": 578,
      "ated": 579,
      "Ġdif": 580,
      "chn": 581,
      "Ġsy": 582,
      "ang": 583,
      "Ġout": 584,
      "Ġadd": 585,
      "Ġlearn": 586,
      "Ġem": 587,
      "Ġind": 588,
      "ace": 589,
      "Ġta": 590,
      "alth": 591,
      "Ġ5": 592,
      "ike": 593,
      "Ġinv": 594,
      "ru": 595,
      "Ġeff": 596,
      "ors": 597,
      "ac": 598,
      "Ġwhich": 599,
      "ient": 600,
      "ĠG": 601,
      "Ġtechn": 602,
      "ue": 603,
      "Ġthem": 604,
      "ms": 605,
      "Ġabout": 606,
      "Ġqu": 607,
      "ire": 608,
      "Ġcre": 609,
      "ile": 610,
      "Ġ(": 611,
      "Ġcomm": 612,
      "Ġcol": 613,
      "Ġwas": 614,
      "ase": 615,
      "velop": 616,
      "ities": 617,
      "Ġk": 618,
      "ite": 619,
      "ĠU": 620,
      "Ġwork": 621,
      "ount": 622,
      "Ġneed": 623,
      "Ġhealth": 624,
      "Ġsc": 625,
      "ĠN": 626,
      "Ġtime": 627,
      "Ġway": 628,
      "Ġmake": 629,
      "ry": 630,
      "Ġlike": 631,
      "ail": 632,
      "Ġup": 633,
      "ong": 634,
      "Ġper": 635,
      "ns": 636,
      "stem": 637,
      "Ġ\"": 638,
      "ĠHere": 639,
      "Ġdo": 640,
      "ass": 641,
      "ond": 642,
      "Ġdiffere": 643,
      "ful": 644,
      "get": 645,
      "erv": 646,
      "Ġover": 647,
      "Ġimpro": 648,
      "Ġoff": 649,
      "Ġprovide": 650,
      "one": 651,
      "olog": 652,
      "Ġev": 653,
      "int": 654,
      "Ġdevelop": 655,
      "Ġbut": 656,
      "Ġnew": 657,
      "Ġexample": 658,
      "ize": 659,
      "Ġso": 660,
      "ustom": 661,
      "Ġpers": 662,
      "Ġmay": 663,
      "Ġmod": 664,
      "gor": 665,
      "Ġimport": 666,
      "Ġusing": 667,
      "les": 668,
      "als": 669,
      "ular": 670,
      "Ġdes": 671,
      "Ġthese": 672,
      "Ġsystem": 673,
      "ber": 674,
      "Ġcons": 675,
      "ound": 676,
      "ary": 677,
      "aly": 678,
      "Ġthere": 679,
      "Ġprog": 680,
      "Ġcustom": 681,
      "cess": 682,
      "ari": 683,
      "ased": 684,
      "Ġspec": 685,
      "ĠY": 686,
      "Ġmed": 687,
      "Ġens": 688,
      "ract": 689,
      "ential": 690,
      "ark": 691,
      "lic": 692,
      "ings": 693,
      "ures": 694,
      "gorith": 695,
      "Ġcreate": 696,
      "ĠJ": 697,
      "Ġpe": 698,
      "Ġif": 699,
      "ify": 700,
      "Ġalgorith": 701,
      "Ġits": 702,
      "Ġprodu": 703,
      "Ġexper": 704,
      "ap": 705,
      "ood": 706,
      "Ġpat": 707,
      "Ġfun": 708,
      "ram": 709,
      "pport": 710,
      "Can": 711,
      "ident": 712,
      "Ġstr": 713,
      "ens": 714,
      "Ġperson": 715,
      "ility": 716,
      "low": 717,
      "ert": 718,
      "Ġbet": 719,
      "ia": 720,
      "ne": 721,
      "Ġimportant": 722,
      "Ġwho": 723,
      "Ġpr": 724,
      "cis": 725,
      "ject": 726,
      "ons": 727,
      "bs": 728,
      "Ġlearning": 729,
      "ices": 730,
      "ory": 731,
      "Ġanaly": 732,
      "Ġinto": 733,
      "Ġredu": 734,
      "Ġdifferent": 735,
      "ild": 736,
      "ater": 737,
      "ural": 738,
      "Ġsoc": 739,
      "now": 740,
      "Ġimprove": 741,
      "Ġopt": 742,
      "ord": 743,
      "ook": 744,
      "ating": 745,
      "ame": 746,
      "nder": 747,
      "Ġke": 748,
      "gg": 749,
      "ience": 750,
      "rough": 751,
      "Ġtechnolog": 752,
      "Ġensure": 753,
      "ics": 754,
      "we": 755,
      "Ġval": 756,
      "omm": 757,
      "Ġinform": 758,
      "ally": 759,
      "ange": 760,
      "Ġmy": 761,
      "xt": 762,
      "iqu": 763,
      "anc": 764,
      "Ġshould": 765,
      "Ġcould": 766,
      "Ġvari": 767,
      "Ġpart": 768,
      "Ġrel": 769,
      "ents": 770,
      "Ġass": 771,
      "erg": 772,
      "ob": 773,
      "oy": 774,
      "Ġact": 775,
      "ized": 776,
      "ues": 777,
      "Ġresp": 778,
      "Ġeach": 779,
      "Ġdet": 780,
      "Ġher": 781,
      "Ġtrans": 782,
      "Ġpot": 783,
      "Ġgen": 784,
      "ak": 785,
      "Ġident": 786,
      "Ġreg": 787,
      "ree": 788,
      "Ġprovid": 789,
      "Ġexpl": 790,
      "its": 791,
      "Ġinvest": 792,
      "ĠSt": 793,
      "Ġunder": 794,
      "Ġpersonal": 795,
      "ety": 796,
      "ative": 797,
      "Ġele": 798,
      "Ġthrough": 799,
      "Ġprocess": 800,
      "Ġfunction": 801,
      "Ġadv": 802,
      "Ġexp": 803,
      "Ġmany": 804,
      "Ġknow": 805,
      "Ġsa": 806,
      "yp": 807,
      "Ġone": 808,
      "Ġart": 809,
      "Ġwhen": 810,
      "ĠFor": 811,
      "Ġmus": 812,
      "Ġeffect": 813,
      "Ġret": 814,
      "Ġmet": 815,
      "bot": 816,
      "ict": 817,
      "uring": 818,
      "Ġwould": 819,
      "ll": 820,
      "Ġcomple": 821,
      "very": 822,
      "Ġbu": 823,
      "Ġgreat": 824,
      "Ġcommun": 825,
      "Ġdesign": 826,
      "oth": 827,
      "ĠCh": 828,
      "Ġcreat": 829,
      "Ġpos": 830,
      "Ġinter": 831,
      "ople": 832,
      "Ġhum": 833,
      "gan": 834,
      "row": 835,
      "angu": 836,
      "ĠYou": 837,
      "arch": 838,
      "Ġam": 839,
      "ose": 840,
      "ove": 841,
      "ef": 842,
      "cy": 843,
      "ible": 844,
      "Ġrep": 845,
      "ness": 846,
      "Ġsm": 847,
      "Ġnum": 848,
      "Ġinformation": 849,
      "Ġpotential": 850,
      "ates": 851,
      "âĢ": 852,
      "ov": 853,
      "Ġproduct": 854,
      "Ġav": 855,
      "Ġsk": 856,
      "Ġtool": 857,
      "iness": 858,
      "Ġpeople": 859,
      "Ġset": 860,
      "Ġrequ": 861,
      "ips": 862,
      "ources": 863,
      "'t": 864,
      "Ġimpact": 865,
      "ines": 866,
      "ick": 867,
      "Ġour": 868,
      "Ġincluding": 869,
      "Ġlangu": 870,
      "ples": 871,
      "Ġserv": 872,
      "Ġspecific": 873,
      "Ġtechnology": 874,
      "ode": 875,
      "ft": 876,
      "ower": 877,
      "te": 878,
      "Ġhad": 879,
      "ish": 880,
      "Ġris": 881,
      "Ġsign": 882,
      "Ġtyp": 883,
      "Ġsupport": 884,
      "Ġaccess": 885,
      "Ġbl": 886,
      "Ġidentify": 887,
      "Ġsocial": 888,
      "Ġwell": 889,
      "ĠIf": 890,
      "Ġallow": 891,
      "Ġhigh": 892,
      "ting": 893,
      "arket": 894,
      "Ġbec": 895,
      "stand": 896,
      "Ġfind": 897,
      "Yes": 898,
      "Ġ6": 899,
      "ivid": 900,
      "Ġbus": 901,
      "Ġwhile": 902,
      "rit": 903,
      "Ġfin": 904,
      "Ġgener": 905,
      "Ġtrain": 906,
      "Ġco": 907,
      "Ġperform": 908,
      "ĠThese": 909,
      "ommend": 910,
      "Ġprogram": 911,
      "hes": 912,
      "Ġwhat": 913,
      "ergy": 914,
      "ider": 915,
      "Ġwhere": 916,
      "Ġinst": 917,
      "ever": 918,
      "Ġfew": 919,
      "Ġrecommend": 920,
      "hat": 921,
      "Ġbeen": 922,
      "ake": 923,
      "ĠV": 924,
      "Ġincre": 925,
      "Ġtas": 926,
      "rap": 927,
      "Ġlead": 928,
      "Ġfl": 929,
      "Ġche": 930,
      "ween": 931,
      "ertain": 932,
      "eg": 933,
      "Ġbetween": 934,
      "Ġstud": 935,
      "Ġpract": 936,
      "eng": 937,
      "ub": 938,
      "ĠHow": 939,
      "ray": 940,
      "SS": 941,
      "ered": 942,
      "Ġrem": 943,
      "Ġalgorithms": 944,
      "Ġloc": 945,
      "Ġatt": 946,
      "ious": 947,
      "ĠBy": 948,
      "Ġmodel": 949,
      "ĠThey": 950,
      "Ġaut": 951,
      "ife": 952,
      "ars": 953,
      "Ġsystems": 954,
      "dition": 955,
      "wor": 956,
      "Ġcustomer": 957,
      "Ġvis": 958,
      "Ġthan": 959,
      "Ġreduce": 960,
      "ĠAs": 961,
      "aus": 962,
      "Ġbusiness": 963,
      "Ġanalyz": 964,
      "Ġunderstand": 965,
      "Ġsec": 966,
      "ality": 967,
      "Ġlanguage": 968,
      "Ġag": 969,
      "Ġmarket": 970,
      "iron": 971,
      "Ġpol": 972,
      "ien": 973,
      "iew": 974,
      "Ġeng": 975,
      "ivers": 976,
      "Ġenergy": 977,
      "old": 978,
      "ages": 979,
      "de": 980,
      "Ġlist": 981,
      "Ġpop": 982,
      "hy": 983,
      "Ġnat": 984,
      "ĠAd": 985,
      "line": 986,
      "Ġplay": 987,
      "ives": 988,
      "Ġtake": 989,
      "Ġmanage": 990,
      "ividual": 991,
      "Ġinclude": 992,
      "put": 993,
      "lect": 994,
      "urn": 995,
      "Ġmost": 996,
      "ock": 997,
      "Ġplan": 998,
      "fore": 999,
      "Ġjust": 1000,
      "viron": 1001,
      "Ġve": 1002,
      "ĠWe": 1003,
      "Ġgu": 1004,
      "ĠUse": 1005,
      "Ġworld": 1006,
      "ocus": 1007,
      "ĠK": 1008,
      "ware": 1009,
      "Ġmin": 1010,
      "Ġwant": 1011,
      "Ġprom": 1012,
      "Ġwere": 1013,
      "arm": 1014,
      "Ġpo": 1015,
      "00": 1016,
      "Ġcompan": 1017,
      "rib": 1018,
      "Ġmach": 1019,
      "Ġfeat": 1020,
      "Ġcult": 1021,
      "Ġchall": 1022,
      "Ġsee": 1023,
      "Ġindividual": 1024,
      "cl": 1025,
      "Ġsim": 1026,
      "Ġhand": 1027,
      "ps": 1028,
      "ollow": 1029,
      "OSS": 1030,
      "irst": 1031,
      "Ġenviron": 1032,
      "Ġindust": 1033,
      "olut": 1034,
      "Ġshe": 1035,
      "Ġuser": 1036,
      "Ġclass": 1037,
      "olv": 1038,
      "Ġexamples": 1039,
      "sel": 1040,
      "hod": 1041,
      "Ġfeel": 1042,
      "ble": 1043,
      "wn": 1044,
      "ink": 1045,
      "ggest": 1046,
      "ays": 1047,
      "ruct": 1048,
      "Ġorgan": 1049,
      "erest": 1050,
      "Ġstart": 1051,
      "ards": 1052,
      "care": 1053,
      "ional": 1054,
      "Ġhis": 1055,
      "Ġra": 1056,
      "Ġsuggest": 1057,
      "Ġdisc": 1058,
      "ĠMOSS": 1059,
      "ique": 1060,
      "ric": 1061,
      "Ġins": 1062,
      "uc": 1063,
      "Ġgoals": 1064,
      "Ġmethod": 1065,
      "own": 1066,
      "red": 1067,
      "nce": 1068,
      "Ġmusic": 1069,
      "Ġways": 1070,
      "Sure": 1071,
      "itive": 1072,
      "stain": 1073,
      "Ġsustain": 1074,
      "Ġed": 1075,
      "Ġdep": 1076,
      "Ġwebs": 1077,
      "ĠOver": 1078,
      "Ġget": 1079,
      "Ġappro": 1080,
      "Ġsignific": 1081,
      "Ġbased": 1082,
      "ough": 1083,
      "Ġfollow": 1084,
      "ily": 1085,
      "Ġob": 1086,
      "Ġlar": 1087,
      "Ġbuild": 1088,
      "Ġcode": 1089,
      "Ġenvironment": 1090,
      "Ġchar": 1091,
      "Ġfocus": 1092,
      "ants": 1093,
      "Ġeas": 1094,
      "Ġinterest": 1095,
      "Ġtw": 1096,
      "riend": 1097,
      "air": 1098,
      "Ġeffective": 1099,
      "ĠHowever": 1100,
      "ability": 1101,
      "Ġdecis": 1102,
      "Ġmedia": 1103,
      "Ġexperience": 1104,
      "Ġlong": 1105,
      "Ġthen": 1106,
      "Ġhuman": 1107,
      "ts": 1108,
      "Ġkey": 1109,
      "erm": 1110,
      "Ġbeing": 1111,
      "ng": 1112,
      "Ġbre": 1113,
      "ases": 1114,
      "Ġtrack": 1115,
      "nds": 1116,
      "Ġback": 1117,
      "ten": 1118,
      "Ġprev": 1119,
      "Ġoffer": 1120,
      "Ġdevelopment": 1121,
      "Ġsty": 1122,
      "Ġteam": 1123,
      "Ġdi": 1124,
      "Ġmon": 1125,
      "Ġsmall": 1126,
      "Ġben": 1127,
      "Ġtasks": 1128,
      "Ġreal": 1129,
      "Ġnumber": 1130,
      "Ġsignificant": 1131,
      "Ġprof": 1132,
      "Ġbra": 1133,
      "Ġsever": 1134,
      "Ġcle": 1135,
      "Ġinf": 1136,
      "Ġiss": 1137,
      "ills": 1138,
      "Ġgrou": 1139,
      "Ġactiv": 1140,
      "Ġalgorithm": 1141,
      "Ġpatient": 1142,
      "ote": 1143,
      "ization": 1144,
      "Ġmaking": 1145,
      "Ġchalleng": 1146,
      "Ġbest": 1147,
      "Ġtools": 1148,
      "Ġstep": 1149,
      "Ġfood": 1150,
      "Ġgood": 1151,
      "How": 1152,
      "Ġnatural": 1153,
      "ning": 1154,
      "bers": 1155,
      "Ġprot": 1156,
      "Ġcar": 1157,
      "Ġtext": 1158,
      "Ġseveral": 1159,
      "Ġresources": 1160,
      "Ġec": 1161,
      "Ġcur": 1162,
      "Ġproject": 1163,
      "Ġevery": 1164,
      "Ġarray": 1165,
      "Ġrisk": 1166,
      "iss": 1167,
      "The": 1168,
      "Ġmachine": 1169,
      "Ġbefore": 1170,
      "lement": 1171,
      "ccess": 1172,
      "ĠOverall": 1173,
      "Ġmem": 1174,
      "Ġown": 1175,
      "iving": 1176,
      "Ġeth": 1177,
      "Ġbenef": 1178,
      "oose": 1179,
      "ables": 1180,
      "Ġfirst": 1181,
      "Ġmade": 1182,
      "Ġlife": 1183,
      "ploy": 1184,
      "kes": 1185,
      "Ġresult": 1186,
      "Ġpower": 1187,
      "Ġwater": 1188,
      "Ġstre": 1189,
      "ern": 1190,
      "ix": 1191,
      "oid": 1192,
      "Ġpatter": 1193,
      "bots": 1194,
      "Ġtwo": 1195,
      "Ġeffic": 1196,
      "Ġkeep": 1197,
      "Ġhealthcare": 1198,
      "ights": 1199,
      "ancial": 1200,
      "Ġwebsite": 1201,
      "Ġcond": 1202,
      "Ġsub": 1203,
      "ise": 1204,
      "Ġeven": 1205,
      "Ġpopular": 1206,
      "Ġcomplex": 1207,
      "Ġform": 1208,
      "back": 1209,
      "Ġcare": 1210,
      "por": 1211,
      "Ġcall": 1212,
      "Ġac": 1213,
      "ries": 1214,
      "cing": 1215,
      "ribut": 1216,
      "Ġduring": 1217,
      "hed": 1218,
      "Ġtips": 1219,
      "Ġbr": 1220,
      "ause": 1221,
      "Ġrev": 1222,
      "Ġbi": 1223,
      "Ġide": 1224,
      "ational": 1225,
      "ically": 1226,
      "Ġsur": 1227,
      "imate": 1228,
      "Ġimplement": 1229,
      "Ġrese": 1230,
      "âĢĻ": 1231,
      "Ġrespons": 1232,
      "Ġoffers": 1233,
      "ving": 1234,
      "Ġoptions": 1235,
      "apt": 1236,
      "Ġconsider": 1237,
      "Ġanalyze": 1238,
      "ateg": 1239,
      "onom": 1240,
      "Ġent": 1241,
      "Ġneeds": 1242,
      "ied": 1243,
      "Ġsure": 1244,
      "Ġcontin": 1245,
      "ner": 1246,
      "Ġgrow": 1247,
      "Ġstay": 1248,
      "ced": 1249,
      "Ġfinancial": 1250,
      "Ġtransp": 1251,
      "Ġ7": 1252,
      "chie": 1253,
      "Ġboth": 1254,
      "Ġquest": 1255,
      "Ġhere": 1256,
      "Ġlo": 1257,
      "Ġfam": 1258,
      "ication": 1259,
      "Ġrequire": 1260,
      "Ġpred": 1261,
      "'re": 1262,
      "Ġcharact": 1263,
      "resent": 1264,
      "Ġchat": 1265,
      "aging": 1266,
      "other": 1267,
      "Ġment": 1268,
      "Ġvalue": 1269,
      "Ġmat": 1270,
      "Ġachie": 1271,
      "Ġno": 1272,
      "ript": 1273,
      "Ġstrateg": 1274,
      "Ġcount": 1275,
      "Ġchang": 1276,
      "ian": 1277,
      "ember": 1278,
      "Ġfeatures": 1279,
      "ĠTo": 1280,
      "Ġhist": 1281,
      "Ġfact": 1282,
      "Ġtry": 1283,
      "Ġexplain": 1284,
      "Ġlevel": 1285,
      "Ġassist": 1286,
      "ather": 1287,
      "Ġunique": 1288,
      "Ġref": 1289,
      "Ġdef": 1290,
      "ense": 1291,
      "atform": 1292,
      "up": 1293,
      "ash": 1294,
      "Ġlight": 1295,
      "Ġaff": 1296,
      "Ġsal": 1297,
      "cer": 1298,
      "Ġsuccess": 1299,
      "Ġfu": 1300,
      "Ġdec": 1301,
      "Ġrange": 1302,
      "Ġsustainable": 1303,
      "ogn": 1304,
      "Ġpur": 1305,
      "Ġenc": 1306,
      "self": 1307,
      "io": 1308,
      "Ġtreat": 1309,
      "Ġgive": 1310,
      "Ġbetter": 1311,
      "aking": 1312,
      "Ġskills": 1313,
      "Ġindustry": 1314,
      "Ġonline": 1315,
      "Ġworks": 1316,
      "Ġperformance": 1317,
      "hen": 1318,
      "Ġaccount": 1319,
      "ĠPro": 1320,
      "Ġeduc": 1321,
      "ee": 1322,
      "nect": 1323,
      "Ġonly": 1324,
      "Ġaud": 1325,
      "ĠAn": 1326,
      "Ġoften": 1327,
      "ercis": 1328,
      "Ġplatform": 1329,
      "Ġaddress": 1330,
      "Ġbeh": 1331,
      "Ġph": 1332,
      "Ġcheck": 1333,
      "Ġtraining": 1334,
      "ials": 1335,
      "ier": 1336,
      "led": 1337,
      "Ġprotect": 1338,
      "Ġsoft": 1339,
      "Ġpartic": 1340,
      "Ġlarge": 1341,
      "Ġop": 1342,
      "Ġobject": 1343,
      "Ġpredict": 1344,
      "Ġcal": 1345,
      "ination": 1346,
      "ditional": 1347,
      "pect": 1348,
      "Ġess": 1349,
      "Ġpatterns": 1350,
      "Ġapplic": 1351,
      "Ġavail": 1352,
      "Ġinvolv": 1353,
      "Ġye": 1354,
      "work": 1355,
      "Ġdon": 1356,
      "Ġcontent": 1357,
      "abor": 1358,
      "com": 1359,
      "aut": 1360,
      "Ġethical": 1361,
      "Ġcour": 1362,
      "urity": 1363,
      "ets": 1364,
      "Ġday": 1365,
      "ists": 1366,
      "cept": 1367,
      "nces": 1368,
      "Ġfut": 1369,
      "Ġemot": 1370,
      "der": 1371,
      "ĠHe": 1372,
      "itor": 1373,
      "Ġtop": 1374,
      "orts": 1375,
      "Ġinteg": 1376,
      "Ġequ": 1377,
      "Ġmult": 1378,
      "Ġaround": 1379,
      "iety": 1380,
      "ody": 1381,
      "orpor": 1382,
      "Ġmanagement": 1383,
      "iel": 1384,
      "Ġread": 1385,
      "Ġtre": 1386,
      "Ġdist": 1387,
      "ĠCan": 1388,
      "Ġexercis": 1389,
      "Ġgl": 1390,
      "Ġchange": 1391,
      "Ġcolor": 1392,
      "ds": 1393,
      "Ġprevent": 1394,
      "Ġinput": 1395,
      "Ġshow": 1396,
      "Ġspace": 1397,
      "Ġfuture": 1398,
      "Ġresearch": 1399,
      "iques": 1400,
      "Ġoptim": 1401,
      "ins": 1402,
      "Ġconf": 1403,
      "ĠRem": 1404,
      "Ġtest": 1405,
      "itions": 1406,
      "ery": 1407,
      "fter": 1408,
      "Ġcustomers": 1409,
      "Ġdown": 1410,
      "Ġdr": 1411,
      "Ġrest": 1412,
      "ited": 1413,
      "Ġposs": 1414,
      "Ġlook": 1415,
      "Ġusers": 1416,
      "Ġwithout": 1417,
      "Ġdel": 1418,
      "Ġtraditional": 1419,
      "hing": 1420,
      "hip": 1421,
      "ending": 1422,
      "Ġproble": 1423,
      "Ġprofess": 1424,
      "oura": 1425,
      "Ġcommon": 1426,
      "Ġfeed": 1427,
      "Ġindividuals": 1428,
      "Ġroom": 1429,
      "Ġsaf": 1430,
      "Ġext": 1431,
      "ism": 1432,
      "Ġcost": 1433,
      "Ġareas": 1434,
      "ex": 1435,
      "Ġoper": 1436,
      "Ġhome": 1437,
      "Ġpass": 1438,
      "ways": 1439,
      "Ġtechniques": 1440,
      "Ġexperien": 1441,
      "Ġmater": 1442,
      "Ġissues": 1443,
      "Ġhealthy": 1444,
      "gether": 1445,
      "Ġtogether": 1446,
      "Ġproducts": 1447,
      "Ġinvestment": 1448,
      "Ġcreating": 1449,
      "Ġdivers": 1450,
      "ont": 1451,
      "iven": 1452,
      "irt": 1453,
      "owered": 1454,
      "Ġallows": 1455,
      "Ġbenefits": 1456,
      "Ġconnect": 1457,
      "Ġjob": 1458,
      "ilities": 1459,
      "wards": 1460,
      "ax": 1461,
      "Ġregular": 1462,
      "reen": 1463,
      "Ġmind": 1464,
      "ming": 1465,
      "Ġautom": 1466,
      "Ġchallenges": 1467,
      "Ġavailable": 1468,
      "vers": 1469,
      "Ġpub": 1470,
      "Ġmaint": 1471,
      "rent": 1472,
      "new": 1473,
      "amp": 1474,
      "ertainly": 1475,
      "Ġpractices": 1476,
      "Ġfil": 1477,
      "Ġavoid": 1478,
      "ĠThere": 1479,
      "Ġinteract": 1480,
      "Ġstate": 1481,
      "sis": 1482,
      "Ġcor": 1483,
      "els": 1484,
      "Ġprovides": 1485,
      "read": 1486,
      "Ġemploy": 1487,
      "Ġvalues": 1488,
      "ope": 1489,
      "til": 1490,
      "az": 1491,
      "Ġrecogn": 1492,
      "Ġmeas": 1493,
      "ĠRe": 1494,
      "ty": 1495,
      "powered": 1496,
      "uch": 1497,
      "Ġvarious": 1498,
      "Ġsit": 1499,
      "cript": 1500,
      "vern": 1501,
      "pportun": 1502,
      "Ġcompany": 1503,
      "Ġthose": 1504,
      "ooking": 1505,
      "ories": 1506,
      "Ġvariety": 1507,
      "ior": 1508,
      "Ġproper": 1509,
      "mm": 1510,
      "err": 1511,
      "Ġelements": 1512,
      "Ġbel": 1513,
      "omet": 1514,
      "Ġbusinesses": 1515,
      "Ġnet": 1516,
      "aste": 1517,
      "Ġfeedback": 1518,
      "labor": 1519,
      "Ġopportun": 1520,
      "Ġactivities": 1521,
      "Ġstore": 1522,
      "Ġuntil": 1523,
      "Ġaddition": 1524,
      "Ġdiff": 1525,
      "Ġend": 1526,
      "ats": 1527,
      "Ġser": 1528,
      "Ġcontro": 1529,
      "Ġsoftware": 1530,
      "ital": 1531,
      "rior": 1532,
      "acy": 1533,
      "Ġdetect": 1534,
      "Ġproviding": 1535,
      "rop": 1536,
      "Ġlocal": 1537,
      "Ġgra": 1538,
      "Ġhelps": 1539,
      "elf": 1540,
      "Ġmulti": 1541,
      "udget": 1542,
      "Ġamount": 1543,
      "Ġguid": 1544,
      "ss": 1545,
      "ling": 1546,
      "Ġservice": 1547,
      "ĠRemember": 1548,
      "Ġplace": 1549,
      "Ġsteps": 1550,
      "Ġdecisions": 1551,
      "olve": 1552,
      "Ġstill": 1553,
      "Ġstudents": 1554,
      "Ġtoo": 1555,
      "Ġincrease": 1556,
      "Ġothers": 1557,
      "Ġwrit": 1558,
      "oney": 1559,
      "Ġservices": 1560,
      "oss": 1561,
      "What": 1562,
      "Ġtim": 1563,
      "ivity": 1564,
      "arget": 1565,
      "Ġrelations": 1566,
      "Ġessential": 1567,
      "Certainly": 1568,
      "Ġtype": 1569,
      "ĠOne": 1570,
      "Ġdoes": 1571,
      "Ġsearch": 1572,
      "Ġpositive": 1573,
      "esp": 1574,
      "Ġalways": 1575,
      "Ġneg": 1576,
      "Ġsecurity": 1577,
      "Ġable": 1578,
      "Ġ20": 1579,
      "Ġla": 1580,
      "Ġdeterm": 1581,
      "Ġdetail": 1582,
      "ead": 1583,
      "Ġfriend": 1584,
      "ew": 1585,
      "Ġbecome": 1586,
      "Ġmental": 1587,
      "fort": 1588,
      "Ġpersonalized": 1589,
      "Ġuses": 1590,
      "Ġtable": 1591,
      "Ġprogress": 1592,
      "Ġloop": 1593,
      "Ġanalysis": 1594,
      "Ġlim": 1595,
      "ren": 1596,
      "'m": 1597,
      "Ġsound": 1598,
      "Ġknown": 1599,
      "Ġcomb": 1600,
      "olution": 1601,
      "Ġbudget": 1602,
      "Ġrele": 1603,
      "oice": 1604,
      "Ġright": 1605,
      "Ġsources": 1606,
      "Ġsort": 1607,
      "Ġmedical": 1608,
      "Ġcurrent": 1609,
      "Ġfound": 1610,
      "ains": 1611,
      "Ġveget": 1612,
      "Ġbehav": 1613,
      "Ġquestions": 1614,
      "Ġpie": 1615,
      "Ġpublic": 1616,
      "Ġbal": 1617,
      "ph": 1618,
      "ted": 1619,
      "Ġdem": 1620,
      "Ġlet": 1621,
      "Ġgame": 1622,
      "izing": 1623,
      "ified": 1624,
      "Ġfree": 1625,
      "Ġeasy": 1626,
      "Ġstyle": 1627,
      "Ġbody": 1628,
      "lish": 1629,
      "ĠBe": 1630,
      "Ġclear": 1631,
      "Ġworking": 1632,
      "Ġpossible": 1633,
      "ĠAm": 1634,
      "Ġcity": 1635,
      "Ġnut": 1636,
      "ĠDo": 1637,
      "anced": 1638,
      "Ġtypes": 1639,
      "Ġmot": 1640,
      "Ġtarget": 1641,
      "just": 1642,
      "ĠPy": 1643,
      "lu": 1644,
      "joy": 1645,
      "Ġdesigned": 1646,
      "!<|": 1647,
      "Ġcontribut": 1648,
      "Ġshare": 1649,
      "Ġeconom": 1650,
      "Ġpoint": 1651,
      "Ġlow": 1652,
      "thon": 1653,
      "ave": 1654,
      "Ġthink": 1655,
      "Ġhistory": 1656,
      "ferences": 1657,
      "icult": 1658,
      "Ġchanges": 1659,
      "Ġgr": 1660,
      "ructure": 1661,
      "Ġmess": 1662,
      "Ġmust": 1663,
      "Ġeducation": 1664,
      "Ġincludes": 1665,
      "Ġdev": 1666,
      "Ġfiel": 1667,
      "ava": 1668,
      "iting": 1669,
      "Ġefficient": 1670,
      "Ġpolic": 1671,
      "Ġstring": 1672,
      "Ġpriv": 1673,
      "ering": 1674,
      "ĠEn": 1675,
      "Ġmonitor": 1676,
      "ĠEx": 1677,
      "ese": 1678,
      "ibility": 1679,
      "urns": 1680,
      "Ġmarketing": 1681,
      "Ġchoose": 1682,
      "ource": 1683,
      "ually": 1684,
      "izations": 1685,
      "Ġfollowing": 1686,
      "Ġ.": 1687,
      "Ġsame": 1688,
      "rite": 1689,
      "Ġstory": 1690,
      "Ġfac": 1691,
      "Ġreducing": 1692,
      "Ġless": 1693,
      "Ġdifficult": 1694,
      "Ġcultural": 1695,
      "Ġmuch": 1696,
      "ances": 1697,
      "Ġinvolves": 1698,
      "Ġcompanies": 1699,
      "Ġhapp": 1700,
      "ĠWh": 1701,
      "Ġstand": 1702,
      "Ġachieve": 1703,
      "ĠSome": 1704,
      "hys": 1705,
      "Ġafter": 1706,
      "Ġrun": 1707,
      "Ġmight": 1708,
      "ients": 1709,
      "Ġquality": 1710,
      "to": 1711,
      "ĠAl": 1712,
      "ĠWhen": 1713,
      "Ġagain": 1714,
      "place": 1715,
      "ĠSp": 1716,
      "Ġpain": 1717,
      "Ġevents": 1718,
      "Ġmove": 1719,
      "Ġupd": 1720,
      "Ġintegr": 1721,
      "Ġexplore": 1722,
      "Ġrole": 1723,
      "Ġprior": 1724,
      "rams": 1725,
      "usion": 1726,
      "Ġport": 1727,
      "Ġapproach": 1728,
      "ĠShe": 1729,
      "Ġmaterials": 1730,
      "Ġorder": 1731,
      "iment": 1732,
      "Ġcommunity": 1733,
      "ffic": 1734,
      "ined": 1735,
      "Ġtowards": 1736,
      "Ġelement": 1737,
      "Ġself": 1738,
      "Ġest": 1739,
      "Ġincorpor": 1740,
      "Ġwide": 1741,
      "ĠPython": 1742,
      "Ġbelie": 1743,
      "ĠCons": 1744,
      "Ġbeaut": 1745,
      "Ġcomput": 1746,
      "Ġopen": 1747,
      "Ġoverall": 1748,
      "ĠJava": 1749,
      "Ġcontrol": 1750,
      "Ġsense": 1751,
      "Ġpar": 1752,
      "Ġpromote": 1753,
      "icate": 1754,
      "ditionally": 1755,
      "raph": 1756,
      "Ġrobots": 1757,
      "Ġcr": 1758,
      "Ġgovern": 1759,
      "ross": 1760,
      "ura": 1761,
      "Ġstrategies": 1762,
      "Ġtem": 1763,
      "Ġmaintain": 1764,
      "Ġear": 1765,
      "Ġliving": 1766,
      "Ġspe": 1767,
      "Ġfit": 1768,
      "Ġ,": 1769,
      ").": 1770,
      "Ġadjust": 1771,
      "ems": 1772,
      "Ġfactors": 1773,
      "Ġtransport": 1774,
      "Ġtaking": 1775,
      "oot": 1776,
      "urate": 1777,
      "Ġexperiences": 1778,
      "Ġparticular": 1779,
      "Ġrecommendations": 1780,
      "Ġjo": 1781,
      "Ġmodern": 1782,
      "asing": 1783,
      "Ġ10": 1784,
      "Ġcertain": 1785,
      "Ġ8": 1786,
      "less": 1787,
      "hips": 1788,
      "Ġminim": 1789,
      "ires": 1790,
      "aring": 1791,
      "Ġchild": 1792,
      "ĠWith": 1793,
      "Ġaudience": 1794,
      "Ġpay": 1795,
      "ency": 1796,
      "avor": 1797,
      "ĠAnd": 1798,
      "Ġcomfort": 1799,
      "Ġhope": 1800,
      "'ll": 1801,
      "Ġcollabor": 1802,
      "ĠDe": 1803,
      "ention": 1804,
      "med": 1805,
      "Ġfore": 1806,
      "ĠAdditionally": 1807,
      "Ġleg": 1808,
      "ci": 1809,
      "Ġcommunication": 1810,
      "Ġphys": 1811,
      "Ġ*": 1812,
      "Ġsociety": 1813,
      "ourage": 1814,
      "ĠUn": 1815,
      "Ġcharacter": 1816,
      "be": 1817,
      "Ġmeans": 1818,
      "Ġview": 1819,
      "Ġdress": 1820,
      "Ġopportunities": 1821,
      "ĠâĢ": 1822,
      "Ġmoney": 1823,
      "Ġbehavior": 1824,
      "Ġsens": 1825,
      "Ġfamily": 1826,
      "ĠGo": 1827,
      "Ġtell": 1828,
      "ouse": 1829,
      "vant": 1830,
      "Ġmultiple": 1831,
      "Ġsomet": 1832,
      "ool": 1833,
      "ator": 1834,
      "Ġaccurate": 1835,
      "Ġcent": 1836,
      "irtual": 1837,
      "Ġsym": 1838,
      "Ġenjoy": 1839,
      "ason": 1840,
      "atch": 1841,
      "Ġconcer": 1842,
      "Ġful": 1843,
      "Ġreturns": 1844,
      "utes": 1845,
      "ression": 1846,
      "Ġtakes": 1847,
      "Ġrout": 1848,
      "Ġinflu": 1849,
      "Ġquick": 1850,
      "cul": 1851,
      "Ġerr": 1852,
      "ved": 1853,
      "Ġgenerate": 1854,
      "ibr": 1855,
      "ellig": 1856,
      "fit": 1857,
      "Ġconst": 1858,
      "fact": 1859,
      "Ġbrand": 1860,
      "ron": 1861,
      "ining": 1862,
      "Ġsumm": 1863,
      "ven": 1864,
      "Ġemail": 1865,
      "day": 1866,
      "Ġaffect": 1867,
      "urs": 1868,
      "Ġprint": 1869,
      "irect": 1870,
      "based": 1871,
      "Ġtravel": 1872,
      "Ġoil": 1873,
      "Ġcap": 1874,
      "Ġmeet": 1875,
      "Ġsimple": 1876,
      "Ġconcerns": 1877,
      "Ġnumbers": 1878,
      "Ġcamp": 1879,
      "Ġreturn": 1880,
      "Ġnegative": 1881,
      "Ġexpens": 1882,
      "time": 1883,
      "Ġsitu": 1884,
      "Ġland": 1885,
      "Ġvide": 1886,
      "Ġchatbot": 1887,
      "Ġpreferences": 1888,
      "ves": 1889,
      "Ġprograms": 1890,
      "Ġrepresent": 1891,
      "round": 1892,
      "Ġyears": 1893,
      "Ġdecision": 1894,
      "ĠPl": 1895,
      "ĠSh": 1896,
      "friend": 1897,
      "ug": 1898,
      "ĠFin": 1899,
      "Ġsn": 1900,
      "Ġprote": 1901,
      "Ġculture": 1902,
      "ĠInt": 1903,
      "ĠAdd": 1904,
      "pro": 1905,
      "Ġstress": 1906,
      "aces": 1907,
      "ĠBut": 1908,
      "Ġengage": 1909,
      "),": 1910,
      "Ġcrit": 1911,
      "Ġdeep": 1912,
      "Ġstrong": 1913,
      "Ġprofessional": 1914,
      "Ġregul": 1915,
      "Ġpromot": 1916,
      "Ġwithin": 1917,
      "Ġhumans": 1918,
      "Ġimages": 1919,
      "Ġgrowth": 1920,
      "ĠMan": 1921,
      "istic": 1922,
      "Ġbuilding": 1923,
      "Ġelect": 1924,
      "Ġrenew": 1925,
      "Ġnecess": 1926,
      "thing": 1927,
      "ral": 1928,
      "Ġanother": 1929,
      "Ġyourself": 1930,
      "agn": 1931,
      "Ġconsum": 1932,
      "Ġorganizations": 1933,
      "ah": 1934,
      "Ġbreak": 1935,
      "Ġdise": 1936,
      "Ġstock": 1937,
      "Ġtax": 1938,
      "ĠWhat": 1939,
      "Ġideas": 1940,
      "Ġgroup": 1941,
      "ank": 1942,
      "Ġtour": 1943,
      "Ġair": 1944,
      "Ġbecause": 1945,
      "reate": 1946,
      "Ġsent": 1947,
      "way": 1948,
      "Ġcase": 1949,
      "Ġenvironmental": 1950,
      "Ġmotiv": 1951,
      "word": 1952,
      "over": 1953,
      "Ġunderstanding": 1954,
      "ĠInst": 1955,
      "Ġshort": 1956,
      "ired": 1957,
      "Ġsav": 1958,
      "Ġtransportation": 1959,
      "Ġocc": 1960,
      "Ġdifference": 1961,
      ".\"": 1962,
      "friendly": 1963,
      "ale": 1964,
      "Ġinit": 1965,
      "Ġdig": 1966,
      "Ġanim": 1967,
      "Ġvisual": 1968,
      "br": 1969,
      "Ġpractice": 1970,
      "ĠAr": 1971,
      "Ġbas": 1972,
      "Ġcome": 1973,
      "fect": 1974,
      "alu": 1975,
      "Ġtreatment": 1976,
      "ward": 1977,
      "Ġevent": 1978,
      "ees": 1979,
      "Ġeffectively": 1980,
      "iency": 1981,
      "Ġminutes": 1982,
      "Ġmix": 1983,
      "let": 1984,
      "Ġinterv": 1985,
      "ooks": 1986,
      "Ġconditions": 1987,
      "Ġcolors": 1988,
      "Ġcourse": 1989,
      "Ġlog": 1990,
      "Ġapplications": 1991,
      "ilar": 1992,
      "lex": 1993,
      "ush": 1994,
      "Ġpast": 1995,
      "ption": 1996,
      "Ġclean": 1997,
      "Ġtechnologies": 1998,
      "Ġclimate": 1999,
      "lection": 2000,
      "Ġmov": 2001,
      "Ġrenewable": 2002,
      "Ġ[": 2003,
      "Ġpost": 2004,
      "Ġprogramming": 2005,
      "Ġlove": 2006,
      "eric": 2007,
      "Ġbo": 2008,
      "resh": 2009,
      "gin": 2010,
      "uss": 2011,
      "oring": 2012,
      "lease": 2013,
      "Ġability": 2014,
      "tle": 2015,
      "ath": 2016,
      "here": 2017,
      "Ġnon": 2018,
      "Ġreview": 2019,
      "ĠInd": 2020,
      "Ġhandle": 2021,
      "ised": 2022,
      "Ġplatforms": 2023,
      "riate": 2024,
      "Ġnecessary": 2025,
      "ashion": 2026,
      "Ġthough": 2027,
      "Ġ$": 2028,
      "ler": 2029,
      "Ġfile": 2030,
      "ording": 2031,
      "Ġlevels": 2032,
      "nov": 2033,
      "Ġdetermine": 2034,
      "Ġdepend": 2035,
      "Ġprotein": 2036,
      "arent": 2037,
      "ws": 2038,
      "Ġproblem": 2039,
      "Ġexpect": 2040,
      "Ġimproving": 2041,
      "ledge": 2042,
      "omp": 2043,
      "Ġi": 2044,
      "Ġsupp": 2045,
      "\\_": 2046,
      "Ġarea": 2047,
      "bo": 2048,
      "Ġvisit": 2049,
      "opp": 2050,
      "oms": 2051,
      "tern": 2052,
      "aign": 2053,
      "Ġmethods": 2054,
      "ature": 2055,
      "Ġsuccessful": 2056,
      "ger": 2057,
      "ared": 2058,
      "Ġsomething": 2059,
      "uct": 2060,
      "Ġperfect": 2061,
      "ken": 2062,
      "Ġweb": 2063,
      "Ġvirtual": 2064,
      "Ġtimes": 2065,
      "Ġstreng": 2066,
      "Ġsche": 2067,
      "Ġhim": 2068,
      "ney": 2069,
      "Ġadapt": 2070,
      "not": 2071,
      "Ġeffects": 2072,
      "Ġwaste": 2073,
      "Ġel": 2074,
      "oci": 2075,
      "Ġthroughout": 2076,
      "Ġoption": 2077,
      "ames": 2078,
      "for": 2079,
      "Ġdiet": 2080,
      "ument": 2081,
      "ĠMake": 2082,
      "ĠTe": 2083,
      "Ġpriorit": 2084,
      "Ġprivacy": 2085,
      "oes": 2086,
      "Ġcharacters": 2087,
      "Ġmembers": 2088,
      "Ġapprop": 2089,
      "Ġrece": 2090,
      "ification": 2091,
      "urther": 2092,
      "Ġrelevant": 2093,
      "Ġprocessing": 2094,
      "ipp": 2095,
      "Ġdid": 2096,
      "Ġmean": 2097,
      "alk": 2098,
      "Ġphysical": 2099,
      "Ġpatients": 2100,
      "ĠConsider": 2101,
      "Ġprep": 2102,
      "Ġhig": 2103,
      "Ġcollect": 2104,
      "light": 2105,
      "Ġintellig": 2106,
      "Ġdirect": 2107,
      "Ġcalled": 2108,
      "ĠLe": 2109,
      "land": 2110,
      "po": 2111,
      "Ġemotions": 2112,
      "me": 2113,
      "Ġfashion": 2114,
      "oor": 2115,
      "ĠTra": 2116,
      "Ġneeded": 2117,
      "Ġoptimize": 2118,
      "Ġappropriate": 2119,
      "Ġmodels": 2120,
      "Ġfield": 2121,
      "come": 2122,
      "Ġsat": 2123,
      "Ġgreen": 2124,
      "Ġcaus": 2125,
      "Ġlay": 2126,
      "Ġexercise": 2127,
      "Ġcampaign": 2128,
      "Ġcommunities": 2129,
      "ape": 2130,
      "Ġagainst": 2131,
      "Ġcomplete": 2132,
      "Ġscen": 2133,
      "hor": 2134,
      "Ġfriends": 2135,
      "ek": 2136,
      "Ġrecip": 2137,
      "Ġharm": 2138,
      "Ġcompet": 2139,
      "Ġtask": 2140,
      "Ġdest": 2141,
      "Ġcontinue": 2142,
      "bon": 2143,
      "Ġlit": 2144,
      "Ġwriting": 2145,
      "Ġsave": 2146,
      "Ġefficiency": 2147,
      "Ġaware": 2148,
      "Ġspecial": 2149,
      "cial": 2150,
      "Ġheart": 2151,
      "Ġdra": 2152,
      "Ġvers": 2153,
      "ĠCl": 2154,
      "ĠChoose": 2155,
      "comes": 2156,
      "Ġpres": 2157,
      "sc": 2158,
      "igate": 2159,
      "Ġbalance": 2160,
      "Ġanalyzing": 2161,
      "Ġline": 2162,
      "Ġthings": 2163,
      "Ġdeveloping": 2164,
      "Ġcalcul": 2165,
      "aur": 2166,
      "Ġmil": 2167,
      "aches": 2168,
      "ĠIm": 2169,
      "ret": 2170,
      "af": 2171,
      "Ġdiagn": 2172,
      "Ġcomfortable": 2173,
      "Ġrisks": 2174,
      "Ġidea": 2175,
      "Ġpepp": 2176,
      "inal": 2177,
      "ĠEm": 2178,
      "onds": 2179,
      "Ġresults": 2180,
      "Ġrequires": 2181,
      "osp": 2182,
      "Ġfund": 2183,
      "dr": 2184,
      "Ġmeasures": 2185,
      "Ġtrained": 2186,
      "ĠOnce": 2187,
      "chool": 2188,
      "Ġoutcomes": 2189,
      "Ġpresent": 2190,
      "ĠLet": 2191,
      "Ġlives": 2192,
      "Ġdeveloped": 2193,
      "Ġgroups": 2194,
      "Ġleading": 2195,
      "ĠSc": 2196,
      "str": 2197,
      "rics": 2198,
      "Ġcy": 2199,
      "Ġvegetables": 2200,
      "ones": 2201,
      "ĠQ": 2202,
      "Ġinnov": 2203,
      "onse": 2204,
      "Ġoutput": 2205,
      "irement": 2206,
      "cle": 2207,
      "Ġsafety": 2208,
      "Ġstatement": 2209,
      "Ġintern": 2210,
      "Ġefforts": 2211,
      "rast": 2212,
      "Ġvariable": 2213,
      "Ġexercises": 2214,
      "rim": 2215,
      "Ġnext": 2216,
      "Ġjour": 2217,
      "Ġexpenses": 2218,
      "Ġter": 2219,
      "Ġarg": 2220,
      "Ġfre": 2221,
      "Ġtri": 2222,
      "Ġloss": 2223,
      "olutions": 2224,
      "vert": 2225,
      "uracy": 2226,
      "Ġreach": 2227,
      "Ġhot": 2228,
      "Ġrelationships": 2229,
      "hers": 2230,
      "Ġnetwork": 2231,
      "Ġblock": 2232,
      "Ġengine": 2233,
      "uce": 2234,
      "Ġknowledge": 2235,
      "Ġconvers": 2236,
      "Ġaction": 2237,
      "ĠZ": 2238,
      "Ġmar": 2239,
      "Ġhelpful": 2240,
      "redients": 2241,
      "Ġpurch": 2242,
      "Ġface": 2243,
      "Ġsle": 2244,
      "Ġlower": 2245,
      "Ġ=": 2246,
      "ding": 2247,
      "Ġlooking": 2248,
      "ences": 2249,
      "It": 2250,
      "Ġflow": 2251,
      "Ġsuggestions": 2252,
      "Ġinvesting": 2253,
      "Ġeconomic": 2254,
      "Ġadditional": 2255,
      "Ġmatch": 2256,
      "ĠCon": 2257,
      "Ġrequest": 2258,
      "issions": 2259,
      "Ġ9": 2260,
      "Ġbro": 2261,
      "Ġhead": 2262,
      "LP": 2263,
      "Ġpowerful": 2264,
      "rect": 2265,
      "Ġbook": 2266,
      "Ġadvice": 2267,
      "Ġexist": 2268,
      "Ġaccuracy": 2269,
      "Ġproduction": 2270,
      "ĠCol": 2271,
      "Ġhard": 2272,
      "Ġretirement": 2273,
      "aster": 2274,
      "Ġwords": 2275,
      "Ġtrends": 2276,
      "Ġsw": 2277,
      "Ġside": 2278,
      "ners": 2279,
      "Ġname": 2280,
      "term": 2281,
      "illed": 2282,
      "izes": 2283,
      "rodu": 2284,
      "itation": 2285,
      "aries": 2286,
      "Ġacross": 2287,
      "play": 2288,
      "Ġassoci": 2289,
      "icious": 2290,
      "Ġpack": 2291,
      "Ġdeb": 2292,
      "Ġlikely": 2293,
      "iful": 2294,
      "Ġstudy": 2295,
      "Ġwarm": 2296,
      "Ġapplication": 2297,
      "Ġimage": 2298,
      "ĠFinally": 2299,
      "Ġinsp": 2300,
      "Ġrespect": 2301,
      "ially": 2302,
      "Ġdatas": 2303,
      "Ġquickly": 2304,
      "):": 2305,
      "Ġnow": 2306,
      "ton": 2307,
      "Ġrecognition": 2308,
      "Ġcountries": 2309,
      "Ġcolum": 2310,
      "Ġsolutions": 2311,
      "Ġsize": 2312,
      "ute": 2313,
      "Ġenh": 2314,
      "Ġsomeone": 2315,
      "Ġstructure": 2316,
      "Ġcause": 2317,
      "Ġgovernment": 2318,
      "Ġappe": 2319,
      "Ġrestaur": 2320,
      "osing": 2321,
      "Ġproblems": 2322,
      "Ġbring": 2323,
      "Ġdiverse": 2324,
      "Ġsimilar": 2325,
      "Ġstrength": 2326,
      "pr": 2327,
      "ince": 2328,
      "oh": 2329,
      "ork": 2330,
      "ĠWhile": 2331,
      "Ġgoal": 2332,
      "Ġincome": 2333,
      "ology": 2334,
      "Ġmakes": 2335,
      "Ġfresh": 2336,
      "Ġchatbots": 2337,
      "Ġincreasing": 2338,
      "Ġadvanced": 2339,
      "Ġnav": 2340,
      "ides": 2341,
      "mat": 2342,
      "ours": 2343,
      "ĠKe": 2344,
      "acks": 2345,
      "Ġsol": 2346,
      "works": 2347,
      "clusion": 2348,
      "Ġcred": 2349,
      "Ġlibr": 2350,
      "Ġcannot": 2351,
      "Ġresponsible": 2352,
      "Ġevalu": 2353,
      "othing": 2354,
      "Ġ19": 2355,
      "ored": 2356,
      "Ġitems": 2357,
      "Ġresponse": 2358,
      "Ġemployees": 2359,
      "Ġpolit": 2360,
      "Ġcook": 2361,
      "Ġstru": 2362,
      "icles": 2363,
      "Ġdevices": 2364,
      "Ġselect": 2365,
      "ury": 2366,
      "elines": 2367,
      "ches": 2368,
      "Ġwind": 2369,
      "As": 2370,
      "use": 2371,
      "side": 2372,
      "atives": 2373,
      "Ġcosts": 2374,
      "Ġpa": 2375,
      "ĠSet": 2376,
      "Ġdone": 2377,
      "Ġsect": 2378,
      "abilities": 2379,
      "Ġimportance": 2380,
      "quality": 2381,
      "Ġnever": 2382,
      "Ġinsights": 2383,
      "Ġbeautiful": 2384,
      "orth": 2385,
      "Ġglob": 2386,
      "Ġindustries": 2387,
      "Ġintelligence": 2388,
      "Ġmonth": 2389,
      "Ġblack": 2390,
      "Ġweather": 2391,
      "Ġplant": 2392,
      "aily": 2393,
      "ata": 2394,
      "Ġemerg": 2395,
      "Ġhigher": 2396,
      "ses": 2397,
      "Ġsatis": 2398,
      "Ġinstead": 2399,
      "ium": 2400,
      "Ġpolicies": 2401,
      "ites": 2402,
      "Ġrespond": 2403,
      "ext": 2404,
      "tics": 2405,
      "Ġemotional": 2406,
      "Ġfru": 2407,
      "Ġiter": 2408,
      "Ġprojects": 2409,
      "ificial": 2410,
      "par": 2411,
      "ade": 2412,
      "Ġstrugg": 2413,
      "Ġask": 2414,
      "Script": 2415,
      "ging": 2416,
      "Ġbegin": 2417,
      "Ġmessage": 2418,
      "Ġengaging": 2419,
      "Ġcontain": 2420,
      "fol": 2421,
      "Ġimm": 2422,
      "Ġmax": 2423,
      "ogle": 2424,
      "Ġdecor": 2425,
      "Ġchick": 2426,
      "Ġtherap": 2427,
      "Ġfurther": 2428,
      "Ġey": 2429,
      "Ġdigital": 2430,
      "Ġworkout": 2431,
      "Ġoutfit": 2432,
      "ively": 2433,
      "ĠSe": 2434,
      "Ġdetails": 2435,
      "Ġpieces": 2436,
      "Ġrobot": 2437,
      "Ġprioritize": 2438,
      "yn": 2439,
      "Ġwom": 2440,
      "Ġhold": 2441,
      "ĠAmeric": 2442,
      "tt": 2443,
      "Ġpurp": 2444,
      "Ġsource": 2445,
      "rame": 2446,
      "Ġyear": 2447,
      "erson": 2448,
      "fer": 2449,
      "Ġcru": 2450,
      "ĠSo": 2451,
      "Ġing": 2452,
      "Ġcarbon": 2453,
      "Ġbreat": 2454,
      "ently": 2455,
      "Ġreally": 2456,
      "Ġsafe": 2457,
      "Ġpair": 2458,
      "ele": 2459,
      "Ġconc": 2460,
      "Ġfeature": 2461,
      "Ġdaily": 2462,
      "Ġregularly": 2463,
      "That": 2464,
      "ener": 2465,
      "Ġafford": 2466,
      "Ġfocused": 2467,
      "Ġlif": 2468,
      "000": 2469,
      "Ġstat": 2470,
      "hold": 2471,
      "Ġconsist": 2472,
      "Ġwhole": 2473,
      "aks": 2474,
      "ots": 2475,
      "Ġchallenging": 2476,
      "Ġplants": 2477,
      "akes": 2478,
      "Ġmain": 2479,
      "Ġchildren": 2480,
      "'ve": 2481,
      "Ġdiscuss": 2482,
      "Ġhab": 2483,
      "Ġallowing": 2484,
      "Ġtraffic": 2485,
      "ĠSu": 2486,
      "Ġeveryone": 2487,
      "Ġsing": 2488,
      "ges": 2489,
      "ising": 2490,
      "face": 2491,
      "by": 2492,
      "Ġrelated": 2493,
      "Ġcup": 2494,
      "Ġencourage": 2495,
      "Ġhappy": 2496,
      "Ġfr": 2497,
      "Ġaccording": 2498,
      "rehe": 2499,
      "Ġinvestments": 2500,
      "Ġcorrect": 2501,
      "ĠIs": 2502,
      "Ġnote": 2503,
      "Ġvol": 2504,
      "Ġeasier": 2505,
      "elebr": 2506,
      "Ġchoice": 2507,
      "ĠJavaScript": 2508,
      "Ġenough": 2509,
      "aged": 2510,
      "Ġnature": 2511,
      "ĠNew": 2512,
      "ished": 2513,
      "life": 2514,
      "ude": 2515,
      "Ġportfol": 2516,
      "Ġreflect": 2517,
      "Ġissue": 2518,
      "Ġdue": 2519,
      "enc": 2520,
      "Ġearly": 2521,
      "Ġesp": 2522,
      "Ġalong": 2523,
      "Ġclothing": 2524,
      "Ġorig": 2525,
      "Ġexpress": 2526,
      "ĠInc": 2527,
      "Ġbrow": 2528,
      "Ġturn": 2529,
      "Ġtou": 2530,
      "Ġrecord": 2531,
      "ann": 2532,
      "Ġconcept": 2533,
      "Ġcourses": 2534,
      "Ġbecom": 2535,
      "Ġtrust": 2536,
      "Ġcomplexity": 2537,
      "aling": 2538,
      "Ġwhether": 2539,
      "Ġgain": 2540,
      "ĠAnother": 2541,
      "Ġadvance": 2542,
      "ĠYour": 2543,
      "Ġexec": 2544,
      "Ġgiven": 2545,
      "Ġstrategy": 2546,
      "ival": 2547,
      "Ġlast": 2548,
      "Ġtypically": 2549,
      "ilt": 2550,
      "iate": 2551,
      "Ġmiss": 2552,
      "ĠAv": 2553,
      "Ġestab": 2554,
      "ators": 2555,
      "Ġones": 2556,
      "Ġcondition": 2557,
      "Ġtables": 2558,
      "Ġroutine": 2559,
      "Ġphot": 2560,
      "imately": 2561,
      "iver": 2562,
      "Ġactivity": 2563,
      "Ġguidelines": 2564,
      "ĠGoogle": 2565,
      "Ġcho": 2566,
      "Ġparticularly": 2567,
      "Ġsequ": 2568,
      "sw": 2569,
      "Ġvalu": 2570,
      "Ġapps": 2571,
      "Ġswe": 2572,
      "Ġplans": 2573,
      "ĠCreate": 2574,
      "Ġvideo": 2575,
      "Ġ0": 2576,
      "erve": 2577,
      "Th": 2578,
      "ĠTake": 2579,
      "ik": 2580,
      "yle": 2581,
      "sequ": 2582,
      "Ġdatab": 2583,
      "idd": 2584,
      "ĠUs": 2585,
      "Ġattention": 2586,
      "Ġrate": 2587,
      "Ġrelax": 2588,
      "Ġlocation": 2589,
      "Ġattract": 2590,
      "ĠMy": 2591,
      "Ġdoc": 2592,
      "Ġsong": 2593,
      "ĠReg": 2594,
      "ening": 2595,
      "Ġcu": 2596,
      "Ġportfolio": 2597,
      "Ġassociated": 2598,
      "Ġlab": 2599,
      "Ġschool": 2600,
      "Ġfair": 2601,
      "arc": 2602,
      "fs": 2603,
      "Ġindex": 2604,
      "Ġhistor": 2605,
      "Ġarch": 2606,
      "Ġlive": 2607,
      "Ġtesting": 2608,
      "perv": 2609,
      "In": 2610,
      "Ġfunds": 2611,
      "Ġfoods": 2612,
      "mon": 2613,
      "Ġreport": 2614,
      "Ġweight": 2615,
      "rug": 2616,
      "Ġcountry": 2617,
      "Ġcreated": 2618,
      "Ġmemory": 2619,
      "ender": 2620,
      "Ġinteresting": 2621,
      "Ġglobal": 2622,
      "Ġcommit": 2623,
      "Ġcontinu": 2624,
      "Ġvery": 2625,
      "lo": 2626,
      "Ġveh": 2627,
      "Ġfoot": 2628,
      "Ġ201": 2629,
      "Ġcomes": 2630,
      "Ġlimit": 2631,
      "ecially": 2632,
      "ution": 2633,
      "Ġsecure": 2634,
      "Ġdam": 2635,
      "Ġhy": 2636,
      "Ġadding": 2637,
      "Ġcomputer": 2638,
      "Ġpress": 2639,
      ",\"": 2640,
      "Ġz": 2641,
      "Ġquestion": 2642,
      "Ġsituation": 2643,
      "Ġmob": 2644,
      "Ġled": 2645,
      "Ġansw": 2646,
      "Ġleft": 2647,
      "Ġcapt": 2648,
      "ervation": 2649,
      "Ġespecially": 2650,
      "Ġgreater": 2651,
      "Ġgeneral": 2652,
      "Ġmaxim": 2653,
      "iod": 2654,
      "Ġcrucial": 2655,
      "Ġyog": 2656,
      "Ġtoler": 2657,
      "ĠLook": 2658,
      "Ġstyles": 2659,
      "Ġobjects": 2660,
      "ĠOn": 2661,
      "Ġincreased": 2662,
      "Ġdepending": 2663,
      "Ġmeaning": 2664,
      "Ġamong": 2665,
      "ream": 2666,
      "lying": 2667,
      "Ġmotivated": 2668,
      "Ġsay": 2669,
      "Ġnews": 2670,
      "dule": 2671,
      "making": 2672,
      "Ġinvolve": 2673,
      "Ġhelped": 2674,
      "iture": 2675,
      "Ġbias": 2676,
      "Ġproductivity": 2677,
      "Ġthree": 2678,
      "Ġcritical": 2679,
      "the": 2680,
      "Ġensuring": 2681,
      "Ġanx": 2682,
      "QL": 2683,
      "Ġmindful": 2684,
      "force": 2685,
      "Ġcard": 2686,
      "ulation": 2687,
      "Ġfra": 2688,
      "Ġemissions": 2689,
      "ructions": 2690,
      "su": 2691,
      "ird": 2692,
      "Ġkind": 2693,
      "Ġlocated": 2694,
      "Ġplayers": 2695,
      "Ġstarted": 2696,
      "orage": 2697,
      "Ġamounts": 2698,
      "elt": 2699,
      "ĠX": 2700,
      "Ġseason": 2701,
      "Ġpromoting": 2702,
      "Ġactions": 2703,
      "Ġmom": 2704,
      "urniture": 2705,
      "Ġalign": 2706,
      "ĠKeep": 2707,
      "PI": 2708,
      "Ġsmo": 2709,
      "enge": 2710,
      "ops": 2711,
      "go": 2712,
      "Ġfull": 2713,
      "eds": 2714,
      "ym": 2715,
      "verage": 2716,
      "Ġred": 2717,
      "vey": 2718,
      "Ġimplementing": 2719,
      "Ġfitness": 2720,
      "gest": 2721,
      "Ġfarm": 2722,
      "Ġingredients": 2723,
      "Ġperiod": 2724,
      "Ġhaving": 2725,
      "Ġprofession": 2726,
      "Ġperspect": 2727,
      "Ġsustainability": 2728,
      "atic": 2729,
      "Ġsmaller": 2730,
      "ctions": 2731,
      "Ġcreative": 2732,
      "itect": 2733,
      "ĠNLP": 2734,
      "Ġclassic": 2735,
      "ived": 2736,
      "Ġpiece": 2737,
      "au": 2738,
      "Ġartists": 2739,
      "Ġengagement": 2740,
      "Ġant": 2741,
      "Ġexc": 2742,
      "Ġtransform": 2743,
      "Ġhowever": 2744,
      "ĠTr": 2745,
      "Ġparticip": 2746,
      "Ġjourney": 2747,
      "Ġfeeling": 2748,
      "Ġsl": 2749,
      "Ġstudent": 2750,
      "ration": 2751,
      "alls": 2752,
      "Ġfurniture": 2753,
      "Ġconflic": 2754,
      "crib": 2755,
      "Ġsleep": 2756,
      "AI": 2757,
      "idence": 2758,
      "ane": 2759,
      "ĠEng": 2760,
      "Ġprocesses": 2761,
      "Ġflex": 2762,
      "ina": 2763,
      "Ġsounds": 2764,
      "unch": 2765,
      "Ġpepper": 2766,
      "20": 2767,
      "Ġaffordable": 2768,
      "Ġnight": 2769,
      "Ġuseful": 2770,
      "vest": 2771,
      "aren": 2772,
      "Ġsauce": 2773,
      "app": 2774,
      "Ġterms": 2775,
      "Ġinterests": 2776,
      "Ġincorporate": 2777,
      "itable": 2778,
      "Ġtrying": 2779,
      "Ġbat": 2780,
      "ricult": 2781,
      "Ġconclusion": 2782,
      "Ġdemand": 2783,
      "Ġtechnique": 2784,
      "ring": 2785,
      "Ġplease": 2786,
      "Ġcollaboration": 2787,
      "ĠComp": 2788,
      "Ġdishes": 2789,
      "Ġpolitical": 2790,
      "'d": 2791,
      "ruction": 2792,
      "ufact": 2793,
      "Ġsummary": 2794,
      "Ġmaj": 2795,
      "Ġdelicious": 2796,
      "ids": 2797,
      "Ġresponses": 2798,
      "Ġflavor": 2799,
      "iet": 2800,
      "Ġinformed": 2801,
      "Ġspread": 2802,
      "Ġbig": 2803,
      "Ġtemper": 2804,
      "Ġcheese": 2805,
      "ĠBl": 2806,
      "amet": 2807,
      "Ġrequirements": 2808,
      "Ġtolerance": 2809,
      "iction": 2810,
      "Ġsales": 2811,
      "Write": 2812,
      "Ġtouch": 2813,
      "ĠDevelop": 2814,
      "inite": 2815,
      "Ġquery": 2816,
      "Ġaltern": 2817,
      "Ġcommunicate": 2818,
      "acc": 2819,
      "Ġgetting": 2820,
      "rehens": 2821,
      "pervised": 2822,
      "Ġworkers": 2823,
      "Ġsmart": 2824,
      "ptoms": 2825,
      "Ġscient": 2826,
      "Ġenhance": 2827,
      "Ġorganization": 2828,
      "Ġ'": 2829,
      "Ġerror": 2830,
      "Ġanxiety": 2831,
      "Ġvoice": 2832,
      "elling": 2833,
      "ength": 2834,
      "ĠProv": 2835,
      "Ġfavor": 2836,
      "Ġfrequ": 2837,
      "aves": 2838,
      "hel": 2839,
      "Ġmachines": 2840,
      "Ġskin": 2841,
      "Ġheat": 2842,
      "Ġchicken": 2843,
      "Ġstorage": 2844,
      "Ġbar": 2845,
      "Ġwhite": 2846,
      "Ġsetting": 2847,
      "Ġlanguages": 2848,
      "ĠMany": 2849,
      "Ġarchitect": 2850,
      "Ġopin": 2851,
      "eries": 2852,
      "ystem": 2853,
      "Ġweek": 2854,
      "Ġmeasure": 2855,
      "Ġdiagnos": 2856,
      "iveness": 2857,
      "urt": 2858,
      "sp": 2859,
      "Ġlighting": 2860,
      "Ġprovided": 2861,
      "Ġur": 2862,
      "Ġslow": 2863,
      "ĠMach": 2864,
      "Ġrelationship": 2865,
      "Ġprim": 2866,
      "Ġplanning": 2867,
      "ift": 2868,
      "Ġregulations": 2869,
      "Ġconsequ": 2870,
      "uck": 2871,
      "Ġreli": 2872,
      "Ġill": 2873,
      "eech": 2874,
      "ĠStart": 2875,
      "Ġdiscrim": 2876,
      "Ġprevious": 2877,
      "Ġdrug": 2878,
      "arency": 2879,
      "selves": 2880,
      "Ġstarting": 2881,
      "ĠCont": 2882,
      "Ġcomprehens": 2883,
      "hood": 2884,
      "Ġsavings": 2885,
      "Ġassess": 2886,
      "Ġconsid": 2887,
      "ties": 2888,
      "Ġemp": 2889,
      "Ġgoing": 2890,
      "Ġframe": 2891,
      "icing": 2892,
      "Ġauthor": 2893,
      "Ġmeal": 2894,
      "Ġsymptoms": 2895,
      "Ġexisting": 2896,
      "ai": 2897,
      "Ġposition": 2898,
      "Ġcontribute": 2899,
      "Ġoperations": 2900,
      "inary": 2901,
      "Ġdatabase": 2902,
      "Ġap": 2903,
      "ott": 2904,
      "iversity": 2905,
      "RA": 2906,
      "bol": 2907,
      "Ġlegal": 2908,
      "Ġhours": 2909,
      "Ġgar": 2910,
      "Ġawareness": 2911,
      "Ġiniti": 2912,
      "etic": 2913,
      "overy": 2914,
      "Ġvaluable": 2915,
      "Ġerrors": 2916,
      "Ġmajor": 2917,
      "Ġdoct": 2918,
      "Ġaccessible": 2919,
      "ycl": 2920,
      "Ġguide": 2921,
      "Ġconsequences": 2922,
      "Ġtrue": 2923,
      "Ġold": 2924,
      "Ġremain": 2925,
      "Ġonce": 2926,
      "ians": 2927,
      "gar": 2928,
      "There": 2929,
      "Ġrecurs": 2930,
      "ĠData": 2931,
      "Ġschedule": 2932,
      "emic": 2933,
      "Ġtail": 2934,
      "Ġcases": 2935,
      "Ġmodify": 2936,
      "Ġcredit": 2937,
      "akers": 2938,
      "Ġcelebr": 2939,
      "Ġpan": 2940,
      "Ġsecond": 2941,
      "Ġpoll": 2942,
      "Ġpage": 2943,
      "Ġthreat": 2944,
      "ograph": 2945,
      "olving": 2946,
      "Ġcontext": 2947,
      "Ġmen": 2948,
      "Ġanything": 2949,
      "Ġlot": 2950,
      "Ġlat": 2951,
      "Ġmut": 2952,
      "mosp": 2953,
      "Ġdisease": 2954,
      "asc": 2955,
      "Ġmanufact": 2956,
      "Ġaway": 2957,
      "ely": 2958,
      "Ġwild": 2959,
      "case": 2960,
      "arning": 2961,
      "ows": 2962,
      "ters": 2963,
      "Ġstocks": 2964,
      "atory": 2965,
      "Ġinterested": 2966,
      "being": 2967,
      "Ġwhy": 2968,
      "Ġsequence": 2969,
      "Ġmonitoring": 2970,
      "initely": 2971,
      "Ġremind": 2972,
      "Ġsets": 2973,
      "ĠApp": 2974,
      "Ġpoints": 2975,
      "ĠSoc": 2976,
      "ready": 2977,
      "Ġcombination": 2978,
      "Ġgraph": 2979,
      "Ġprofessionals": 2980,
      "Ġfinding": 2981,
      "amic": 2982,
      "Ġatmosp": 2983,
      "Ġbackg": 2984,
      "Ġconsidered": 2985,
      "ules": 2986,
      "Ġrecognize": 2987,
      "Ġchallenge": 2988,
      "Ġbiases": 2989,
      "Ġge": 2990,
      "unning": 2991,
      "Ġcompos": 2992,
      "Ġdataset": 2993,
      "Ġinstall": 2994,
      "Ġtoday": 2995,
      "Ġfamous": 2996,
      "aching": 2997,
      "ĠDon": 2998,
      "Ġstream": 2999,
      "ĠMon": 3000,
      "Ġadded": 3001,
      "Ġplayer": 3002,
      "Ġwomen": 3003,
      "Ġoutd": 3004,
      "Ġalready": 3005,
      "Ġrecipe": 3006,
      "Ġrates": 3007,
      "Ġanalytics": 3008,
      "Ġdiseases": 3009,
      "Ġeco": 3010,
      "ĠQu": 3011,
      "Ġreplace": 3012,
      "Ġnear": 3013,
      "Ġpow": 3014,
      "inking": 3015,
      "Ġtracking": 3016,
      "illing": 3017,
      "uments": 3018,
      "Ġrequired": 3019,
      "Ġimplementation": 3020,
      "Ġbuilt": 3021,
      "amed": 3022,
      "Ġaspect": 3023,
      "Ġbuy": 3024,
      "Ġimplemented": 3025,
      "Ġimpacts": 3026,
      "oph": 3027,
      "Ġcareer": 3028,
      "Ġadop": 3029,
      "Ġmag": 3030,
      "Ġdish": 3031,
      "Ġidentifying": 3032,
      "Ġbooks": 3033,
      "ĠAPI": 3034,
      "Ġeasily": 3035,
      "Ġsurround": 3036,
      "Ġemb": 3037,
      "Ġinvolved": 3038,
      "hent": 3039,
      "oud": 3040,
      "ĠEnc": 3041,
      "Ġcareful": 3042,
      "Ġtaken": 3043,
      "Ġstra": 3044,
      "Ġsingle": 3045,
      "ĠChe": 3046,
      "Ġproviders": 3047,
      "Ġfish": 3048,
      "Ġagricult": 3049,
      "Ġmit": 3050,
      "Ġste": 3051,
      "Ġknew": 3052,
      "Ġartificial": 3053,
      "ky": 3054,
      "Ġadvis": 3055,
      "Ġpath": 3056,
      "ĠComm": 3057,
      "Ġmobile": 3058,
      "Ġsymbol": 3059,
      "Ġremote": 3060,
      "Ġautomation": 3061,
      "Ġwear": 3062,
      "ĠOr": 3063,
      "ronic": 3064,
      "ancing": 3065,
      "Ġlibrary": 3066,
      "ino": 3067,
      "Ġprop": 3068,
      "Ġput": 3069,
      "Ġdisplay": 3070,
      "Ġclose": 3071,
      "Ġsqu": 3072,
      "era": 3073,
      "sh": 3074,
      "Ġground": 3075,
      "Ġdistribut": 3076,
      "Ġwrite": 3077,
      "astic": 3078,
      "Ġnode": 3079,
      "Ġeverything": 3080,
      "erse": 3081,
      "und": 3082,
      "Ġsalt": 3083,
      "Ġmeditation": 3084,
      "Ġdescript": 3085,
      "ule": 3086,
      "Ġprin": 3087,
      "ĠSm": 3088,
      "Ġrights": 3089,
      "Ġfunctions": 3090,
      "Ġcollection": 3091,
      "Ġnutri": 3092,
      "Ġoriginal": 3093,
      "Ġeffort": 3094,
      "Ġspecies": 3095,
      "Ġleast": 3096,
      "Ġcra": 3097,
      "Ġtexture": 3098,
      "Ġcontinues": 3099,
      "aw": 3100,
      "Ġsun": 3101,
      "Ġbrands": 3102,
      "Ġcontains": 3103,
      "icle": 3104,
      "cast": 3105,
      "ump": 3106,
      "lines": 3107,
      "Ġtopics": 3108,
      "ĠMed": 3109,
      "Ġegg": 3110,
      "ĠJoh": 3111,
      "Ġseen": 3112,
      "Ġlink": 3113,
      "Ġbeauty": 3114,
      "ĠRed": 3115,
      "Ġfest": 3116,
      "Ġsubject": 3117,
      "Ã©": 3118,
      "aris": 3119,
      "Ġrich": 3120,
      "Ġcir": 3121,
      "Ġcomprehensive": 3122,
      "usive": 3123,
      "Ġyoung": 3124,
      "Ġfelt": 3125,
      "ipment": 3126,
      "ference": 3127,
      "Ġsweet": 3128,
      "iber": 3129,
      "Ġage": 3130,
      "Ġinterview": 3131,
      "Ġcompon": 3132,
      "head": 3133,
      "Ġconduct": 3134,
      "Ġrather": 3135,
      "Ġjobs": 3136,
      "Ġdiversity": 3137,
      "Ġmist": 3138,
      "Ġhelping": 3139,
      "Ġclasses": 3140,
      "istics": 3141,
      "ategor": 3142,
      "gra": 3143,
      "Ġatmosphere": 3144,
      "Ġtransl": 3145,
      "Ġarr": 3146,
      "arr": 3147,
      "of": 3148,
      "apan": 3149,
      "Ġpurpose": 3150,
      "Ġsentiment": 3151,
      "Ġadvant": 3152,
      "Ġelectric": 3153,
      "Ġworth": 3154,
      "Ġbeliefs": 3155,
      "Ġconsult": 3156,
      "Ġsaid": 3157,
      "Ġwa": 3158,
      "olutely": 3159,
      "Ġsince": 3160,
      "ĠMachine": 3161,
      "Ġoccur": 3162,
      "Ġlonger": 3163,
      "Ġaim": 3164,
      "ended": 3165,
      "Ġproperty": 3166,
      "Ġcool": 3167,
      "ĠSQL": 3168,
      "ĠPerson": 3169,
      "Ġcover": 3170,
      "Ġcut": 3171,
      "ĠRec": 3172,
      "Ġextra": 3173,
      "holders": 3174,
      "ils": 3175,
      "Ġdark": 3176,
      "urop": 3177,
      "Ġcolumn": 3178,
      "ocol": 3179,
      "Ġreceive": 3180,
      "Ġstrings": 3181,
      "ged": 3182,
      "alking": 3183,
      "uild": 3184,
      "Ġdays": 3185,
      "Ġscience": 3186,
      "Ġscript": 3187,
      "ster": 3188,
      "ana": 3189,
      "Ġauthent": 3190,
      "Ġbright": 3191,
      "mar": 3192,
      "Ġequal": 3193,
      "Ġintrodu": 3194,
      "Ġmel": 3195,
      "Ġtree": 3196,
      "Ġtherapy": 3197,
      "phas": 3198,
      "Ġanimals": 3199,
      "opping": 3200,
      "Ġlength": 3201,
      "Ġdoing": 3202,
      "Ġsolution": 3203,
      "rastructure": 3204,
      "Ġexperiment": 3205,
      "Ġheav": 3206,
      "ole": 3207,
      "Ġassign": 3208,
      "Ġdefinitely": 3209,
      "Ġdetection": 3210,
      "Ġexce": 3211,
      "izz": 3212,
      "Ġparamet": 3213,
      "Ġpurchase": 3214,
      "Ġbasic": 3215,
      "Ġstunning": 3216,
      "Ġinterp": 3217,
      "Ġrelig": 3218,
      "Ġinteractive": 3219,
      "Ġbegan": 3220,
      "Ġmanaging": 3221,
      "Ġcompl": 3222,
      "ĠArt": 3223,
      "Ġfavorite": 3224,
      "free": 3225,
      "room": 3226,
      "Ġbutter": 3227,
      "Ġstake": 3228,
      "Ġguidance": 3229,
      "iring": 3230,
      "Ġwebsites": 3231,
      "orn": 3232,
      "ests": 3233,
      "Ġhighly": 3234,
      "Ġassistance": 3235,
      "ffee": 3236,
      "Ġrecent": 3237,
      "Ġincorporating": 3238,
      "Ġkeyword": 3239,
      "Ġlatest": 3240,
      "pe": 3241,
      "ER": 3242,
      "Ġsam": 3243,
      "Ġdiv": 3244,
      "Ġspeed": 3245,
      "urope": 3246,
      "tings": 3247,
      "Ġtransparency": 3248,
      "reci": 3249,
      "Ġbow": 3250,
      "ĠAmerican": 3251,
      "Ġì": 3252,
      "Ġentire": 3253,
      "Ġestablish": 3254,
      "âĢĿ": 3255,
      "ĠAvoid": 3256,
      "imes": 3257,
      "Ġcell": 3258,
      "Ġsolar": 3259,
      "ĠâĢľ": 3260,
      "ĠHealth": 3261,
      "book": 3262,
      "eat": 3263,
      "Ġsepar": 3264,
      "Ġcooking": 3265,
      "arth": 3266,
      "Ġforms": 3267,
      "Ġversion": 3268,
      "Ġmovement": 3269,
      "ension": 3270,
      "Ġcomplement": 3271,
      "Ġequipment": 3272,
      "ĠSocial": 3273,
      "Ġexpert": 3274,
      "Ġforest": 3275,
      "Ġregard": 3276,
      "Ġlarger": 3277,
      "Ġtut": 3278,
      "Ġded": 3279,
      "Ġvalid": 3280,
      "Ġcontact": 3281,
      "Ġcampaigns": 3282,
      "Ġbehind": 3283,
      "Ġabove": 3284,
      "Ġchanging": 3285,
      "Ġslic": 3286,
      "ĠVis": 3287,
      "Ġrunning": 3288,
      "chan": 3289,
      "Ġrevolution": 3290,
      "ĠGree": 3291,
      "Ġwin": 3292,
      "Ġever": 3293,
      "Ġrecycl": 3294,
      "Ġvehicles": 3295,
      "Ġdocument": 3296,
      "Ġcou": 3297,
      "Ġhom": 3298,
      "Ġfail": 3299,
      "Ġword": 3300,
      "Ġremember": 3301,
      "erous": 3302,
      "Ġviews": 3303,
      "ĠTry": 3304,
      "Ġlimited": 3305,
      "Ġgames": 3306,
      "Ġamaz": 3307,
      "ĠAss": 3308,
      "ĠJapan": 3309,
      "ĠAut": 3310,
      "Ġelse": 3311,
      "osed": 3312,
      "Ġbreaks": 3313,
      "Ġovercome": 3314,
      "Ġsou": 3315,
      "ried": 3316,
      "Ġmindfulness": 3317,
      "isc": 3318,
      "ĠPr": 3319,
      "Ġmoment": 3320,
      "ĠâĢĵ": 3321,
      "Ġalm": 3322,
      "rel": 3323,
      "Ġdraw": 3324,
      "Ġappreci": 3325,
      "ML": 3326,
      "Ġsituations": 3327,
      "Ġcuis": 3328,
      "outh": 3329,
      "Ġdyn": 3330,
      "alf": 3331,
      "ĠRob": 3332,
      "fric": 3333,
      "Ġmeals": 3334,
      "ĠAnaly": 3335,
      "ixt": 3336,
      "Ġshap": 3337,
      "ĠFr": 3338,
      "Ġbase": 3339,
      "iol": 3340,
      "Ġdamage": 3341,
      "ustr": 3342,
      "Ġinfrastructure": 3343,
      "Ġpredictions": 3344,
      "Ġcultures": 3345,
      "Ġble": 3346,
      "Ġhost": 3347,
      "iced": 3348,
      "Ġlaw": 3349,
      "inations": 3350,
      "Ġgarlic": 3351,
      "Ġtreatments": 3352,
      "Ġthemselves": 3353,
      "Ġcam": 3354,
      "inks": 3355,
      "Ġspeech": 3356,
      "Ġphone": 3357,
      "Ġult": 3358,
      "Ġthought": 3359,
      "iking": 3360,
      "Ġwond": 3361,
      "Ġemphas": 3362,
      "ndom": 3363,
      "Ġscreen": 3364,
      "Ġcategor": 3365,
      "Ġgre": 3366,
      "utral": 3367,
      "Ġsorting": 3368,
      "Ġproduce": 3369,
      "Ġdevelopers": 3370,
      "Ġhouse": 3371,
      "Ġut": 3372,
      "Ġrice": 3373,
      "Ġmanner": 3374,
      "ley": 3375,
      "Ġnetworks": 3376,
      "ĠEurope": 3377,
      "Ġvideos": 3378,
      "inese": 3379,
      "Ġdetailed": 3380,
      "Ġprefer": 3381,
      "ĠOur": 3382,
      "ĠAfter": 3383,
      "Ġtaste": 3384,
      "Ġmedic": 3385,
      "Ġefficiently": 3386,
      "Ġvariables": 3387,
      "Ġinitiatives": 3388,
      "live": 3389,
      "ograp": 3390,
      "view": 3391,
      "ĠPract": 3392,
      "Ġ30": 3393,
      "arian": 3394,
      "Ġgas": 3395,
      "Ġspir": 3396,
      "Ġassistants": 3397,
      "Ġstories": 3398,
      "Ġalloc": 3399,
      "Ġstakeholders": 3400,
      "Ġfields": 3401,
      "Ġdead": 3402,
      "Ġinstru": 3403,
      "Ġvary": 3404,
      "faction": 3405,
      "Ġtransparent": 3406,
      "Ġupdated": 3407,
      "Ġassistant": 3408,
      "Ġfab": 3409,
      "Ġ#": 3410,
      "ĠRes": 3411,
      "icro": 3412,
      "Ġoutside": 3413,
      "Ġliter": 3414,
      "Ġmechan": 3415,
      "rep": 3416,
      "Ġbed": 3417,
      "Ġmor": 3418,
      "Ġregion": 3419,
      "cent": 3420,
      "Ġdifferences": 3421,
      "Ġconservation": 3422,
      "Ġsolve": 3423,
      "Ġbecame": 3424,
      "Ġnavigate": 3425,
      "Ġrandom": 3426,
      "Ġneural": 3427,
      "Ġunivers": 3428,
      "Ġmuse": 3429,
      "ĠAt": 3430,
      "ĠTechn": 3431,
      "Ġfaster": 3432,
      "Ġusage": 3433,
      "Ġhistorical": 3434,
      "opped": 3435,
      "Ġanc": 3436,
      "Ġcream": 3437,
      "\",": 3438,
      "ume": 3439,
      "ands": 3440,
      "Ġtemperature": 3441,
      "Ġchann": 3442,
      "Ġinstructions": 3443,
      "ifications": 3444,
      "ĠPersonal": 3445,
      "Ġopinions": 3446,
      "Ġinteractions": 3447,
      "ums": 3448,
      "ĠProvide": 3449,
      "ĠHT": 3450,
      "ĠSar": 3451,
      "Ġencoura": 3452,
      "Ġprice": 3453,
      "Ġmaterial": 3454,
      "Ġshows": 3455,
      "Ġidentity": 3456,
      "Ġcolle": 3457,
      "Ġsoil": 3458,
      "Ġaccessories": 3459,
      "ĠIRA": 3460,
      "ĠNational": 3461,
      "Ġparent": 3462,
      "Ġextract": 3463,
      "ags": 3464,
      "Ġtomat": 3465,
      "Ġimag": 3466,
      "Ġterm": 3467,
      "Ġcoffee": 3468,
      "ĠTrans": 3469,
      "ze": 3470,
      "Ġcand": 3471,
      "Ġoutdoor": 3472,
      "Ġfilm": 3473,
      "Ġleaders": 3474,
      "Ġbreath": 3475,
      "Ġremove": 3476,
      "Ġgard": 3477,
      "Ġfraud": 3478,
      "Ġarchitecture": 3479,
      "Ġteac": 3480,
      "Ġwood": 3481,
      "Ġdang": 3482,
      "Ġpal": 3483,
      "Ġeconomy": 3484,
      "Ġcop": 3485,
      "Ġscore": 3486,
      "ĠUnited": 3487,
      "Ġfamil": 3488,
      "Ġpaper": 3489,
      "Ġteams": 3490,
      "zy": 3491,
      "Ġrestaurant": 3492,
      "Ġadvisor": 3493,
      "ads": 3494,
      "ĠPark": 3495,
      "ĠAll": 3496,
      "bi": 3497,
      "Ġbelieve": 3498,
      "ĠSim": 3499,
      "Ġine": 3500,
      "Ġbowl": 3501,
      "Ġbold": 3502,
      "Ġfeelings": 3503,
      "Ġhair": 3504,
      "oved": 3505,
      "ĠInvest": 3506,
      "..": 3507,
      "Ġthemes": 3508,
      "lications": 3509,
      "Ġbenefit": 3510,
      "ado": 3511,
      "Ġlack": 3512,
      "Ġrecommended": 3513,
      "ĠRegular": 3514,
      "Ġinfluen": 3515,
      "ĠWor": 3516,
      "Ġcuisine": 3517,
      "Ġproperties": 3518,
      "flow": 3519,
      "Ġseeds": 3520,
      "Ġpeace": 3521,
      "ĠAre": 3522,
      "Ġsynt": 3523,
      "Ġsmooth": 3524,
      "Ġseek": 3525,
      "Ġdemon": 3526,
      "Ġpark": 3527,
      "une": 3528,
      "ommod": 3529,
      "Ġinternational": 3530,
      "enty": 3531,
      "oint": 3532,
      "enue": 3533,
      "Ġanswer": 3534,
      "house": 3535,
      "Ġmetrics": 3536,
      "Ġpainting": 3537,
      "Ġadvent": 3538,
      "Ġcreativity": 3539,
      "Ġtrip": 3540,
      "Ġstandards": 3541,
      "Ġsatisfaction": 3542,
      "ĠAfric": 3543,
      "Ġsubs": 3544,
      "igation": 3545,
      "ĠSal": 3546,
      "Ġexploring": 3547,
      "enance": 3548,
      "Ġwatch": 3549,
      "Ġlittle": 3550,
      "Ġinstance": 3551,
      "Ġfiles": 3552,
      "Ġsensors": 3553,
      "itch": 3554,
      "Ġinnovative": 3555,
      "Ġsum": 3556,
      "het": 3557,
      "ull": 3558,
      "overs": 3559,
      "ivil": 3560,
      "Ġinj": 3561,
      "Ġwalk": 3562,
      "Ġprogrammed": 3563,
      "Ġmatter": 3564,
      "tra": 3565,
      "Ġmaximum": 3566,
      "Ġrows": 3567,
      "Ġeffectiveness": 3568,
      "Ġprinci": 3569,
      "Ġseries": 3570,
      "ĠDr": 3571,
      "Ġconsumption": 3572,
      "Ġtrees": 3573,
      "ded": 3574,
      "ological": 3575,
      "Ġminimal": 3576,
      "ened": 3577,
      "ara": 3578,
      "Ġnamed": 3579,
      "anks": 3580,
      "ulate": 3581,
      "Ġexpression": 3582,
      "Ġolive": 3583,
      "Ġtone": 3584,
      "Ġexh": 3585,
      "eled": 3586,
      "aced": 3587,
      "Ġdiscrimination": 3588,
      "aving": 3589,
      "Ġmaintenance": 3590,
      "epend": 3591,
      "Ġshape": 3592,
      "ply": 3593,
      "Ġsupply": 3594,
      "bsolutely": 3595,
      "Ġreality": 3596,
      "Ġevaluate": 3597,
      "Ġstruct": 3598,
      "Ġaccounts": 3599,
      "Ġfats": 3600,
      "Ġbiased": 3601,
      "Ġserve": 3602,
      "Ġstret": 3603,
      "Ġimproved": 3604,
      "ĠRep": 3605,
      "Ġprices": 3606,
      "ĠJohn": 3607,
      "Ġhor": 3608,
      "Ġsnack": 3609,
      "Ġdate": 3610,
      "Ġneutral": 3611,
      "Ġhands": 3612,
      "IN": 3613,
      "10": 3614,
      "Ġformat": 3615,
      "rition": 3616,
      "Ġprepare": 3617,
      "vent": 3618,
      "Ġinfluence": 3619,
      "man": 3620,
      "ĠStep": 3621,
      "ises": 3622,
      "ĠSarah": 3623,
      "board": 3624,
      "Ġencry": 3625,
      "Ġspending": 3626,
      "Ġagree": 3627,
      "Ġopportunity": 3628,
      "Of": 3629,
      "Ġcod": 3630,
      "Ġinterface": 3631,
      "Ġappl": 3632,
      "Ġaccommod": 3633,
      "Ġalternative": 3634,
      "esign": 3635,
      "Ġhabit": 3636,
      "Ġmaintaining": 3637,
      "fficient": 3638,
      "Ġplenty": 3639,
      "oyal": 3640,
      "ĠChat": 3641,
      "Ġproperly": 3642,
      "Ġrestaurants": 3643,
      "Ġdecl": 3644,
      "Ġwed": 3645,
      "Ġimplications": 3646,
      "Ġstylish": 3647,
      "Ġlearned": 3648,
      "Ġsil": 3649,
      "Ġbeach": 3650,
      "Ġtechnical": 3651,
      "50": 3652,
      "ched": 3653,
      "Ġlifest": 3654,
      "bor": 3655,
      "duc": 3656,
      "ormal": 3657,
      "ades": 3658,
      "Ġinitial": 3659,
      "umb": 3660,
      "Ġdefine": 3661,
      "ares": 3662,
      "Ġreviews": 3663,
      "Ġfix": 3664,
      "Ġpolicy": 3665,
      "Ġmilk": 3666,
      "Ġconstant": 3667,
      "Ġparts": 3668,
      "Ġachieving": 3669,
      "Ġsus": 3670,
      "Ġvast": 3671,
      "Ġcaused": 3672,
      "Ġfast": 3673,
      "ĠChinese": 3674,
      "Ġamazing": 3675,
      "itude": 3676,
      "Ġtransact": 3677,
      "Ġexcept": 3678,
      "Ġmill": 3679,
      "rict": 3680,
      "To": 3681,
      "Ġcirc": 3682,
      "leg": 3683,
      "Ġdemonstr": 3684,
      "Ġthoughts": 3685,
      "onomous": 3686,
      "Ġpattern": 3687,
      "Ġdepends": 3688,
      "Ġblood": 3689,
      "mit": 3690,
      "Ġsorted": 3691,
      "erce": 3692,
      "Ġorganic": 3693,
      "Ġimprovement": 3694,
      "Ġfruit": 3695,
      "Ġfar": 3696,
      "Ġhighlight": 3697,
      "Ġbonds": 3698,
      "ĠPe": 3699,
      "ĠCar": 3700,
      "Ġupdate": 3701,
      "Ġindic": 3702,
      "Ġconnection": 3703,
      "Ġautomate": 3704,
      "Ġpollution": 3705,
      "ulner": 3706,
      "Ġviol": 3707,
      "Ġpartners": 3708,
      "Ġprimary": 3709,
      "Ġpayment": 3710,
      "Ġpassword": 3711,
      "ĠThat": 3712,
      "Ġcalculate": 3713,
      "Ġrepl": 3714,
      "Ġsugar": 3715,
      "Ġsurv": 3716,
      "Ġconsistent": 3717,
      "Ġcreates": 3718,
      "Ġlines": 3719,
      "Absolutely": 3720,
      "Ġexcell": 3721,
      "Ġagriculture": 3722,
      "encies": 3723,
      "Ġancient": 3724,
      "Ġbit": 3725,
      "ĠGreek": 3726,
      "Ġblue": 3727,
      "na": 3728,
      "Ġpractical": 3729,
      "19": 3730,
      "set": 3731,
      "Ġfiber": 3732,
      "Ġforward": 3733,
      "fast": 3734,
      "overed": 3735,
      "Ġpressure": 3736,
      "ĠSec": 3737,
      "Ġovers": 3738,
      "ĠMe": 3739,
      "ĠEduc": 3740,
      "Ġdesired": 3741,
      "Ġplaces": 3742,
      "urance": 3743,
      "Ġmis": 3744,
      "Ġstores": 3745,
      "osystem": 3746,
      "ĠRo": 3747,
      "ony": 3748,
      "Ġdeploy": 3749,
      "archers": 3750,
      "Ġargument": 3751,
      "Ġblog": 3752,
      "Ġrent": 3753,
      "Ġabs": 3754,
      "Ġdream": 3755,
      "athy": 3756,
      "Ġserver": 3757,
      "Ġfaced": 3758,
      "Is": 3759,
      "Ġdestination": 3760,
      "Ġparty": 3761,
      "ĠFrom": 3762,
      "Ġcities": 3763,
      "Ġsess": 3764,
      "asted": 3765,
      "ĠCal": 3766,
      "ĠInstead": 3767,
      "ĠCom": 3768,
      "Ġmitigate": 3769,
      "Ġdebt": 3770,
      "Ġusually": 3771,
      "Ġsignificantly": 3772,
      "Ġunc": 3773,
      "Ġoverw": 3774,
      "Ġclient": 3775,
      "Ġ&": 3776,
      "Ġplayed": 3777,
      "poon": 3778,
      "Ġthr": 3779,
      "Ġet": 3780,
      "Ġbrown": 3781,
      "ĠEncourage": 3782,
      "Ġabilities": 3783,
      "like": 3784,
      "Ġobst": 3785,
      "Ġbound": 3786,
      "ĠId": 3787,
      "Ġsharing": 3788,
      "idge": 3789,
      "Ġvulner": 3790,
      "going": 3791,
      "aff": 3792,
      "Ġtrade": 3793,
      "load": 3794,
      "Wow": 3795,
      "Ġ:": 3796,
      "ission": 3797,
      "Ġecosystem": 3798,
      "zz": 3799,
      "Ġcommonly": 3800,
      "print": 3801,
      "min": 3802,
      "nown": 3803,
      "iddle": 3804,
      "Ġver": 3805,
      "ux": 3806,
      "Ġshopping": 3807,
      "oses": 3808,
      "lier": 3809,
      "Ġneigh": 3810,
      "Ġplanet": 3811,
      "Ġmount": 3812,
      "Ġupdates": 3813,
      "Ġgenerated": 3814,
      "Ġdrive": 3815,
      "Ġ12": 3816,
      "Ġgender": 3817,
      "Ġlandsc": 3818,
      "isk": 3819,
      "ĠMay": 3820,
      "Ġapart": 3821,
      "Ġfig": 3822,
      "Ġdevice": 3823,
      "Ġsched": 3824,
      "ban": 3825,
      "Ġtot": 3826,
      "Ġoperator": 3827,
      "Ġdepth": 3828,
      "Ġaccountability": 3829,
      "Ġmuscle": 3830,
      "Ġaccept": 3831,
      "Ġshared": 3832,
      "Ġartwork": 3833,
      "Ġaccordingly": 3834,
      "ĠHave": 3835,
      "Ġgradu": 3836,
      "ĠCheck": 3837,
      "Ġcompare": 3838,
      "Ġeyes": 3839,
      "ĠCity": 3840,
      "Ġlifestyle": 3841,
      "Ġfall": 3842,
      "Ġsensitive": 3843,
      "Ġadopt": 3844,
      "lished": 3845,
      "Ġdistract": 3846,
      "idents": 3847,
      "Ġtrad": 3848,
      "Ġdesigns": 3849,
      "Ġeye": 3850,
      "Ġcenter": 3851,
      "ĠPractice": 3852,
      "aps": 3853,
      "Ġbecoming": 3854,
      "ĠPh": 3855,
      "Ġrad": 3856,
      "sy": 3857,
      "sole": 3858,
      "Ġseem": 3859,
      "Ġprivate": 3860,
      "esc": 3861,
      "yond": 3862,
      "Ġprime": 3863,
      "Ġcapture": 3864,
      "Ġsand": 3865,
      "Ġclients": 3866,
      "ography": 3867,
      "Ġ+": 3868,
      "Create": 3869,
      "Ġmutual": 3870,
      "ulations": 3871,
      "Ġweak": 3872,
      "Ġchain": 3873,
      "Ġaverage": 3874,
      "ung": 3875,
      "Ġprompt": 3876,
      "icated": 3877,
      "Ġinstit": 3878,
      "Ġexpected": 3879,
      "Ġsports": 3880,
      "Ġencount": 3881,
      "Ġfinal": 3882,
      "Ġcas": 3883,
      "Ġchopped": 3884,
      "Ġcars": 3885,
      "Ġresource": 3886,
      "Ġentertain": 3887,
      "Ġconversation": 3888,
      "ixture": 3889,
      "Ġprotection": 3890,
      "Ġexecut": 3891,
      "coming": 3892,
      "Ġmood": 3893,
      "ĠAg": 3894,
      "Ġfruits": 3895,
      "rie": 3896,
      "mediate": 3897,
      "any": 3898,
      "Ġcancer": 3899,
      "oon": 3900,
      "Ġdoesn": 3901,
      "Ġdom": 3902,
      "Ġyogurt": 3903,
      "inate": 3904,
      "Ġobstac": 3905,
      "change": 3906,
      "Ġfire": 3907,
      "Ġobs": 3908,
      "Ġtrend": 3909,
      "inating": 3910,
      "unte": 3911,
      "Ġoverwhel": 3912,
      "Ġallowed": 3913,
      "ĠIdent": 3914,
      "Ġmodified": 3915,
      "Ġfilter": 3916,
      "Ġbrain": 3917,
      "ene": 3918,
      "ups": 3919,
      "val": 3920,
      "pected": 3921,
      "ĠRese": 3922,
      "Ġoffering": 3923,
      "Ġtutor": 3924,
      "ivery": 3925,
      "Ġresponsib": 3926,
      "Ġspecif": 3927,
      "Ġmedium": 3928,
      "eed": 3929,
      "Ġprinciples": 3930,
      "Ġinnovation": 3931,
      "icial": 3932,
      "iers": 3933,
      "Ġeducational": 3934,
      "Ġmessages": 3935,
      "Ġchoosing": 3936,
      "ĠMarket": 3937,
      "Ġbecomes": 3938,
      "Ġadvert": 3939,
      "Ġmeeting": 3940,
      "amb": 3941,
      "Ġhiking": 3942,
      "Here": 3943,
      "ĠAcc": 3944,
      "Ġ15": 3945,
      "Ġtopic": 3946,
      "Ġaffected": 3947,
      "Ġrock": 3948,
      "Ġsend": 3949,
      "iation": 3950,
      "Ġmanufacturing": 3951,
      "porary": 3952,
      "ĠCustom": 3953,
      "//": 3954,
      "oll": 3955,
      "Ġdescrib": 3956,
      "Ġbatter": 3957,
      "Ġexcellent": 3958,
      "Ġshown": 3959,
      "ĠFirst": 3960,
      "Ġultimately": 3961,
      "Ġfactor": 3962,
      "++": 3963,
      "Ġdance": 3964,
      "ĠEach": 3965,
      "Ġqueries": 3966,
      "ĠCommun": 3967,
      "Ġsatisf": 3968,
      "Ġminimize": 3969,
      "Ġvisitors": 3970,
      "date": 3971,
      "Ġstructures": 3972,
      "Ġreliable": 3973,
      "Ġearn": 3974,
      "Ġcapabilities": 3975,
      "osure": 3976,
      "Ġrise": 3977,
      "Ġmeat": 3978,
      "Ġmass": 3979,
      "Ġgrowing": 3980,
      "atural": 3981,
      "Ġsuitable": 3982,
      "Ġnutrition": 3983,
      "Ġwall": 3984,
      "Ġinside": 3985,
      "ĠFl": 3986,
      "Ġinterpret": 3987,
      "uff": 3988,
      "mental": 3989,
      "Ġbeyond": 3990,
      "Ġactive": 3991,
      "Ġchannels": 3992,
      "ĠStates": 3993,
      "ommerce": 3994,
      "ision": 3995,
      "Ġgovernments": 3996,
      "ensity": 3997,
      "Ġemergency": 3998,
      "Ġmovements": 3999,
      "Ġthing": 4000,
      "Ġlaws": 4001,
      "co": 4002,
      "Ġbalanced": 4003,
      "Ġju": 4004,
      "Ġongoing": 4005,
      "azon": 4006,
      "itual": 4007,
      "Ġdoctors": 4008,
      "Ġexperts": 4009,
      "Ġinteger": 4010,
      "ĠUsing": 4011,
      "ously": 4012,
      "cise": 4013,
      "Ġaccurately": 4014,
      "tain": 4015,
      "rist": 4016,
      "uly": 4017,
      "Ġthird": 4018,
      "\".": 4019,
      "Ġorganized": 4020,
      "Ġbur": 4021,
      "Ġrecords": 4022,
      "port": 4023,
      "iling": 4024,
      "Ġsimply": 4025,
      "ĠLearning": 4026,
      "inoa": 4027,
      "atically": 4028,
      "ĠGr": 4029,
      "Ġcalls": 4030,
      "Ġeating": 4031,
      "Ġreading": 4032,
      "Ġboo": 4033,
      "Ġloyal": 4034,
      "ĠTre": 4035,
      "Ġbuildings": 4036,
      "Ġmonths": 4037,
      "Ġessay": 4038,
      "ĠMonitor": 4039,
      "Ġthinking": 4040,
      "Ġitself": 4041,
      "Ġroot": 4042,
      "rupt": 4043,
      "ĠHer": 4044,
      ".,": 4045,
      "Ġmistakes": 4046,
      "ĠOff": 4047,
      "Ġresulting": 4048,
      "icks": 4049,
      "ager": 4050,
      "Ġmixture": 4051,
      "Ġburn": 4052,
      "Ġfight": 4053,
      "Ġtailored": 4054,
      "Ġserious": 4055,
      "Ġperspectives": 4056,
      "Ġstir": 4057,
      "Ġvegan": 4058,
      "Ġdirectly": 4059,
      "ĠPart": 4060,
      "Ġmovie": 4061,
      "Ġlayer": 4062,
      "pping": 4063,
      "Ġshoes": 4064,
      "ĠAmazon": 4065,
      "Ġtur": 4066,
      "itam": 4067,
      "Ġdelivery": 4068,
      "Ġfully": 4069,
      "raw": 4070,
      "Ġapply": 4071,
      "cean": 4072,
      "ĠStud": 4073,
      "Ġbackground": 4074,
      "Ġwon": 4075,
      "Ġpoem": 4076,
      "dd": 4077,
      "Ġtown": 4078,
      "Ġcolumns": 4079,
      "Ġplaying": 4080,
      "irm": 4081,
      "ĠIdentify": 4082,
      "Ġcivil": 4083,
      "Ġlists": 4084,
      "Ġplastic": 4085,
      "Ġrealized": 4086,
      "Ġbread": 4087,
      "ĠHigh": 4088,
      "Ġwritten": 4089,
      "orporate": 4090,
      "Ġsigns": 4091,
      "itors": 4092,
      "Ġadvancements": 4093,
      "Ġimmediate": 4094,
      "Ġworkplace": 4095,
      "Ġcurrently": 4096,
      "ĠChina": 4097,
      "Ġscenari": 4098,
      "world": 4099,
      "Ġinvestors": 4100,
      "Ġcontinued": 4101,
      "Ġconvey": 4102,
      "Ġfat": 4103,
      "Ġbir": 4104,
      "Ġwar": 4105,
      "Ġtotal": 4106,
      "ĠBre": 4107,
      "Ġjoin": 4108,
      "Ġwilling": 4109,
      "Ġattend": 4110,
      "iding": 4111,
      "Ġqual": 4112,
      "Ġfour": 4113,
      "Ġic": 4114,
      "Ġwildlife": 4115,
      "Ġacad": 4116,
      "ĠDet": 4117,
      "Ġlisten": 4118,
      "emy": 4119,
      "ensive": 4120,
      "oration": 4121,
      "Ġnutrients": 4122,
      "Ġcontributions": 4123,
      "Ġresearchers": 4124,
      "rench": 4125,
      "Ġhabits": 4126,
      "resents": 4127,
      "Ġmention": 4128,
      "Ġstudies": 4129,
      "redict": 4130,
      "Ġrules": 4131,
      "eria": 4132,
      "Ġcert": 4133,
      "ĠUS": 4134,
      "Ġrecipes": 4135,
      "Ġretail": 4136,
      "Ġfarmers": 4137,
      "ither": 4138,
      "Ġspeak": 4139,
      "Ġyet": 4140,
      "cious": 4141,
      "mer": 4142,
      "Ġrat": 4143,
      "ĠAlex": 4144,
      "Ġintegrated": 4145,
      "Ġlost": 4146,
      "efore": 4147,
      "Ġwidely": 4148,
      "Ġexpertise": 4149,
      "Ġeat": 4150,
      "Ġcarefully": 4151,
      "Ġaspects": 4152,
      "ĠYork": 4153,
      "ĠTest": 4154,
      "Ġgenerally": 4155,
      "Ġemployee": 4156,
      "Ġhear": 4157,
      "Ġstretch": 4158,
      "Ġtheme": 4159,
      "Ġrepresents": 4160,
      "ĠHum": 4161,
      "Ġstaying": 4162,
      "Ġlinked": 4163,
      "Ġdiagnosis": 4164,
      "ĠFocus": 4165,
      "Ġevidence": 4166,
      "Ġdistance": 4167,
      "Ġban": 4168,
      "Are": 4169,
      "Ġflexible": 4170,
      "Ġfeet": 4171,
      "Ġpersonality": 4172,
      "Ġgather": 4173,
      "Ġsor": 4174,
      "ĠOut": 4175,
      "Ġphr": 4176,
      "ipping": 4177,
      "Ġx": 4178,
      "Ġdiscover": 4179,
      "Ġanimal": 4180,
      "ĠGu": 4181,
      "Ġdry": 4182,
      "ON": 4183,
      "Ġnuts": 4184,
      "Ġaccountable": 4185,
      "Ġfinance": 4186,
      "Great": 4187,
      "istance": 4188,
      "olved": 4189,
      "Ġund": 4190,
      "ĠMus": 4191,
      "ĠEns": 4192,
      "sych": 4193,
      "Ġoccas": 4194,
      "Ġaddressing": 4195,
      "Ġgold": 4196,
      "Ġscene": 4197,
      "Ġsubst": 4198,
      "Ġconsole": 4199,
      "onic": 4200,
      "forcement": 4201,
      "oub": 4202,
      "ĠAlso": 4203,
      "Ġreput": 4204,
      "ĠCo": 4205,
      "Ġdial": 4206,
      "ĠNet": 4207,
      "ĠBra": 4208,
      "Ġgenetic": 4209,
      "TF": 4210,
      "ĠFace": 4211,
      "ĠStay": 4212,
      "Ġrealistic": 4213,
      "Ġcozy": 4214,
      "ffect": 4215,
      "Ġincreasingly": 4216,
      "Ġexpand": 4217,
      "Ġfear": 4218,
      "Ġeggs": 4219,
      "Ġunex": 4220,
      "Ġsection": 4221,
      "Ġaf": 4222,
      "Ġdisord": 4223,
      "ĠCent": 4224,
      "lt": 4225,
      "ĠWorld": 4226,
      "ĠBr": 4227,
      "This": 4228,
      "Ġconflict": 4229,
      "ĠBal": 4230,
      "Ġinqu": 4231,
      "Ġjustice": 4232,
      "ĠHTML": 4233,
      "Ġdivid": 4234,
      "itle": 4235,
      "Ġseparate": 4236,
      "Ġenab": 4237,
      "backs": 4238,
      "anging": 4239,
      "Ġleaves": 4240,
      "ok": 4241,
      "Ġincent": 4242,
      "Ġadds": 4243,
      "St": 4244,
      "Ġcandid": 4245,
      "ocal": 4246,
      "Ġposts": 4247,
      "Ġstatus": 4248,
      "Ġrevenue": 4249,
      "Ġchem": 4250,
      "Ġcross": 4251,
      "ĠBus": 4252,
      "ĠTw": 4253,
      "che": 4254,
      "isms": 4255,
      "gment": 4256,
      "Ġchoices": 4257,
      "Ġresponsibility": 4258,
      "ĠMix": 4259,
      "ocado": 4260,
      "Ġrain": 4261,
      "Ġperspective": 4262,
      "Ġfuel": 4263,
      "utions": 4264,
      "Ġyoga": 4265,
      "ear": 4266,
      "Ġ{": 4267,
      "Ġcreation": 4268,
      "Ġpopulation": 4269,
      "Ġearlier": 4270,
      "ressive": 4271,
      "Ġsite": 4272,
      "Ġpotat": 4273,
      "Ġfootprint": 4274,
      "Ġautomatically": 4275,
      "Ġfasc": 4276,
      "ĠPlease": 4277,
      "Ġfront": 4278,
      "Ġadvantage": 4279,
      "Ġformal": 4280,
      "Ġload": 4281,
      "Ġempathy": 4282,
      "Ġworked": 4283,
      "Ġwedding": 4284,
      "pet": 4285,
      "iles": 4286,
      "Ġresil": 4287,
      "Ġord": 4288,
      "ĠPre": 4289,
      "Ġcro": 4290,
      "Ġindepend": 4291,
      "Ġthreats": 4292,
      "ewel": 4293,
      "ĠOpt": 4294,
      "Ġann": 4295,
      "Ġsaw": 4296,
      "Ġcyber": 4297,
      "Ġcris": 4298,
      "ĠResearch": 4299,
      "nesses": 4300,
      "Ġindicate": 4301,
      "Ġbott": 4302,
      "Ġprints": 4303,
      "Ġsummer": 4304,
      "Ġdidn": 4305,
      "Ġunexpected": 4306,
      "key": 4307,
      "Ġsoon": 4308,
      "uries": 4309,
      "Ġstreet": 4310,
      "Ġvac": 4311,
      "Ġleave": 4312,
      "Ġsuper": 4313,
      "Ġdriving": 4314,
      "Ġpotentially": 4315,
      "aim": 4316,
      "Ġsample": 4317,
      "inner": 4318,
      "Ġstrengths": 4319,
      "ĠTherefore": 4320,
      "Ġregions": 4321,
      "ox": 4322,
      "Ġfees": 4323,
      "Ġoven": 4324,
      "ĠNot": 4325,
      "ying": 4326,
      "nal": 4327,
      "acci": 4328,
      "Ġreason": 4329,
      "Ġrap": 4330,
      "Ġpowder": 4331,
      "Ġlabor": 4332,
      "Ġmanip": 4333,
      "fu": 4334,
      "ĠAct": 4335,
      "ĠÐ": 4336,
      "Ġdynamic": 4337,
      "ĠPlan": 4338,
      "onacci": 4339,
      "espite": 4340,
      "ĠBased": 4341,
      "ID": 4342,
      "Do": 4343,
      "ibonacci": 4344,
      "ipped": 4345,
      "Ġexperienced": 4346,
      "ĠSE": 4347,
      "etry": 4348,
      "ĠGood": 4349,
      "Ġlargest": 4350,
      "Ġretrie": 4351,
      "Ġstored": 4352,
      "Ġopp": 4353,
      "Ġbell": 4354,
      "Ġadvoc": 4355,
      "Ġcooked": 4356,
      "Ġvision": 4357,
      "Ġexchange": 4358,
      "Ġrein": 4359,
      "Ġpartner": 4360,
      "Ġappear": 4361,
      "Ġspaces": 4362,
      "ached": 4363,
      "Ġattacks": 4364,
      "Ġoffice": 4365,
      "Ġinternet": 4366,
      "Ġsizes": 4367,
      "raid": 4368,
      "Ġselection": 4369,
      "Ġlooks": 4370,
      "Ġchecks": 4371,
      "ĠMuse": 4372,
      "idden": 4373,
      "ouble": 4374,
      "Ġsalad": 4375,
      "You": 4376,
      "Ġreligious": 4377,
      "ĠDespite": 4378,
      "NN": 4379,
      "Ġpand": 4380,
      "udd": 4381,
      "Ġspend": 4382,
      "ĠGovern": 4383,
      "Ġincluded": 4384,
      "atively": 4385,
      "Ġinfluenced": 4386,
      "hetic": 4387,
      "Ġobstacles": 4388,
      "Ġarguments": 4389,
      "Ġtal": 4390,
      "Ġgreenhouse": 4391,
      "Ġbinary": 4392,
      "point": 4393,
      "ĠFibonacci": 4394,
      "itary": 4395,
      "ault": 4396,
      "Ġtalk": 4397,
      "ĠPer": 4398,
      "Ġteachers": 4399,
      "Ġafraid": 4400,
      "pty": 4401,
      "ww": 4402,
      "ĠMar": 4403,
      "Ġphotos": 4404,
      "Ġsnacks": 4405,
      "Ġsettings": 4406,
      "bal": 4407,
      "Ġscheme": 4408,
      "Ġtea": 4409,
      "ĠBefore": 4410,
      "Ġfamilies": 4411,
      "inated": 4412,
      "Ġkeeping": 4413,
      "Ġ18": 4414,
      "ĠOther": 4415,
      "asters": 4416,
      "Ġenter": 4417,
      "ĠFacebook": 4418,
      "ĠCollabor": 4419,
      "erts": 4420,
      "Ġinquir": 4421,
      "vere": 4422,
      "iration": 4423,
      "orus": 4424,
      "Ġautonomous": 4425,
      "Ġattractions": 4426,
      "Ġarticles": 4427,
      "ĠEl": 4428,
      "()": 4429,
      "Ġbreakfast": 4430,
      "Ġstop": 4431,
      "Ġnovel": 4432,
      "Ġvibr": 4433,
      "Ġnod": 4434,
      "Ġcommand": 4435,
      "Ġreduced": 4436,
      "Ġdestinations": 4437,
      "Ġcloud": 4438,
      "agram": 4439,
      "oist": 4440,
      "Ġbroad": 4441,
      "Ġinfect": 4442,
      "iance": 4443,
      "Ġhalf": 4444,
      "Ġcontem": 4445,
      "Ġdecre": 4446,
      "Ġhon": 4447,
      "Ġvegetarian": 4448,
      "ght": 4449,
      "Ġblend": 4450,
      "Ġcasual": 4451,
      "othes": 4452,
      "ĠPat": 4453,
      "Ġconvert": 4454,
      "Ġcausing": 4455,
      "Ġsurrounding": 4456,
      "Ġconflicts": 4457,
      "ĠNe": 4458,
      "Ġdatasets": 4459,
      "IT": 4460,
      "Ġpush": 4461,
      "ĠParis": 4462,
      "Ġcompared": 4463,
      "ĠThen": 4464,
      "ĠBar": 4465,
      "Ġsoph": 4466,
      "Ġmarkets": 4467,
      "ĠTheir": 4468,
      "30": 4469,
      "Ġensures": 4470,
      "Ġinvent": 4471,
      "ĠMod": 4472,
      "Ġsuccessfully": 4473,
      "Ġlibraries": 4474,
      "ĠBuild": 4475,
      "Ġtraditions": 4476,
      "ugg": 4477,
      "Ġfacial": 4478,
      "Ġupon": 4479,
      "race": 4480,
      "Ġneck": 4481,
      "Ġintegration": 4482,
      "cision": 4483,
      "Ġestate": 4484,
      "rong": 4485,
      "Ġconcern": 4486,
      "Ġwalking": 4487,
      "Ġminimum": 4488,
      "ĠFrench": 4489,
      "Ġjewel": 4490,
      "Ġconnected": 4491,
      "irr": 4492,
      "Ġeither": 4493,
      "ĠGl": 4494,
      "Ġinclusive": 4495,
      "Ġexpensive": 4496,
      "pped": 4497,
      "Ġmember": 4498,
      "Ġenable": 4499,
      "Ġcontrast": 4500,
      "Ġdiscount": 4501,
      "Ġexpectations": 4502,
      "roll": 4503,
      "Ġchecking": 4504,
      "Ġconven": 4505,
      "Ġasset": 4506,
      "con": 4507,
      "Ġneighbor": 4508,
      "Ġadventure": 4509,
      "Ġnational": 4510,
      "ma": 4511,
      "Ġaudio": 4512,
      "Ġunsu": 4513,
      "Ġscientific": 4514,
      "Ġflexibility": 4515,
      "ĠWest": 4516,
      "Ġlistening": 4517,
      "Ġhash": 4518,
      "Ġconfident": 4519,
      "Ġconcepts": 4520,
      "Ġcentury": 4521,
      "Ġroll": 4522,
      "Ġexhib": 4523,
      "Ġsliced": 4524,
      "Ġexciting": 4525,
      "Ġclin": 4526,
      "ocolate": 4527,
      "Ġrelaxation": 4528,
      "Ġvisually": 4529,
      "cles": 4530,
      "Ġflav": 4531,
      "Ġadvertising": 4532,
      "Ġmusical": 4533,
      "Ġcatch": 4534,
      "Ġsentence": 4535,
      "Ġtruly": 4536,
      "Ġstruggling": 4537,
      "Ġentertainment": 4538,
      "Ġanyone": 4539,
      "plement": 4540,
      "forest": 4541,
      "Ġschools": 4542,
      "asons": 4543,
      "ĠVe": 4544,
      "ĠNote": 4545,
      "ĠSw": 4546,
      "Ġpresence": 4547,
      "Ġstack": 4548,
      "Ġsimpl": 4549,
      "Ġstandard": 4550,
      "Ġincred": 4551,
      "Ġcommitted": 4552,
      "Ġsea": 4553,
      "Ġhotel": 4554,
      "Ġbrows": 4555,
      "ĠBusiness": 4556,
      "Ġthrow": 4557,
      "Ġconsiderations": 4558,
      "Ġhous": 4559,
      "Ġengaged": 4560,
      "Ġroad": 4561,
      "Ġvitam": 4562,
      "Ġcompletely": 4563,
      "Ġconstruction": 4564,
      "rays": 4565,
      "Ġstri": 4566,
      "Ġrequests": 4567,
      "Ġbeans": 4568,
      "eless": 4569,
      "Ġvolunte": 4570,
      "Ġpict": 4571,
      "ompl": 4572,
      "Ġtomatoes": 4573,
      "Ġtook": 4574,
      "Ġwine": 4575,
      "ä¸": 4576,
      "Ġemails": 4577,
      "ĠOp": 4578,
      "Ġempty": 4579,
      "Ġraise": 4580,
      "wise": 4581,
      "Ġproced": 4582,
      "Ġsaving": 4583,
      "Ġintegers": 4584,
      "ĠUlt": 4585,
      "Ġrhy": 4586,
      "working": 4587,
      "Ġlimitations": 4588,
      "ĠGener": 4589,
      "Ġquant": 4590,
      "Ġheld": 4591,
      "Ġcomponents": 4592,
      "Ġmission": 4593,
      "ifying": 4594,
      "Ġcoding": 4595,
      "Ġeleg": 4596,
      "Ġinstitutions": 4597,
      "Ġroles": 4598,
      "atile": 4599,
      "Ġdow": 4600,
      "Ġtextures": 4601,
      "Ġahead": 4602,
      "Ġintegrate": 4603,
      "Ġcollaborate": 4604,
      "Ġreports": 4605,
      "Ġrevolutionize": 4606,
      "Ġboundaries": 4607,
      "Ġë": 4608,
      "Ġtow": 4609,
      "Ġparameters": 4610,
      "Ġremov": 4611,
      "Ġdisabilities": 4612,
      "resp": 4613,
      "eth": 4614,
      "iar": 4615,
      "Ġaccompl": 4616,
      "Ġchanged": 4617,
      "Ġarrays": 4618,
      "Ġbaking": 4619,
      "Ġ100": 4620,
      "Ġdepression": 4621,
      "oster": 4622,
      "Ġencryption": 4623,
      "ica": 4624,
      "ĠJack": 4625,
      "Ġtried": 4626,
      "Ġspr": 4627,
      "igen": 4628,
      "ĠImpro": 4629,
      "ĠEnglish": 4630,
      "ĠEnsure": 4631,
      "ĠPol": 4632,
      "known": 4633,
      "Ġbreathing": 4634,
      "Ġboost": 4635,
      "15": 4636,
      "Ġpackage": 4637,
      "more": 4638,
      "ield": 4639,
      "Ġcat": 4640,
      "rought": 4641,
      "Ġexplan": 4642,
      "**": 4643,
      "ha": 4644,
      "Ġbul": 4645,
      "Ġcrow": 4646,
      "agon": 4647,
      "Ġworkouts": 4648,
      "Ġhol": 4649,
      "ĠIncre": 4650,
      "Ġutil": 4651,
      "efficient": 4652,
      "Ġrepair": 4653,
      "Ġcalories": 4654,
      "Ġcovers": 4655,
      "Ġstick": 4656,
      "ellow": 4657,
      "raft": 4658,
      "Ġvill": 4659,
      "sem": 4660,
      "Ġsky": 4661,
      "Ġcame": 4662,
      "Ġboard": 4663,
      "Ġremains": 4664,
      "Ġmentioned": 4665,
      "ĠUniversity": 4666,
      "Ġsurvey": 4667,
      "Ġspecifically": 4668,
      "Ġacademic": 4669,
      "rome": 4670,
      "alse": 4671,
      "ette": 4672,
      "ĠChatbots": 4673,
      "Ġpeppers": 4674,
      "umes": 4675,
      "Ġ**": 4676,
      "fl": 4677,
      "ĠGra": 4678,
      "ably": 4679,
      "Ġforeign": 4680,
      "Ġrely": 4681,
      "ios": 4682,
      "Ġoptimization": 4683,
      "Ġcrop": 4684,
      "Ġseeking": 4685,
      "Ġguests": 4686,
      "commerce": 4687,
      "Ġheard": 4688,
      "Ġsupporting": 4689,
      "Ġlater": 4690,
      "uration": 4691,
      "Ġregardless": 4692,
      "Ġath": 4693,
      "Ġly": 4694,
      "Ġwonder": 4695,
      "Wh": 4696,
      "Ġauthentication": 4697,
      "Ġcry": 4698,
      "agement": 4699,
      "Ġocean": 4700,
      "ĠAccess": 4701,
      "Ġshowcase": 4702,
      "Ġshel": 4703,
      "Ġtargeted": 4704,
      "Ġdeliver": 4705,
      "Ġurban": 4706,
      "Ġloyalty": 4707,
      "itage": 4708,
      "Ġprepared": 4709,
      "Ġengineering": 4710,
      "Ġisland": 4711,
      "irus": 4712,
      "Ġapproaches": 4713,
      "Ġscientists": 4714,
      "llo": 4715,
      "Ġgeneration": 4716,
      "Ġjewelry": 4717,
      "Ġcouldn": 4718,
      "erge": 4719,
      "driven": 4720,
      "ĠEnergy": 4721,
      "itate": 4722,
      "Ġpurposes": 4723,
      "ĠExpl": 4724,
      "Ġtransactions": 4725,
      "que": 4726,
      "Ġdeal": 4727,
      "Ġattack": 4728,
      "ĠIntern": 4729,
      "Ġmoving": 4730,
      "iors": 4731,
      "Ġreaders": 4732,
      "Ġwid": 4733,
      "Ġappoint": 4734,
      "Ġsyntax": 4735,
      "rounds": 4736,
      "Ġcauses": 4737,
      "Ġcleaning": 4738,
      "Ġmixed": 4739,
      "ĠChrist": 4740,
      "Ġarticle": 4741,
      "ĠNo": 4742,
      "ĠEst": 4743,
      "Ġcontract": 4744,
      "Ġfloor": 4745,
      "Ġperpet": 4746,
      "Ġesc": 4747,
      "Ġserving": 4748,
      "ĠWar": 4749,
      "Ġtu": 4750,
      "ask": 4751,
      "Ġcompetitive": 4752,
      "ogue": 4753,
      "oe": 4754,
      "Ġwealth": 4755,
      "ĠMuseum": 4756,
      "Ġdeg": 4757,
      "Ġseems": 4758,
      "Ġalone": 4759,
      "Ġconcise": 4760,
      "Ġdepart": 4761,
      "Ġavailability": 4762,
      "ĠSouth": 4763,
      "Ġonion": 4764,
      "Ġhar": 4765,
      "Ġloved": 4766,
      "irl": 4767,
      "Ġ}": 4768,
      "ognitive": 4769,
      "Ġpsych": 4770,
      "Ġreact": 4771,
      "odies": 4772,
      "Ġcapable": 4773,
      "Ġdog": 4774,
      "ĠGet": 4775,
      "uts": 4776,
      "Ġclos": 4777,
      "Ġartist": 4778,
      "Ġhosp": 4779,
      "Ġuns": 4780,
      "aming": 4781,
      "ĠTechnology": 4782,
      "Ġsorry": 4783,
      "Ġpu": 4784,
      "Ġhandling": 4785,
      "Ġpassed": 4786,
      "amm": 4787,
      "Ġappreciate": 4788,
      "Ġinstruments": 4789,
      "Ġready": 4790,
      "Ġcells": 4791,
      "Ġunsupervised": 4792,
      "12": 4793,
      "ivals": 4794,
      "Ġmal": 4795,
      "çļ": 4796,
      "Ġskill": 4797,
      "ĠUltimately": 4798,
      "otton": 4799,
      "Ġgiving": 4800,
      "ĠRen": 4801,
      "Ġdistractions": 4802,
      "ĠMore": 4803,
      "icy": 4804,
      "ĠRoth": 4805,
      "Ġglass": 4806,
      "Ġcit": 4807,
      "ĠAtt": 4808,
      "Ġtutorials": 4809,
      "Ġtaxes": 4810,
      "Ġobjectives": 4811,
      "çļĦ": 4812,
      "Ġmuseum": 4813,
      "Ġdiscovery": 4814,
      "Ġrow": 4815,
      "Ġcompetition": 4816,
      "ams": 4817,
      "Ġpasta": 4818,
      "Ġcontemporary": 4819,
      "Ġitem": 4820,
      "Ġmenu": 4821,
      "Ġgarden": 4822,
      "Ġsusp": 4823,
      "Ġsignificance": 4824,
      "eper": 4825,
      "ided": 4826,
      "ĠAfrican": 4827,
      "Ġjud": 4828,
      "ĠCSS": 4829,
      "reme": 4830,
      "ĠAir": 4831,
      "down": 4832,
      "Ġjuice": 4833,
      "Ġnegot": 4834,
      "Ġlayers": 4835,
      "bre": 4836,
      "ĠExam": 4837,
      "Ġquinoa": 4838,
      "Ġtend": 4839,
      "Ġelectronic": 4840,
      "Ġkeywords": 4841,
      "Ġmovies": 4842,
      "used": 4843,
      "Ġharmful": 4844,
      "Ġmatching": 4845,
      "Ġnames": 4846,
      "ĠJO": 4847,
      "Ġexposure": 4848,
      "Ġwent": 4849,
      "?\"": 4850,
      "Ġgenerating": 4851,
      "Ġimmers": 4852,
      "Ġschedul": 4853,
      "acing": 4854,
      "antic": 4855,
      "Ġfestival": 4856,
      "Ġcolorful": 4857,
      "endar": 4858,
      "ĠMicro": 4859,
      "Ġlabeled": 4860,
      "Ġ40": 4861,
      "Ġfollows": 4862,
      "Ġrobotics": 4863,
      "Ġsell": 4864,
      "Ġconstruct": 4865,
      "Ġfunding": 4866,
      "Ġserved": 4867,
      "Ġcommitment": 4868,
      "Ġdisasters": 4869,
      "Ġsuit": 4870,
      "Ġconsumers": 4871,
      "Ġdistribution": 4872,
      "Ġperforming": 4873,
      "eration": 4874,
      "ST": 4875,
      "Ġworksh": 4876,
      "ĠNatural": 4877,
      "Ġbutton": 4878,
      "iff": 4879,
      "rooms": 4880,
      "Â°": 4881,
      "ini": 4882,
      "Ġminimalist": 4883,
      "Ġguided": 4884,
      "Ð¾": 4885,
      "Ġfilled": 4886,
      "ĠCO": 4887,
      "Ġpracticing": 4888,
      "azz": 4889,
      "Ġcomposition": 4890,
      "ĠAc": 4891,
      "Ġmedication": 4892,
      "Ġkne": 4893,
      "Ġprovider": 4894,
      "Ġpandemic": 4895,
      "erries": 4896,
      "Ġenvironments": 4897,
      "ĠExper": 4898,
      "ula": 4899,
      "weight": 4900,
      "Ġhoney": 4901,
      "Ġdeadlines": 4902,
      "anguage": 4903,
      "Ġreward": 4904,
      "Ġcalm": 4905,
      "Ġrepresentative": 4906,
      "Ġvisiting": 4907,
      "eline": 4908,
      "rs": 4909,
      "biased": 4910,
      "Ġbox": 4911,
      "ĠEarth": 4912,
      "Ġpages": 4913,
      "Ġchemical": 4914,
      "Ġcorrectly": 4915,
      "Ġparticipate": 4916,
      "itter": 4917,
      "Ġflavors": 4918,
      "Ġgradually": 4919,
      "ĠIndia": 4920,
      "icip": 4921,
      "Ġlandscape": 4922,
      "Ġparties": 4923,
      "Ġlate": 4924,
      "ĠSl": 4925,
      "Ġtranslation": 4926,
      "Ġfocuses": 4927,
      "ĠRet": 4928,
      "Ġselecting": 4929,
      "ball": 4930,
      "Ġunbiased": 4931,
      "pper": 4932,
      "ube": 4933,
      "Ġrace": 4934,
      "NA": 4935,
      "rief": 4936,
      "Ġconver": 4937,
      "ĠEducation": 4938,
      "Ġowners": 4939,
      "Ġrelease": 4940,
      "ĠDis": 4941,
      "Ġcomponent": 4942,
      "ĠJust": 4943,
      "Ġforecast": 4944,
      "Ġhidden": 4945,
      "Ġteas": 4946,
      "Ġattribut": 4947,
      "Ġlights": 4948,
      "Ġseconds": 4949,
      "Ġmilitary": 4950,
      "Ġcarry": 4951,
      "clude": 4952,
      "Ġfrequently": 4953,
      "Ġstaff": 4954,
      "Ġtransition": 4955,
      "Ġstarts": 4956,
      "Ġdeath": 4957,
      "Ġfunctionality": 4958,
      "inter": 4959,
      "oun": 4960,
      "Ġetc": 4961,
      "ĠETF": 4962,
      "Ġconnections": 4963,
      "Ġmark": 4964,
      "Ġmedicine": 4965,
      "ĠSupport": 4966,
      "Ġflo": 4967,
      "Ġwithd": 4968,
      "ĠJapanese": 4969,
      "gen": 4970,
      "Ġsuppl": 4971,
      "Ġtours": 4972,
      "Ġinequality": 4973,
      "ĠImplement": 4974,
      "Ġframework": 4975,
      "Ġfabric": 4976,
      "Ġlux": 4977,
      "Ġneighborhood": 4978,
      "Ġavocado": 4979,
      "Ġclothes": 4980,
      "Ġrestrict": 4981,
      "Ġcollected": 4982,
      "\\_\\_": 4983,
      "://": 4984,
      "where": 4985,
      "Ġpen": 4986,
      "Ġcombine": 4987,
      "ìĿ": 4988,
      "ĠDef": 4989,
      "Ġperpetu": 4990,
      "Ġbag": 4991,
      "mission": 4992,
      "Ġwait": 4993,
      "Ġnumerous": 4994,
      "Ġparents": 4995,
      "ĠDec": 4996,
      "Ġden": 4997,
      "Ġfunctional": 4998,
      "Ġfacing": 4999,
      "igenous": 5000,
      "Ġtourism": 5001,
      "Ġlapt": 5002,
      "Ġvibrant": 5003,
      "Ġpercent": 5004,
      "nderstand": 5005,
      "related": 5006,
      "Ġmemor": 5007,
      "Ġsurface": 5008,
      "ĠCost": 5009,
      "att": 5010,
      "Ġbeginners": 5011,
      "ublic": 5012,
      "Ġspot": 5013,
      "Ġprotected": 5014,
      "Ġmid": 5015,
      "AR": 5016,
      "Ġinfl": 5017,
      "Ġ200": 5018,
      "Ġfascinating": 5019,
      "Ġletter": 5020,
      "Ġachieved": 5021,
      "ĠLily": 5022,
      "vis": 5023,
      "Ġvacation": 5024,
      "Ġsessions": 5025,
      "Ġfive": 5026,
      "Ġnotes": 5027,
      "Ġclut": 5028,
      "Ġelectricity": 5029,
      "Ġsongs": 5030,
      "Ġflu": 5031,
      "soft": 5032,
      "Ġinquiries": 5033,
      "Ġkit": 5034,
      "Ġsquare": 5035,
      "unction": 5036,
      "Ġcoming": 5037,
      "ĠDuring": 5038,
      "ĠInstagram": 5039,
      "Ġcolleag": 5040,
      "dom": 5041,
      "Ġleads": 5042,
      "Ġbudgeting": 5043,
      "Ġforget": 5044,
      "Ġspecified": 5045,
      "Ġpredictive": 5046,
      "Ġque": 5047,
      "inger": 5048,
      "Ġteach": 5049,
      "Ġdisp": 5050,
      "Ġcotton": 5051,
      "asting": 5052,
      "Ġhomes": 5053,
      "Ġcomputing": 5054,
      "Ġdedicated": 5055,
      "Ġgro": 5056,
      "Ġinspired": 5057,
      "step": 5058,
      "Ġwrong": 5059,
      "umps": 5060,
      "ys": 5061,
      "Ġpopulations": 5062,
      "Ġforce": 5063,
      "Ġcorresp": 5064,
      "Ġmeaningful": 5065,
      "Ġpet": 5066,
      "ĠFind": 5067,
      "Ġevolve": 5068,
      "Ġrecycled": 5069,
      "Ġproductive": 5070,
      "Ġbarri": 5071,
      "water": 5072,
      "ceed": 5073,
      "Ġnodes": 5074,
      "Ġcraft": 5075,
      "eks": 5076,
      "Ġassets": 5077,
      "Ġsociet": 5078,
      "illet": 5079,
      "Ġfocusing": 5080,
      "agers": 5081,
      "Ġpricing": 5082,
      "Ġscal": 5083,
      "Ġsector": 5084,
      "Ġgram": 5085,
      "Ġclick": 5086,
      "Ġinspire": 5087,
      "oman": 5088,
      "Ġspeaking": 5089,
      "ographic": 5090,
      "Ġrepe": 5091,
      "Ġcoc": 5092,
      "Ġroasted": 5093,
      "Ġbattery": 5094,
      "such": 5095,
      "ĠJOIN": 5096,
      "Ġcontroll": 5097,
      "Ġnoise": 5098,
      "anies": 5099,
      "col": 5100,
      "Ġheavy": 5101,
      "Ġfestivals": 5102,
      "Ġcopy": 5103,
      "Ġchocolate": 5104,
      "Ġmiddle": 5105,
      "Ġstronger": 5106,
      "ĠPredict": 5107,
      "ĠChorus": 5108,
      "Ġrug": 5109,
      "Ġluck": 5110,
      "Ġgoods": 5111,
      "erving": 5112,
      "Ġdefined": 5113,
      "ĠName": 5114,
      "Ġautomated": 5115,
      "solving": 5116,
      "Ġvegetable": 5117,
      "Ġcapital": 5118,
      "ought": 5119,
      "imal": 5120,
      "Ġball": 5121,
      "js": 5122,
      "placement": 5123,
      "Ġrelie": 5124,
      "assion": 5125,
      "kyo": 5126,
      "Ġclassification": 5127,
      "Ġdeeper": 5128,
      "itute": 5129,
      "Ġ11": 5130,
      "Ġnormal": 5131,
      "ĠEv": 5132,
      ");": 5133,
      "Ġdisaster": 5134,
      "Ġwalls": 5135,
      "Ġmakeup": 5136,
      "ĠServe": 5137,
      "Ġreceived": 5138,
      "ĠSort": 5139,
      "Ġlocations": 5140,
      "Ġmillion": 5141,
      "ĠThrough": 5142,
      "Ġhoriz": 5143,
      "Ġthick": 5144,
      "uit": 5145,
      "Ġspiritual": 5146,
      "Ġscul": 5147,
      "Ġsculpt": 5148,
      "Ġliterature": 5149,
      "Ġfalse": 5150,
      "Ġcards": 5151,
      "Ġmatches": 5152,
      "process": 5153,
      "Ġer": 5154,
      "Ġbeginning": 5155,
      "Ġsometimes": 5156,
      "ĠLanguage": 5157,
      "Ġlyrics": 5158,
      "Ġrapid": 5159,
      "Ġonto": 5160,
      "Ġalmond": 5161,
      "oke": 5162,
      "Ġpassion": 5163,
      "Ġmusicians": 5164,
      "Ġcustomized": 5165,
      "Ġ25": 5166,
      "Ġskillet": 5167,
      "ĠAust": 5168,
      "Ġang": 5169,
      "Ġcoord": 5170,
      "ffective": 5171,
      "ĠBreak": 5172,
      "Ġpun": 5173,
      "Ġvegg": 5174,
      "Ġbeneficial": 5175,
      "Ġinspiration": 5176,
      "ĠGreat": 5177,
      "Ġcognitive": 5178,
      "Ġgrains": 5179,
      "Ġmarine": 5180,
      "Ġbackgrounds": 5181,
      "ĠOpen": 5182,
      "Ġdim": 5183,
      "Ġurg": 5184,
      "Ġfollowed": 5185,
      "eral": 5186,
      "Ġadjustments": 5187,
      "gener": 5188,
      "Ġaccomplish": 5189,
      "Ġcold": 5190,
      "Ġorganize": 5191,
      "Ġchart": 5192,
      "do": 5193,
      "ĠHis": 5194,
      "Ġstruggle": 5195,
      "Ġclust": 5196,
      "ĠIncorporate": 5197,
      "Ġspl": 5198,
      "rots": 5199,
      "ĠBi": 5200,
      "ĠOrgan": 5201,
      "Ġspices": 5202,
      "Ġresilience": 5203,
      "íķ": 5204,
      "Ġrom": 5205,
      "Ġphrases": 5206,
      "Ġfrequency": 5207,
      "Ġclim": 5208,
      "ecurity": 5209,
      "Ġcoll": 5210,
      "ĠGovernments": 5211,
      "Ġbelieved": 5212,
      "ĠDay": 5213,
      "Ġrewards": 5214,
      "ront": 5215,
      "ero": 5216,
      "Ġcrops": 5217,
      "ĠApple": 5218,
      "Ġwithdraw": 5219,
      "Ġshipping": 5220,
      "verty": 5221,
      "Ġvict": 5222,
      "Ġappealing": 5223,
      "reg": 5224,
      "Ġpoverty": 5225,
      "Ġherself": 5226,
      "Ġinsurance": 5227,
      "Ġscale": 5228,
      "Ġtransfer": 5229,
      "ttps": 5230,
      "Ġemotion": 5231,
      "Ġpoetry": 5232,
      "Ġaccessibility": 5233,
      "ĠCook": 5234,
      "Ġdangerous": 5235,
      "Ġgot": 5236,
      "Ġparameter": 5237,
      "exic": 5238,
      "empt": 5239,
      "Ġswim": 5240,
      "Ġincentives": 5241,
      "Ġversatile": 5242,
      "Ġillustr": 5243,
      "Ġrepet": 5244,
      "Ġwanted": 5245,
      "ĠPay": 5246,
      "Ġhydr": 5247,
      "Ġexpressions": 5248,
      "ĠIntellig": 5249,
      "Ġethically": 5250,
      "ĠBlack": 5251,
      "Ġsites": 5252,
      "Ġteaching": 5253,
      "Ġdiagnoses": 5254,
      "Ġmessaging": 5255,
      "Ġdialogue": 5256,
      "Ġleadership": 5257,
      "hydr": 5258,
      "ison": 5259,
      "ĠProg": 5260,
      "ĠMind": 5261,
      "Ġmeets": 5262,
      "Ġberries": 5263,
      "iences": 5264,
      "Ġslight": 5265,
      "Ġmyself": 5266,
      "Ġbill": 5267,
      "ĠDep": 5268,
      "Ġtests": 5269,
      "rix": 5270,
      "Ġprotecting": 5271,
      "Ġconfidence": 5272,
      "Ġestablished": 5273,
      "eli": 5274,
      "Ġwoman": 5275,
      "erved": 5276,
      "Ġframeworks": 5277,
      "ĠEth": 5278,
      "Ġspin": 5279,
      "ĠTV": 5280,
      "Ġdoctor": 5281,
      "Ġreduction": 5282,
      "Ġfulf": 5283,
      "Ġdiction": 5284,
      "Ġecosystems": 5285,
      "Ġstraight": 5286,
      "ĠCompanies": 5287,
      "Ġheavily": 5288,
      "Ġfem": 5289,
      "active": 5290,
      "cel": 5291,
      "Ġinventory": 5292,
      "Ġisol": 5293,
      "ĠVirtual": 5294,
      "Ġpoor": 5295,
      "Ġshapes": 5296,
      "Ġwel": 5297,
      "Ġtempl": 5298,
      "Ġcreatures": 5299,
      "arily": 5300,
      "Ġexplores": 5301,
      "oli": 5302,
      "Ġoptimizing": 5303,
      "Ġconstantly": 5304,
      "Ġengines": 5305,
      "ĠPrior": 5306,
      "Ġarise": 5307,
      "Ġgenerations": 5308,
      "De": 5309,
      "bersecurity": 5310,
      "Ġexploration": 5311,
      "Ġdocuments": 5312,
      "rene": 5313,
      "Ġbrought": 5314,
      "Ġrecovery": 5315,
      "Ġlemon": 5316,
      "Ġavoiding": 5317,
      "ĠEd": 5318,
      "Ġdifficulty": 5319,
      "Ġrecursive": 5320,
      "illa": 5321,
      "Ġrule": 5322,
      "encers": 5323,
      "Ġimpacted": 5324,
      "Ġplays": 5325,
      "Ġpaid": 5326,
      "Ġinjury": 5327,
      "Ġlean": 5328,
      "Ġenabling": 5329,
      "ĠCle": 5330,
      "stract": 5331,
      "Ġjoy": 5332,
      "ĠSk": 5333,
      "ĠMet": 5334,
      "ãĢ": 5335,
      "afood": 5336,
      "ĠProm": 5337,
      "Ġmodule": 5338,
      "ĠMicrosoft": 5339,
      "Ġshift": 5340,
      "Ġexperiencing": 5341,
      "acity": 5342,
      "Ġimmediately": 5343,
      "Ġhun": 5344,
      "Ġsupervised": 5345,
      "ĠLa": 5346,
      "ymakers": 5347,
      "Ġidentified": 5348,
      "Ġobtain": 5349,
      "chain": 5350,
      "Ġtofu": 5351,
      "60": 5352,
      "Ġice": 5353,
      "Ġaddressed": 5354,
      "Ġbehaviors": 5355,
      "Ġtag": 5356,
      "Ġflour": 5357,
      "Ġpowers": 5358,
      "isticated": 5359,
      "Ġcandidates": 5360,
      "Ġprocessed": 5361,
      "Ġlaunch": 5362,
      "inct": 5363,
      "Ġrefers": 5364,
      "Ġ24": 5365,
      "ĠMexic": 5366,
      "ishing": 5367,
      "Ġbreaking": 5368,
      "Ġdess": 5369,
      "Ġrecycling": 5370,
      "ĠInstructions": 5371,
      "Ġstates": 5372,
      "formation": 5373,
      "ĠTokyo": 5374,
      "Ġherbs": 5375,
      "Ġmorning": 5376,
      "Ġsoup": 5377,
      "bit": 5378,
      "atitude": 5379,
      "Ġdu": 5380,
      "Ġprecision": 5381,
      "Ġsophisticated": 5382,
      "onduct": 5383,
      "Ġbeaches": 5384,
      "ĠDesign": 5385,
      "Ġreb": 5386,
      "Ġsupports": 5387,
      "ternal": 5388,
      "hest": 5389,
      "Ġinteraction": 5390,
      "Ġuniverse": 5391,
      "ĠPredictive": 5392,
      "enn": 5393,
      "ĠGe": 5394,
      "Ġchance": 5395,
      "Ġvehicle": 5396,
      "Ġrepresentation": 5397,
      "Ġwal": 5398,
      "Ġtele": 5399,
      "Ġcorrespond": 5400,
      "ception": 5401,
      "ĠTrello": 5402,
      "Ġrecursion": 5403,
      "iled": 5404,
      "ĠDeep": 5405,
      "urable": 5406,
      "NLP": 5407,
      "ira": 5408,
      "Ġiterate": 5409,
      "Ġtension": 5410,
      "ĠCreat": 5411,
      "Ġstatements": 5412,
      "eling": 5413,
      "ĠHar": 5414,
      "ĠLim": 5415,
      "Ġathlet": 5416,
      "uten": 5417,
      "chen": 5418,
      "Ġwat": 5419,
      "Ġbuying": 5420,
      "Ġmanufacture": 5421,
      "Ġlogo": 5422,
      "Ġdisplacement": 5423,
      "Ġtech": 5424,
      "Ġcere": 5425,
      "Ġallocation": 5426,
      "arge": 5427,
      "Ġreminders": 5428,
      "Ġexecuted": 5429,
      "Ġregist": 5430,
      "orms": 5431,
      "oves": 5432,
      "Ġcompleted": 5433,
      "ustain": 5434,
      "Ġmuscles": 5435,
      "Ġheritage": 5436,
      "ĠJo": 5437,
      "Ġinviting": 5438,
      "Ġcoun": 5439,
      "part": 5440,
      "ĠHealthcare": 5441,
      "Ġideal": 5442,
      "Ġcomments": 5443,
      "Ġelim": 5444,
      "Ġaccommodations": 5445,
      "Ġmelody": 5446,
      "Ġdiced": 5447,
      "Ġchronic": 5448,
      "reprene": 5449,
      "kay": 5450,
      "marks": 5451,
      "Ġrooms": 5452,
      "Ġtrails": 5453,
      "Ġreson": 5454,
      "ĠList": 5455,
      "Ġfinally": 5456,
      "Ġbike": 5457,
      "Ġactually": 5458,
      "Ġtechnological": 5459,
      "abet": 5460,
      "Ġwider": 5461,
      "Ġrhyth": 5462,
      "ications": 5463,
      "Ġcore": 5464,
      "fitting": 5465,
      "Ġtrig": 5466,
      "ĠSan": 5467,
      "ĠVal": 5468,
      "cking": 5469,
      "ĠState": 5470,
      "gy": 5471,
      "writ": 5472,
      "Ġfigure": 5473,
      "ĠMin": 5474,
      "rain": 5475,
      "Ġstage": 5476,
      "Comp": 5477,
      "mus": 5478,
      "ĠWater": 5479,
      "Ġbank": 5480,
      "Ġmanaged": 5481,
      "Ġcamera": 5482,
      "ĠAutom": 5483,
      "ĠSimilar": 5484,
      "ĠIng": 5485,
      "Ġcups": 5486,
      "Ġexact": 5487,
      "Ġpredicting": 5488,
      "Ġweap": 5489,
      "asure": 5490,
      "ĠDeterm": 5491,
      "Ġadvantages": 5492,
      "ĠSur": 5493,
      "Ġsnipp": 5494,
      "Ġgoes": 5495,
      "orough": 5496,
      "Ġiconic": 5497,
      "Ġil": 5498,
      "estic": 5499,
      "Ġdiscovered": 5500,
      "Ġkn": 5501,
      "wh": 5502,
      "Ġsevere": 5503,
      "Ġstable": 5504,
      "Ġpool": 5505,
      "Ġoperation": 5506,
      "Ġcharacteristics": 5507,
      "Ġarm": 5508,
      "Ġdesigning": 5509,
      "Ġweeks": 5510,
      "Ġinsert": 5511,
      "Ġspent": 5512,
      "Ġclause": 5513,
      "ĠEmily": 5514,
      "ints": 5515,
      "Ġpod": 5516,
      "ĠSee": 5517,
      "anch": 5518,
      "Ġoffic": 5519,
      "ĠWill": 5520,
      "Ġfabrics": 5521,
      "ounds": 5522,
      "ection": 5523,
      "Ġorders": 5524,
      "Ġdinner": 5525,
      "Ġearth": 5526,
      "ĠLink": 5527,
      "ĠEnjoy": 5528,
      "off": 5529,
      "Ġfarming": 5530,
      "Ġnarr": 5531,
      "Ġdrink": 5532,
      "Ġinputs": 5533,
      "ij": 5534,
      "fits": 5535,
      "ĠCustomer": 5536,
      "ka": 5537,
      "Ġchair": 5538,
      "Ġresistance": 5539,
      "Ġseafood": 5540,
      "Ġconversations": 5541,
      "rings": 5542,
      "Ġcustomize": 5543,
      "Ġserves": 5544,
      "Ġretrieve": 5545,
      "string": 5546,
      "Ġelegant": 5547,
      "Ġclaim": 5548,
      "Ġinner": 5549,
      "onut": 5550,
      "Ġintric": 5551,
      "ĠTime": 5552,
      "ĠPersonalized": 5553,
      "Ġextreme": 5554,
      "umber": 5555,
      "Ġperformances": 5556,
      "ĠFurther": 5557,
      "Ġaligns": 5558,
      "ĠAmerica": 5559,
      "Ġreasons": 5560,
      "Ġauthentic": 5561,
      "Ġjournal": 5562,
      "Ġclinical": 5563,
      "Ð°": 5564,
      "icking": 5565,
      "Ġ202": 5566,
      "clusive": 5567,
      "Ġreflects": 5568,
      "Ġnetworking": 5569,
      "Ġworkshops": 5570,
      "vable": 5571,
      "Ġcash": 5572,
      "Ġlessons": 5573,
      "Ġveggies": 5574,
      "Ġprocedures": 5575,
      "Ġswitch": 5576,
      "Int": 5577,
      "Ġcomparis": 5578,
      "Ġpeaceful": 5579,
      "Ġnutrient": 5580,
      "Ġgenerates": 5581,
      "Ġtrail": 5582,
      "Ġstability": 5583,
      "SON": 5584,
      "Ġsold": 5585,
      "Ġpars": 5586,
      "tail": 5587,
      "Ġflat": 5588,
      "ype": 5589,
      "Ġcoast": 5590,
      "Ġfriendly": 5591,
      "Ġcolleagues": 5592,
      "intage": 5593,
      "Ġexcess": 5594,
      "Ġagent": 5595,
      "Ġdram": 5596,
      "eras": 5597,
      "Ġportion": 5598,
      "Ġtender": 5599,
      "UT": 5600,
      "ĠAng": 5601,
      "anges": 5602,
      "ĠStand": 5603,
      "Ġfits": 5604,
      "Ðµ": 5605,
      "Ġgenres": 5606,
      "ĠSmart": 5607,
      "Ġconfig": 5608,
      "Ġscheduling": 5609,
      "author": 5610,
      "Ġoccasion": 5611,
      "Ġcrim": 5612,
      "Ġbreast": 5613,
      "Ġteaspoon": 5614,
      "Ġdates": 5615,
      "ĠIngredients": 5616,
      "Ġconv": 5617,
      "Ġbond": 5618,
      "Ġshowc": 5619,
      "Ġilleg": 5620,
      "urch": 5621,
      "Ġdetermined": 5622,
      "ili": 5623,
      "Ġcircum": 5624,
      "mp": 5625,
      "Ġwinter": 5626,
      "nam": 5627,
      "Ġpotatoes": 5628,
      "alian": 5629,
      "Ġinfluencers": 5630,
      "Ġslightly": 5631,
      "Ġweaknesses": 5632,
      "ĠServ": 5633,
      "Ġfixed": 5634,
      "ĠGreen": 5635,
      "Ġthorough": 5636,
      "Ġdiagnose": 5637,
      "Ġhes": 5638,
      "Ġemployment": 5639,
      "Ġfine": 5640,
      "ĠEast": 5641,
      "Ġsac": 5642,
      "PS": 5643,
      "Ġjack": 5644,
      "Ġdrinks": 5645,
      "Ġinclusion": 5646,
      "ĠSystem": 5647,
      "Ġflowers": 5648,
      "ĠFe": 5649,
      "Ġimmersive": 5650,
      "ĠPriorit": 5651,
      "Ġvital": 5652,
      "amps": 5653,
      "Ġtheory": 5654,
      "Ġintake": 5655,
      "Ġnearby": 5656,
      "Ġroutes": 5657,
      "Ġphil": 5658,
      "Ġgrocer": 5659,
      "ĠPlay": 5660,
      "Ġfeels": 5661,
      "Ġaid": 5662,
      "rig": 5663,
      "osition": 5664,
      "Ġconvenient": 5665,
      "AN": 5666,
      "Ġfa": 5667,
      "ĠFollow": 5668,
      "Ġunf": 5669,
      "Ġintricate": 5670,
      "Ġlayout": 5671,
      "ecess": 5672,
      "Ġattempt": 5673,
      "ĠHuman": 5674,
      "Ġcitiz": 5675,
      "onomic": 5676,
      "cription": 5677,
      "generated": 5678,
      "ĠWork": 5679,
      "Ġdisrupt": 5680,
      "Ġactively": 5681,
      "Ġfert": 5682,
      "uge": 5683,
      "can": 5684,
      "AT": 5685,
      "Ġshop": 5686,
      "Ġprotocol": 5687,
      "Ġpersonalize": 5688,
      "Ġdesp": 5689,
      "Ġunn": 5690,
      "ĠPeople": 5691,
      "ĠExp": 5692,
      "Ġplot": 5693,
      "Ġwaves": 5694,
      "Ġmap": 5695,
      "Ġdescription": 5696,
      "Ġsuff": 5697,
      "Ġlose": 5698,
      "Ġpros": 5699,
      "Ġreference": 5700,
      "ivot": 5701,
      "ada": 5702,
      "Ġband": 5703,
      "istant": 5704,
      "Ġapplied": 5705,
      "Ġexecute": 5706,
      "Ġsummar": 5707,
      "ĠDetermine": 5708,
      "Ġ16": 5709,
      "Ġworkflow": 5710,
      "minist": 5711,
      "ĠID": 5712,
      "Ġimagery": 5713,
      "right": 5714,
      "ĠFore": 5715,
      "Ġ14": 5716,
      "Ex": 5717,
      "Ġpackaging": 5718,
      "authorized": 5719,
      "Ġcarrots": 5720,
      "ĠMusic": 5721,
      "Ġ50": 5722,
      "ĠChar": 5723,
      "Ġpuzz": 5724,
      "Ġreturned": 5725,
      "Ġmissing": 5726,
      "Ġmotivation": 5727,
      "Ġillegal": 5728,
      "ĠCut": 5729,
      "roduction": 5730,
      "Ġmuseums": 5731,
      "ĠHot": 5732,
      "Ġlik": 5733,
      "Ġimprovements": 5734,
      "Ġmeetings": 5735,
      "ĠTwitter": 5736,
      "Ġoversight": 5737,
      "Ġfilling": 5738,
      "ĠIndian": 5739,
      "atures": 5740,
      "ey": 5741,
      "Ġhistoric": 5742,
      "Ġmush": 5743,
      "ulent": 5744,
      "Ġarms": 5745,
      "Ġpolicymakers": 5746,
      "Ġ13": 5747,
      "lights": 5748,
      "Ġreve": 5749,
      "Ġdrugs": 5750,
      "irection": 5751,
      "Ġprob": 5752,
      "Ġresolution": 5753,
      "rol": 5754,
      "Ġgraphics": 5755,
      "Ġdietary": 5756,
      "Ġlimits": 5757,
      "Ġreps": 5758,
      "Ġadoption": 5759,
      "Ġsides": 5760,
      "Ġcohes": 5761,
      "ographics": 5762,
      "ĠMount": 5763,
      "ä»": 5764,
      "Ġunauthorized": 5765,
      "Ġpick": 5766,
      "Ġconsidering": 5767,
      "Ġpill": 5768,
      "Ġreputation": 5769,
      "omen": 5770,
      "Ġaffects": 5771,
      "Ġdescribe": 5772,
      "Ġdeals": 5773,
      "ĠManagement": 5774,
      "Ġintent": 5775,
      "Ġmaximize": 5776,
      "PT": 5777,
      "Ġdemonstrate": 5778,
      "izer": 5779,
      "ĠInternational": 5780,
      "Ġfacil": 5781,
      "Ġcolon": 5782,
      "Ġmechanisms": 5783,
      "Ġsurf": 5784,
      "Ġimpressive": 5785,
      "ĠSince": 5786,
      "gers": 5787,
      "Ġgirl": 5788,
      "Ġreduces": 5789,
      "Thank": 5790,
      "Ġediting": 5791,
      "ĠReview": 5792,
      "Ġacqu": 5793,
      "Ġpossib": 5794,
      "fered": 5795,
      "ĠFurthermore": 5796,
      "ĠNow": 5797,
      "Ġconsumer": 5798,
      "lements": 5799,
      "Ġpresentation": 5800,
      "uk": 5801,
      "Ġhousing": 5802,
      "py": 5803,
      "Ġje": 5804,
      "ester": 5805,
      "ĠGerm": 5806,
      "Ġscenarios": 5807,
      "Ġleaving": 5808,
      "ĠWhe": 5809,
      "Ġconscious": 5810,
      "Ġhotels": 5811,
      "NT": 5812,
      "Ġcentral": 5813,
      "hemat": 5814,
      "ache": 5815,
      "Ġcalendar": 5816,
      "Ġoffered": 5817,
      "ĠSEO": 5818,
      "Ġmicro": 5819,
      "lock": 5820,
      "Ġcorresponding": 5821,
      "Ġtablespoon": 5822,
      "Ġfreed": 5823,
      "Ġstruggles": 5824,
      "Ġoverwhelming": 5825,
      "Ġiteration": 5826,
      "Ġhour": 5827,
      "Ġride": 5828,
      "ĠOnline": 5829,
      "Ġmodeling": 5830,
      "Ġpreventing": 5831,
      "Ġsnippet": 5832,
      "aked": 5833,
      "Ġentreprene": 5834,
      "Ġequality": 5835,
      "ancy": 5836,
      "Ġreader": 5837,
      "uth": 5838,
      "duct": 5839,
      "Ġperiods": 5840,
      "Ġplug": 5841,
      "Ġdescriptions": 5842,
      "Ġgratitude": 5843,
      "yl": 5844,
      "Ġmemorable": 5845,
      "ĠInclude": 5846,
      "Ġcin": 5847,
      "Ġdictionary": 5848,
      "ĠBoth": 5849,
      "ĠSam": 5850,
      "ĠAb": 5851,
      "Ġdiscounts": 5852,
      "Ġcircumst": 5853,
      "ĠSimilarly": 5854,
      "Ġclar": 5855,
      "Ġhabitats": 5856,
      "ĠAsk": 5857,
      "Ġmoist": 5858,
      "Ġpivot": 5859,
      "Ġdressing": 5860,
      "\":": 5861,
      "Ġemerging": 5862,
      "Ġlosses": 5863,
      "craft": 5864,
      "Ġhumanity": 5865,
      "RL": 5866,
      "Ġunnecess": 5867,
      "Ġresponsibilities": 5868,
      "ĠItalian": 5869,
      "Ġgall": 5870,
      "Ġcertainly": 5871,
      "ured": 5872,
      "Ġachievable": 5873,
      "ĠLinked": 5874,
      "ÑĤ": 5875,
      "Ġwearing": 5876,
      "osen": 5877,
      "Ġcybersecurity": 5878,
      "ĠDisc": 5879,
      "Ġvan": 5880,
      "bing": 5881,
      "ĠSn": 5882,
      "Ġmanager": 5883,
      "ĠBro": 5884,
      "Ġdisorders": 5885,
      "Ġedge": 5886,
      "ĠPriv": 5887,
      "ĠPort": 5888,
      "Ġintensity": 5889,
      "Ġtracks": 5890,
      "Ġgent": 5891,
      "Ġjazz": 5892,
      "nic": 5893,
      "Ġadult": 5894,
      "Ġcrime": 5895,
      "ĠInter": 5896,
      "Ġmedications": 5897,
      "Ġpaint": 5898,
      "Ġgenre": 5899,
      "Ġexcited": 5900,
      "Ġleather": 5901,
      "Ġgives": 5902,
      "Ġhighest": 5903,
      "grad": 5904,
      "cons": 5905,
      "cending": 5906,
      "Ġresponsibly": 5907,
      "Ġmetal": 5908,
      "Ġrepeat": 5909,
      "Ġir": 5910,
      "Ġjump": 5911,
      "ĠBrit": 5912,
      "ĠUser": 5913,
      "Ġperformed": 5914,
      "ĠThank": 5915,
      "ĠEuropean": 5916,
      "Ġbelow": 5917,
      "Ġheight": 5918,
      "izza": 5919,
      "Ġcelebrate": 5920,
      "lets": 5921,
      "mented": 5922,
      "Ġvulnerable": 5923,
      "ensions": 5924,
      "Ġoperate": 5925,
      "Ġsour": 5926,
      "Ġembrace": 5927,
      "Ġtalent": 5928,
      "Ġeventually": 5929,
      "Ġ/": 5930,
      "ĠMoreover": 5931,
      "Ġcriteria": 5932,
      "ĠOptim": 5933,
      "Ġcategories": 5934,
      "Ġsalmon": 5935,
      "OS": 5936,
      "Ġoperating": 5937,
      "Ġvintage": 5938,
      "anish": 5939,
      "Ġbeef": 5940,
      "Ġmig": 5941,
      "ĠContin": 5942,
      "Ġscope": 5943,
      "erate": 5944,
      "Ġencouraging": 5945,
      "Ġraises": 5946,
      "Ġple": 5947,
      "Ġpayments": 5948,
      "Ġintu": 5949,
      "Ġcircumstances": 5950,
      "cknow": 5951,
      "Ġpodcast": 5952,
      "Ġlandmarks": 5953,
      "Ġimmune": 5954,
      "ends": 5955,
      "Ġleader": 5956,
      "Ġhop": 5957,
      "Ġoptimized": 5958,
      "ĠConduct": 5959,
      "Ġregulatory": 5960,
      "iant": 5961,
      "Ġease": 5962,
      "ĠStre": 5963,
      "Ġspinach": 5964,
      "Ġpants": 5965,
      "Ġmargin": 5966,
      "ateful": 5967,
      "Ġblaz": 5968,
      "ental": 5969,
      "Ġcomputers": 5970,
      "ello": 5971,
      "ĠOffer": 5972,
      "Ġbarriers": 5973,
      "Ġunderlying": 5974,
      "driving": 5975,
      "Ġunnecessary": 5976,
      "ĠBali": 5977,
      "Ġenvironmentally": 5978,
      "PA": 5979,
      "ĠPrioritize": 5980,
      "gr": 5981,
      "ĠSustain": 5982,
      "Ġproduced": 5983,
      "Ġindependent": 5984,
      "Ġaccent": 5985,
      "Ġlaptop": 5986,
      "ĠTod": 5987,
      "ĠNorth": 5988,
      "ading": 5989,
      "order": 5990,
      "Ġexternal": 5991,
      "ields": 5992,
      "Ġfoss": 5993,
      "Ġquite": 5994,
      "ĠIns": 5995,
      "Ġactual": 5996,
      "Ġsyn": 5997,
      "Ð¸": 5998,
      "ĠMax": 5999,
      "Ġparks": 6000,
      "Ġhorizon": 6001,
      "Ġeveryday": 6002,
      "Ġupcoming": 6003,
      "Ġoverview": 6004,
      "Ġchest": 6005,
      "Ġdoll": 6006,
      "Ġslowly": 6007,
      "Ġhiring": 6008,
      "Ġpap": 6009,
      "Ġsurg": 6010,
      "hand": 6011,
      "Ġrot": 6012,
      "Ġbrief": 6013,
      "Ġgrammar": 6014,
      "Ġrob": 6015,
      "aint": 6016,
      "Ġneckl": 6017,
      "Ġwatching": 6018,
      "hern": 6019,
      "Ġdesigners": 6020,
      "iances": 6021,
      "Ġonions": 6022,
      "Ġoccurs": 6023,
      "Ġbask": 6024,
      "ĠAnalytics": 6025,
      "Ġran": 6026,
      "arant": 6027,
      "dro": 6028,
      "ola": 6029,
      "fa": 6030,
      "Ġcollege": 6031,
      "Ġenables": 6032,
      "peas": 6033,
      "rm": 6034,
      "Ġalert": 6035,
      "Ġfro": 6036,
      "umin": 6037,
      "Ġvitamins": 6038,
      "ĠDivers": 6039,
      "ĠUp": 6040,
      "Ġiron": 6041,
      "ablish": 6042,
      "Ġwindow": 6043,
      "Ġsearching": 6044,
      "Ġceremon": 6045,
      "Ġremoving": 6046,
      "lick": 6047,
      "Ġstars": 6048,
      "Ġloops": 6049,
      "Ġarrange": 6050,
      "ĠBeach": 6051,
      "Ġkitchen": 6052,
      "Ġsem": 6053,
      "Ġsupportive": 6054,
      "Ġcher": 6055,
      "Ġdirection": 6056,
      "Ġlabels": 6057,
      "Ġpaying": 6058,
      "though": 6059,
      "Ġnest": 6060,
      "erals": 6061,
      "oral": 6062,
      "Ġkeys": 6063,
      "Ġintervention": 6064,
      "ĠCould": 6065,
      "rial": 6066,
      "Ġdesk": 6067,
      "Ġasking": 6068,
      "Ġfans": 6069,
      "telling": 6070,
      "ushing": 6071,
      "Ġgod": 6072,
      "Ġinse": 6073,
      "Ġvisualization": 6074,
      "Ġvivid": 6075,
      "Ġphilos": 6076,
      "Ġincredible": 6077,
      "Ġquiet": 6078,
      "Ġabstract": 6079,
      "ĠVisual": 6080,
      "Ġseam": 6081,
      "Ġupper": 6082,
      "Ġasked": 6083,
      "Ġpace": 6084,
      "Ġcounsel": 6085,
      "Ġhit": 6086,
      "Ġpanels": 6087,
      "Ġcurious": 6088,
      "ĠRiver": 6089,
      "],": 6090,
      "Ġgrand": 6091,
      "Ġep": 6092,
      "Ġsolid": 6093,
      "bohydr": 6094,
      "Ġbes": 6095,
      "ĠETFs": 6096,
      "Ġearrings": 6097,
      "Ġsex": 6098,
      "ED": 6099,
      "igating": 6100,
      "imp": 6101,
      "iner": 6102,
      "ĠRegularly": 6103,
      "Ġmas": 6104,
      "istical": 6105,
      "Ġdecided": 6106,
      "Ġsnow": 6107,
      "äº": 6108,
      "ĠEmp": 6109,
      "Ġmathemat": 6110,
      "Ġmountains": 6111,
      "ercial": 6112,
      "ĠIts": 6113,
      "Ġgluten": 6114,
      "Ġcontainer": 6115,
      "ĠTom": 6116,
      "Ġcriminal": 6117,
      "Ġstudying": 6118,
      "gon": 6119,
      "class": 6120,
      "Ġprofit": 6121,
      "\\*": 6122,
      "ĠRev": 6123,
      "Ġlearns": 6124,
      "Ġcongest": 6125,
      "elihood": 6126,
      "Ġsuc": 6127,
      "Ġbiggest": 6128,
      "Ġdispl": 6129,
      "Ġvacc": 6130,
      "Ġcritic": 6131,
      "level": 6132,
      "Ġintelligent": 6133,
      "Ens": 6134,
      "ĠEvery": 6135,
      "Ġvirus": 6136,
      "Ġequipped": 6137,
      "Ġagg": 6138,
      "ether": 6139,
      "ĠLinkedIn": 6140,
      "Ġdining": 6141,
      "celer": 6142,
      "Ġdesigner": 6143,
      "iday": 6144,
      "ned": 6145,
      "Ġbusy": 6146,
      "Ġaest": 6147,
      "ĠAustral": 6148,
      "Ġequitable": 6149,
      "ipl": 6150,
      "Ġlikelihood": 6151,
      "Ġdreams": 6152,
      "Ġcontributed": 6153,
      "ĠEstablish": 6154,
      "Ensuring": 6155,
      "Ġpassing": 6156,
      "ued": 6157,
      "ĠConclusion": 6158,
      "ometric": 6159,
      "Ġruns": 6160,
      "Ġestim": 6161,
      "ĠReal": 6162,
      "Ġanom": 6163,
      "equ": 6164,
      "Ġintroduced": 6165,
      "Ġsoy": 6166,
      "ny": 6167,
      "Ġtact": 6168,
      "Ġdevelopments": 6169,
      "tes": 6170,
      "ĠProt": 6171,
      "Ġcast": 6172,
      "ĠCelebr": 6173,
      "Ġboot": 6174,
      "ĠPal": 6175,
      "Ar": 6176,
      "Ġpriority": 6177,
      "Ġencourages": 6178,
      "otes": 6179,
      "Ġrespectful": 6180,
      "Ġcapacity": 6181,
      "Ġlever": 6182,
      "Ġdocumentation": 6183,
      "Ġheels": 6184,
      "Ġcomprom": 6185,
      "ĠMarketing": 6186,
      "ĠAfrica": 6187,
      "Ġpursu": 6188,
      "Ġrepeated": 6189,
      "ĠProcess": 6190,
      "ĠYouT": 6191,
      "Ġdeployment": 6192,
      "Ġfossil": 6193,
      "Ġoptimal": 6194,
      "Ġtrial": 6195,
      "Ġinformative": 6196,
      "advant": 6197,
      "Ġcohesive": 6198,
      "Ġbirth": 6199,
      "Ġcompassion": 6200,
      "ĠPlace": 6201,
      "Ġvoc": 6202,
      "ĠOb": 6203,
      "izers": 6204,
      "Ġsmartph": 6205,
      "source": 6206,
      "Ġfollowers": 6207,
      "Ġbags": 6208,
      "ĠNext": 6209,
      "Ġfinances": 6210,
      "Ġvalidation": 6211,
      "Ġweights": 6212,
      "ĠDefine": 6213,
      "Ġoutl": 6214,
      "Ġagencies": 6215,
      "idential": 6216,
      "Ġalb": 6217,
      "ĠHaw": 6218,
      "Ġwants": 6219,
      "ĠLight": 6220,
      "Ġmoments": 6221,
      "Ġtomato": 6222,
      "Ġspecialized": 6223,
      "Ġsucceed": 6224,
      "Ġhealthier": 6225,
      "Ġtick": 6226,
      "Ġcoop": 6227,
      "Ġremaining": 6228,
      "Ġwarmth": 6229,
      "ohol": 6230,
      "ĠGod": 6231,
      "ogether": 6232,
      "Ġdepict": 6233,
      "lete": 6234,
      "wide": 6235,
      "Ġvine": 6236,
      "Ġtargets": 6237,
      "Ġadjusting": 6238,
      "Ġseamless": 6239,
      "Ġgrateful": 6240,
      "Ġevaluation": 6241,
      "ĠExamples": 6242,
      "Ġselling": 6243,
      "cohol": 6244,
      "Ġtight": 6245,
      "osal": 6246,
      "Ġclassical": 6247,
      "Ġvect": 6248,
      "Ġexception": 6249,
      "Ġvend": 6250,
      "Ġsatisfied": 6251,
      "25": 6252,
      "ccoli": 6253,
      "Ġcycl": 6254,
      "Ġbottom": 6255,
      "Ġassessment": 6256,
      "Ġintended": 6257,
      "iov": 6258,
      "Ġcitizens": 6259,
      "Ġbills": 6260,
      "list": 6261,
      "Ġmode": 6262,
      "Ġhardware": 6263,
      "Ġli": 6264,
      "Ð½": 6265,
      "Ġrare": 6266,
      "Ġaims": 6267,
      "pack": 6268,
      "ĠWrite": 6269,
      "Ġmanual": 6270,
      "ĠReduce": 6271,
      "Ġinjuries": 6272,
      "Ġcongestion": 6273,
      "box": 6274,
      "Ch": 6275,
      "Ġaudiences": 6276,
      "Ġsurpr": 6277,
      "ĠSy": 6278,
      "Ġprofile": 6279,
      "Ġmountain": 6280,
      "VID": 6281,
      "Ġimaging": 6282,
      "Ġdespite": 6283,
      "Ġresponsive": 6284,
      "ĠWind": 6285,
      "Ġpaintings": 6286,
      "Ġrural": 6287,
      "Ġspecify": 6288,
      "Ġopinion": 6289,
      "Ġfraudulent": 6290,
      "ror": 6291,
      "Ġweapons": 6292,
      "Ġcoconut": 6293,
      "Ġresume": 6294,
      "ĠIntelligence": 6295,
      "Ġcompleting": 6296,
      "Ġcombined": 6297,
      "Ġmixing": 6298,
      "ĠMindful": 6299,
      "Ġdegree": 6300,
      "ĠMat": 6301,
      "Ġtemperatures": 6302,
      "Ġpenal": 6303,
      "Ġspark": 6304,
      "Ġfuels": 6305,
      "Ġviolence": 6306,
      "inkle": 6307,
      "Ġ500": 6308,
      "ĠURL": 6309,
      "ĠYouTube": 6310,
      "LL": 6311,
      "Ġcombat": 6312,
      "Ġ17": 6313,
      "Ġfacilities": 6314,
      "ĠSchool": 6315,
      "Ġsleek": 6316,
      "ãĢĤ": 6317,
      "ĠClimate": 6318,
      "Ġseemed": 6319,
      "Ġnotifications": 6320,
      "Ġmagical": 6321,
      "Ġfailure": 6322,
      "Ġturned": 6323,
      "SC": 6324,
      "Ġ)": 6325,
      "Ġburnout": 6326,
      "Ġhydrated": 6327,
      "Ġnotice": 6328,
      "Ġlightweight": 6329,
      "Ġreporting": 6330,
      "aration": 6331,
      "Ġhighlights": 6332,
      "Ġmonthly": 6333,
      "name": 6334,
      "Ġcycle": 6335,
      "Ġsalary": 6336,
      "ondon": 6337,
      "Ġallocate": 6338,
      "Ġlegs": 6339,
      "Ġsheet": 6340,
      "ĠSecurity": 6341,
      "ruit": 6342,
      "BT": 6343,
      "CT": 6344,
      "Ġprinting": 6345,
      "Ġdiversified": 6346,
      "Ġappointments": 6347,
      "Ġconcent": 6348,
      "Ġbub": 6349,
      "Ġresidents": 6350,
      "Ġdupl": 6351,
      "Ġtrendy": 6352,
      "Ġpossibilities": 6353,
      "Ġapplying": 6354,
      "Ġshaping": 6355,
      "Ġdistinct": 6356,
      "Ġcommercial": 6357,
      "ĠSpanish": 6358,
      "Ġabsor": 6359,
      "Ġparticipants": 6360,
      "Ġinher": 6361,
      "Ġindustrial": 6362,
      "ascular": 6363,
      "Ġbirds": 6364,
      "Ġbird": 6365,
      "ĠRepeat": 6366,
      "Ġstorytelling": 6367,
      "Ġast": 6368,
      "Ġwasn": 6369,
      "Ġminerals": 6370,
      "ught": 6371,
      "bohydrates": 6372,
      "Ġplaced": 6373,
      "chol": 6374,
      "ĠRobot": 6375,
      "ĠAim": 6376,
      "Ġregarding": 6377,
      "Ġcomparison": 6378,
      "Ġcloser": 6379,
      "Ġaddiction": 6380,
      "ĠBen": 6381,
      "Ġratio": 6382,
      "Ġpreserve": 6383,
      "uming": 6384,
      "Ġgentle": 6385,
      "Ġstar": 6386,
      "Ġacceler": 6387,
      "Ġdresses": 6388,
      "aul": 6389,
      "scale": 6390,
      "ĠSqu": 6391,
      "Ġgreens": 6392,
      "Ġromantic": 6393,
      "apter": 6394,
      "nel": 6395,
      "Ġdiffer": 6396,
      "Ġdefault": 6397,
      "Ġexplanation": 6398,
      "Ġclosely": 6399,
      "Ġinstruction": 6400,
      "HP": 6401,
      "Ġpurchases": 6402,
      "Ġaside": 6403,
      "wood": 6404,
      "Ġround": 6405,
      "Ġrestrictions": 6406,
      "Ġhonest": 6407,
      "We": 6408,
      "Ġfold": 6409,
      "Ġsix": 6410,
      "Ġpurchasing": 6411,
      "Ġconsistency": 6412,
      "Ġbot": 6413,
      "Ġpalette": 6414,
      "Ġcameras": 6415,
      "Ġbroth": 6416,
      "Ġking": 6417,
      "Ġpercentage": 6418,
      "Ġtourist": 6419,
      "ĠMor": 6420,
      "Ġgaming": 6421,
      "Ġfishing": 6422,
      "aper": 6423,
      "ĠPar": 6424,
      "Ġchickpeas": 6425,
      "ifies": 6426,
      "Ġflight": 6427,
      "Ġscan": 6428,
      "iny": 6429,
      "Ġcategory": 6430,
      "ëĭ": 6431,
      "ĠIncreased": 6432,
      "Ġgift": 6433,
      "aten": 6434,
      "Ġhimself": 6435,
      "Ġminced": 6436,
      "Ġminimizing": 6437,
      "Ġfreedom": 6438,
      "ground": 6439,
      "Ġanswers": 6440,
      "Ġtwist": 6441,
      "Ġign": 6442,
      "berries": 6443,
      "Ġnotable": 6444,
      "ĠWall": 6445,
      "Ġreverse": 6446,
      "abetes": 6447,
      "Ġmagn": 6448,
      "ruption": 6449,
      "Ġnothing": 6450,
      "ĠHold": 6451,
      "Ġperm": 6452,
      "Ġcontrols": 6453,
      "Ġads": 6454,
      "Ġhappen": 6455,
      "Ġbedroom": 6456,
      "Ġmaster": 6457,
      "Ġstreaming": 6458,
      "Ġhairst": 6459,
      "Ġmatrix": 6460,
      "ĠInteg": 6461,
      "Ġchosen": 6462,
      "Ġforests": 6463,
      "Ġlinear": 6464,
      "arsh": 6465,
      "Ġacknow": 6466,
      "Ġmyst": 6467,
      "Ġdescriptive": 6468,
      "Ġindigenous": 6469,
      "night": 6470,
      "Ġcounter": 6471,
      "Ġpartnerships": 6472,
      "Ġvolume": 6473,
      "ĠSalt": 6474,
      "Ġlic": 6475,
      "Ġwrap": 6476,
      "Ġhike": 6477,
      "Ġdepartment": 6478,
      "ĠTraining": 6479,
      "Ġdownt": 6480,
      "style": 6481,
      "Ġmushrooms": 6482,
      "tered": 6483,
      "Ġthin": 6484,
      "Ġshades": 6485,
      "ĠProject": 6486,
      "Ġoverwhelmed": 6487,
      "Ġbiod": 6488,
      "ĠFest": 6489,
      "urp": 6490,
      "If": 6491,
      "Ġagricultural": 6492,
      "Ġpolice": 6493,
      "ĠCours": 6494,
      "iovascular": 6495,
      "eah": 6496,
      "Ġperpetuate": 6497,
      "Ġbesides": 6498,
      "ĠIsland": 6499,
      "Ġconducted": 6500,
      "ĠMa": 6501,
      "Ġanti": 6502,
      "Ġforg": 6503,
      "lin": 6504,
      "Ġstrict": 6505,
      "Ġbad": 6506,
      "roid": 6507,
      "ĠII": 6508,
      "Ġdecide": 6509,
      "ĠEmploy": 6510,
      "Ġgray": 6511,
      "Ġdecorative": 6512,
      "Ġcuc": 6513,
      "Ġpairs": 6514,
      "mark": 6515,
      "Ġdried": 6516,
      "Ġtested": 6517,
      "Ġnarrative": 6518,
      "ords": 6519,
      "Ġfill": 6520,
      "Ġdessert": 6521,
      "Ġrepetitive": 6522,
      "Ġreus": 6523,
      "Ġkids": 6524,
      "Ġcommands": 6525,
      "Ġcalling": 6526,
      "Ġmagic": 6527,
      "Ġstanding": 6528,
      "rific": 6529,
      "Ġadminist": 6530,
      "Ġinternal": 6531,
      "Thanks": 6532,
      "Ġmeant": 6533,
      "ige": 6534,
      "entions": 6535,
      "Ġzero": 6536,
      "Ġlinks": 6537,
      "Ġassessments": 6538,
      "Ġalmost": 6539,
      "Ġtaught": 6540,
      "Ġuniversities": 6541,
      "Ġletters": 6542,
      "Ġcater": 6543,
      "Ġwit": 6544,
      "profit": 6545,
      "lass": 6546,
      "Ġathletes": 6547,
      "ĠCollaboration": 6548,
      "Ġscenario": 6549,
      "atell": 6550,
      "ĠShare": 6551,
      "Ġmemories": 6552,
      "ademy": 6553,
      "No": 6554,
      "Ġder": 6555,
      "asive": 6556,
      "Ġcontaining": 6557,
      "ĠMedical": 6558,
      "Ġfinish": 6559,
      "icit": 6560,
      "Ġhip": 6561,
      "Ġsession": 6562,
      "Ġfont": 6563,
      "Ġsplit": 6564,
      "Ġbrowser": 6565,
      "Ġbiodiversity": 6566,
      "ĠCap": 6567,
      "ashing": 6568,
      "Ġrecursively": 6569,
      "izable": 6570,
      "Ġstatistical": 6571,
      "Ġinsight": 6572,
      "Ġpromotes": 6573,
      "Ġsuggests": 6574,
      "iam": 6575,
      "raction": 6576,
      "Ġgrilled": 6577,
      "onomy": 6578,
      "Ġholding": 6579,
      "Ġthank": 6580,
      "Ġfoundation": 6581,
      "ius": 6582,
      "Ġnavigation": 6583,
      "Ġpicture": 6584,
      "RM": 6585,
      "Ġappropriately": 6586,
      "Ġaug": 6587,
      "Ġcenters": 6588,
      "Ġmother": 6589,
      "Ġsectors": 6590,
      "Ġmanageable": 6591,
      "Ġlooked": 6592,
      "osis": 6593,
      "Ġdemoc": 6594,
      "åı": 6595,
      "Ġdoor": 6596,
      "ET": 6597,
      "Ġtough": 6598,
      "agonist": 6599,
      "Ġspo": 6600,
      "ĠMain": 6601,
      "ately": 6602,
      "Pro": 6603,
      "Ġencounter": 6604,
      "ĠRef": 6605,
      "Develop": 6606,
      "ĠTop": 6607,
      "Ġachievements": 6608,
      "Ġends": 6609,
      "Ġappreciation": 6610,
      "Ġluxury": 6611,
      "ritious": 6612,
      "wear": 6613,
      "ĠEvalu": 6614,
      "Ġhumor": 6615,
      "ĠFood": 6616,
      "Ġmindset": 6617,
      "Ġencountered": 6618,
      "Ġretention": 6619,
      "Ġfairness": 6620,
      "Ġtun": 6621,
      "Ġtast": 6622,
      "Ġ401": 6623,
      "ingu": 6624,
      "Ġthrive": 6625,
      "Ġattending": 6626,
      "forestation": 6627,
      "Ġprotocols": 6628,
      "Ġrelatively": 6629,
      "Ġpreviously": 6630,
      "ĠEnt": 6631,
      "Ġsegment": 6632,
      "ama": 6633,
      "Ġintense": 6634,
      "ĠDA": 6635,
      "Ġdivis": 6636,
      "Ġguarant": 6637,
      "Ġenjoyable": 6638,
      "ĠRoman": 6639,
      "Ġentrepreneurs": 6640,
      "Ġwriters": 6641,
      "Ġdrawbacks": 6642,
      "Ġnutritious": 6643,
      "apes": 6644,
      "Ġcontinuously": 6645,
      "Ġcomplements": 6646,
      "ĠAdv": 6647,
      "Ġrapidly": 6648,
      "Could": 6649,
      "Ġpul": 6650,
      "ĠSeek": 6651,
      "Ġreaching": 6652,
      "Ġcompetitors": 6653,
      "Ġrental": 6654,
      "Ġdownload": 6655,
      "ĠLondon": 6656,
      "Ġpromotions": 6657,
      "ĠBusinesses": 6658,
      "SQL": 6659,
      "ĠCenter": 6660,
      "Ġresolve": 6661,
      "Ġsne": 6662,
      "ĠLoc": 6663,
      "Ġconsideration": 6664,
      "11": 6665,
      "Ġcomparing": 6666,
      "poons": 6667,
      "Ġflood": 6668,
      "ona": 6669,
      "ĠRobots": 6670,
      "Ġtitle": 6671,
      "ĠAccording": 6672,
      "ĠJSON": 6673,
      "Ġsubstring": 6674,
      "ĠLearn": 6675,
      "Ġlamps": 6676,
      "Ġbelong": 6677,
      "Ġoutfits": 6678,
      "Ġnecklace": 6679,
      "eted": 6680,
      "Ġbodies": 6681,
      "Ġlent": 6682,
      "Ġartistic": 6683,
      "Ġopening": 6684,
      "ĠSustainable": 6685,
      "Ġyields": 6686,
      "Ġsurvive": 6687,
      "Ġcontributing": 6688,
      "Ġinterventions": 6689,
      "Ġjeans": 6690,
      "ĠPHP": 6691,
      "ĠImproved": 6692,
      "ĠArtificial": 6693,
      "Ġescape": 6694,
      "Ġhaz": 6695,
      "RI": 6696,
      "Ġstatistics": 6697,
      "Ġdecrease": 6698,
      "bsp": 6699,
      "Ġdeclared": 6700,
      "Ġbath": 6701,
      "Ġworst": 6702,
      "Ġdouble": 6703,
      "ĠVisit": 6704,
      "Ġblockchain": 6705,
      "ls": 6706,
      "Ġrecover": 6707,
      "Ġreminder": 6708,
      "Ġfriendship": 6709,
      "ĠRemove": 6710,
      "Ġimmig": 6711,
      "Ġbasics": 6712,
      "Ġdro": 6713,
      "Ġfunda": 6714,
      "Ġtall": 6715,
      "Ġcollaborative": 6716,
      "Ġchances": 6717,
      "Ġshoulder": 6718,
      "Ġarts": 6719,
      "SA": 6720,
      "pace": 6721,
      "Ġbrush": 6722,
      "Ġteacher": 6723,
      "Ġtherm": 6724,
      "Ġgolden": 6725,
      "income": 6726,
      "Ġvisibility": 6727,
      "ĠAttend": 6728,
      "Ġskirt": 6729,
      "Ġpizza": 6730,
      "Ġprofound": 6731,
      "Ġamb": 6732,
      "charge": 6733,
      "Ġrelief": 6734,
      "Ġshops": 6735,
      "Ġacid": 6736,
      "Ġunable": 6737,
      "effective": 6738,
      "ĠPublic": 6739,
      "Ġkindness": 6740,
      "real": 6741,
      "Ġintroduction": 6742,
      "ĠEven": 6743,
      "taking": 6744,
      "Ġconversion": 6745,
      "Ġpersist": 6746,
      "my": 6747,
      "TP": 6748,
      "adow": 6749,
      "Ġtimeline": 6750,
      "Ġsacrific": 6751,
      "ĠBritish": 6752,
      "Ġdivide": 6753,
      "Ġtrials": 6754,
      "Ġmyth": 6755,
      "Ġscar": 6756,
      "Ġgrew": 6757,
      "ĠRome": 6758,
      "Ġemphasis": 6759,
      "ĠRE": 6760,
      "ae": 6761,
      "Ġextensive": 6762,
      "rapy": 6763,
      "Ġscans": 6764,
      "mma": 6765,
      "Ġmirr": 6766,
      "Ġentity": 6767,
      "ĠElect": 6768,
      "ifts": 6769,
      "Ġdiabetes": 6770,
      "Ġupl": 6771,
      "Ġfirm": 6772,
      "Ġfeaturing": 6773,
      "Ġconsistently": 6774,
      "rew": 6775,
      "Ġrhythm": 6776,
      "Ġturning": 6777,
      "Ġtravelers": 6778,
      "ĠAnt": 6779,
      "ipe": 6780,
      "emade": 6781,
      "Ġyellow": 6782,
      "weet": 6783,
      "ulated": 6784,
      "Ġfilms": 6785,
      "Ġrelaxing": 6786,
      "ĠSecond": 6787,
      "hus": 6788,
      "Ġobjective": 6789,
      "Ġduration": 6790,
      "Ġturb": 6791,
      "SV": 6792,
      "ĠWeb": 6793,
      "ifact": 6794,
      "org": 6795,
      "airy": 6796,
      "sm": 6797,
      "Ġsupplies": 6798,
      "Ġvariations": 6799,
      "Ġsocietal": 6800,
      "Ġpillows": 6801,
      "Ġdistributed": 6802,
      "Ġformula": 6803,
      "Ġsuns": 6804,
      "la": 6805,
      "rical": 6806,
      "ĠPrivacy": 6807,
      "Ġlunch": 6808,
      "Ġfrustr": 6809,
      "RO": 6810,
      "Ġsug": 6811,
      "ĠCOVID": 6812,
      "Ġinterior": 6813,
      "Ġsubt": 6814,
      ":<|": 6815,
      "Ġreached": 6816,
      "Ġaligned": 6817,
      "Ġtoken": 6818,
      "cribe": 6819,
      "ĠEnviron": 6820,
      "Ġtraveling": 6821,
      "Ġproteins": 6822,
      "Ġoutcome": 6823,
      "Ġswimming": 6824,
      "da": 6825,
      "Ġpriorities": 6826,
      "Ġwire": 6827,
      "itations": 6828,
      "Ġregression": 6829,
      "Ġproactive": 6830,
      "ĠHy": 6831,
      "Ġrefer": 6832,
      "ĠRest": 6833,
      "Ġaccessed": 6834,
      "Ġlived": 6835,
      "Ġriver": 6836,
      "never": 6837,
      "Ġclearly": 6838,
      "Ġrefine": 6839,
      "Ġdebugg": 6840,
      "Ġcompat": 6841,
      "ĠMal": 6842,
      "Ġsurveys": 6843,
      "Ġemployers": 6844,
      "Ġevolved": 6845,
      "rest": 6846,
      "afe": 6847,
      "Ġmanipulate": 6848,
      "Ġcrisis": 6849,
      "ĠFrance": 6850,
      "Ġdough": 6851,
      "ĠRevolution": 6852,
      "ĠResp": 6853,
      "Ġfewer": 6854,
      "Ġcompost": 6855,
      "Ġaudits": 6856,
      "ĠBo": 6857,
      "bed": 6858,
      "Ġappearance": 6859,
      "Ġgrid": 6860,
      "Ġsight": 6861,
      "iforn": 6862,
      "enly": 6863,
      "ĠPower": 6864,
      "ĠAud": 6865,
      "Ġcaut": 6866,
      "Ġprotagonist": 6867,
      "def": 6868,
      "ĠInf": 6869,
      "Ġconsume": 6870,
      "Ġmotion": 6871,
      "ĠSol": 6872,
      "Ġworn": 6873,
      "front": 6874,
      "Act": 6875,
      "ister": 6876,
      "Ġenforcement": 6877,
      "ypes": 6878,
      "Ġappliances": 6879,
      "Ġsatisfying": 6880,
      "Ġtuple": 6881,
      "Ġqueue": 6882,
      "Ġcollecting": 6883,
      "Ġske": 6884,
      "Ġdri": 6885,
      "ĠLeg": 6886,
      "Ġê": 6887,
      "ĠBuilding": 6888,
      "Ġpreferred": 6889,
      "Ġshares": 6890,
      "Ġshot": 6891,
      "Ġrecognized": 6892,
      "Ġcenturies": 6893,
      "zen": 6894,
      "add": 6895,
      "ĠHawai": 6896,
      "',": 6897,
      "Ġcarbohydrates": 6898,
      "Ġvulnerabilities": 6899,
      "ĠFinancial": 6900,
      "Ġinh": 6901,
      "ĠCelebrate": 6902,
      "ifornia": 6903,
      "Ġchecked": 6904,
      "Ġslices": 6905,
      "Ġpassage": 6906,
      "car": 6907,
      "ĠSte": 6908,
      "ĠYog": 6909,
      "Ġdeeply": 6910,
      "hors": 6911,
      "Ġdynam": 6912,
      "Ġsubmit": 6913,
      "Ġreligion": 6914,
      "Ġinstant": 6915,
      "orrow": 6916,
      "Ġbattle": 6917,
      "Ġbroccoli": 6918,
      "Ġconsent": 6919,
      "Ġfet": 6920,
      "Ġinstrument": 6921,
      "Ġfertil": 6922,
      "80": 6923,
      "Ġcoverage": 6924,
      "ĠExperiment": 6925,
      "Ġquantum": 6926,
      "Ġtailor": 6927,
      "Ġencrypt": 6928,
      "Ġnative": 6929,
      "Design": 6930,
      "Ġdecline": 6931,
      "person": 6932,
      "ĠVR": 6933,
      "rees": 6934,
      "Ġaccidents": 6935,
      "Ġleveraging": 6936,
      "Ġpointer": 6937,
      "arp": 6938,
      "Ġentry": 6939,
      "Ġemerged": 6940,
      "irts": 6941,
      "RE": 6942,
      "Ġsatell": 6943,
      "ĠChick": 6944,
      "Ġpasswords": 6945,
      "Ġfoster": 6946,
      "Ð¾Ð": 6947,
      "Ġlabel": 6948,
      "Ġremotely": 6949,
      "cont": 6950,
      "ĠProgram": 6951,
      "ĠConf": 6952,
      "orporating": 6953,
      "Ġdrop": 6954,
      "Ġblocks": 6955,
      "ĠCoursera": 6956,
      "aby": 6957,
      "ansion": 6958,
      "ĠEthical": 6959,
      "Ġfed": 6960,
      "Ġartifact": 6961,
      "Ġcharacterized": 6962,
      "Ġcardio": 6963,
      "Ġroute": 6964,
      "Ġdirectory": 6965,
      "ĠCur": 6966,
      "ishes": 6967,
      "arly": 6968,
      "Ġox": 6969,
      "ĠVol": 6970,
      "fry": 6971,
      "Ġhospital": 6972,
      "ĠGrilled": 6973,
      "udes": 6974,
      "Ġdoub": 6975,
      "ĠText": 6976,
      "ĠSub": 6977,
      "Ġhob": 6978,
      "ensor": 6979,
      "ĠKing": 6980,
      "ĠLast": 6981,
      "Ġsecret": 6982,
      "Ġwellness": 6983,
      "ĠPost": 6984,
      "Ġinterviews": 6985,
      "Ġbeginner": 6986,
      "chron": 6987,
      "Ġhousehold": 6988,
      "ĠFestival": 6989,
      "ĠUnderstand": 6990,
      "ĠCloud": 6991,
      "Ġnood": 6992,
      "ĠForest": 6993,
      "ĠWhether": 6994,
      "Ġinstalled": 6995,
      "Ġincreases": 6996,
      "ewable": 6997,
      "ĠMem": 6998,
      "Ġhabitat": 6999,
      "Ġstreamline": 7000,
      "Ġchili": 7001,
      "Ġoverfitting": 7002,
      "ĠDav": 7003,
      "aught": 7004,
      "ĠBudd": 7005,
      "Ġbooking": 7006,
      "IC": 7007,
      "Ġcalming": 7008,
      "Ġstretching": 7009,
      "gypt": 7010,
      "Ġalternatives": 7011,
      "ĠExercis": 7012,
      "Ġhappening": 7013,
      "Ġsaying": 7014,
      "cue": 7015,
      "Ġgave": 7016,
      "cost": 7017,
      "husi": 7018,
      "Ġcharm": 7019,
      "Ġalcohol": 7020,
      "gins": 7021,
      "through": 7022,
      "wa": 7023,
      "Ġselected": 7024,
      "Ġtbsp": 7025,
      "Ġhyper": 7026,
      "ĠRub": 7027,
      "Ġemployer": 7028,
      "Ġdiscussing": 7029,
      "Ġrust": 7030,
      "ĠDig": 7031,
      "Ġfamiliar": 7032,
      "Ġraised": 7033,
      "Ġanywhere": 7034,
      "itar": 7035,
      "Ġargue": 7036,
      "Ġdisorder": 7037,
      "Ġpose": 7038,
      "Ġunp": 7039,
      "Ġtravers": 7040,
      "Ġtells": 7041,
      "Ġlongest": 7042,
      "ĠMc": 7043,
      "Ġhttps": 7044,
      "Ġvillage": 7045,
      "Ġintuitive": 7046,
      "Ġvert": 7047,
      "Ġillness": 7048,
      "ĠTrail": 7049,
      "espread": 7050,
      "Ġchemicals": 7051,
      "www": 7052,
      "].": 7053,
      "Ġfaces": 7054,
      "Ġpurs": 7055,
      "AC": 7056,
      "Ġtsp": 7057,
      "Ġstrange": 7058,
      "Ġcoach": 7059,
      "icine": 7060,
      "ta": 7061,
      "Ġolder": 7062,
      ".)": 7063,
      "Ġboots": 7064,
      "Ġstreets": 7065,
      "Ġhappiness": 7066,
      "ÑĢ": 7067,
      "Ġdiscipl": 7068,
      "Ġworkforce": 7069,
      "Ġpreprocess": 7070,
      "Ġphoto": 7071,
      "Ġcommunic": 7072,
      "ander": 7073,
      "Ġsitting": 7074,
      "Ġenthusi": 7075,
      "ĠRel": 7076,
      "ĠEc": 7077,
      "ĠâĢ¢": 7078,
      "Ġstone": 7079,
      "ĠOf": 7080,
      "Ġotherwise": 7081,
      "rich": 7082,
      "ĠCT": 7083,
      "ĠHost": 7084,
      "ĠLack": 7085,
      "ĠReact": 7086,
      "arrow": 7087,
      "Ġmiles": 7088,
      "Ġthous": 7089,
      "Ġmanagers": 7090,
      "Ġwidespread": 7091,
      "Ġunint": 7092,
      "ossible": 7093,
      "ĠJames": 7094,
      "Ġtemplates": 7095,
      "Ġhummus": 7096,
      "Ġemphasizes": 7097,
      "ĠCult": 7098,
      "Ġsurvival": 7099,
      "Ġcab": 7100,
      "Ġseeing": 7101,
      "idth": 7102,
      "ĠHotel": 7103,
      "ĠCount": 7104,
      "Ġjacket": 7105,
      "Ġpopularity": 7106,
      "Ġstim": 7107,
      "Ġloan": 7108,
      "Ġpump": 7109,
      "Ġcycling": 7110,
      "Ġpursue": 7111,
      "Ġrobust": 7112,
      "ĠHouse": 7113,
      "itement": 7114,
      "Ġsolving": 7115,
      "Ġpositions": 7116,
      "Ġmassive": 7117,
      "fall": 7118,
      "Ġsurroundings": 7119,
      "æľ": 7120,
      "Ġaddresses": 7121,
      "Ġsuggested": 7122,
      "ĠTem": 7123,
      "ugh": 7124,
      "AM": 7125,
      "Ġtransaction": 7126,
      "Ġcharge": 7127,
      "ille": 7128,
      "iller": 7129,
      "Ġflights": 7130,
      "Ġunderst": 7131,
      "Ġscr": 7132,
      "ros": 7133,
      "Ġcorn": 7134,
      "ĠCollect": 7135,
      "Ġtrading": 7136,
      "Ġglad": 7137,
      "While": 7138,
      "Ġskilled": 7139,
      "anes": 7140,
      "xic": 7141,
      "Ġdetecting": 7142,
      "Ġcalculates": 7143,
      "ocks": 7144,
      "Ġbringing": 7145,
      "top": 7146,
      "Ġuncertain": 7147,
      "Ġterr": 7148,
      "Ġagreement": 7149,
      "ĠLay": 7150,
      "Ġsuits": 7151,
      "Ġretain": 7152,
      "Ġcourt": 7153,
      "Ġcel": 7154,
      "Ġpossess": 7155,
      "ĠTur": 7156,
      "Ġgardens": 7157,
      "Ġadults": 7158,
      "Ġourselves": 7159,
      "party": 7160,
      "Ġtones": 7161,
      "Ġbars": 7162,
      "retend": 7163,
      "odor": 7164,
      "Ġce": 7165,
      "Ġworldwide": 7166,
      "Ġregulation": 7167,
      "ores": 7168,
      "Ġvot": 7169,
      "Ġvector": 7170,
      "uilding": 7171,
      "augh": 7172,
      "Ġcompelling": 7173,
      "Ġgained": 7174,
      "Ġexecution": 7175,
      "Ġexcitement": 7176,
      "Ġdedication": 7177,
      "Ġpublished": 7178,
      "ĠImp": 7179,
      "Ġscrap": 7180,
      "Ġdisplays": 7181,
      "Ġdealing": 7182,
      "Ġgrown": 7183,
      "ammation": 7184,
      "Ġtimeless": 7185,
      "Ġbasis": 7186,
      "Ġintegrating": 7187,
      "Ġtactics": 7188,
      "ĠPot": 7189,
      "ĠTraditional": 7190,
      "asts": 7191,
      "ĠCalifornia": 7192,
      "Ġkept": 7193,
      "Ġtalking": 7194,
      "ĠBas": 7195,
      "olk": 7196,
      "ĠSelf": 7197,
      "Ġcrack": 7198,
      "ecific": 7199,
      "Ġsubtle": 7200,
      "LE": 7201,
      "Ġfinds": 7202,
      "ressed": 7203,
      "ĠWhich": 7204,
      "Ġsudd": 7205,
      "ĠSomet": 7206,
      "Ġreferr": 7207,
      "Ġmarginal": 7208,
      "Ġschedules": 7209,
      "ĠDes": 7210,
      "Pretend": 7211,
      "Ġcovered": 7212,
      "Ġnu": 7213,
      "then": 7214,
      "Ġpictures": 7215,
      "Ġharmony": 7216,
      "rate": 7217,
      "Ġreusable": 7218,
      "onym": 7219,
      "Ġrealize": 7220,
      "hop": 7221,
      "ora": 7222,
      "Ġgal": 7223,
      "Ġtablespoons": 7224,
      "Ġranking": 7225,
      "ĠReduc": 7226,
      "Ġhighlighting": 7227,
      "Ġhosting": 7228,
      "abil": 7229,
      "Ġtherapist": 7230,
      "Ġprec": 7231,
      "itivity": 7232,
      "ĠMexico": 7233,
      "ucle": 7234,
      "Ġjumps": 7235,
      "ĠSupp": 7236,
      "Ġanimation": 7237,
      "Ġhero": 7238,
      "Ġworkload": 7239,
      "Ġsummarize": 7240,
      "ĠEgypt": 7241,
      "Ġevolution": 7242,
      "Ġillustrate": 7243,
      "ĠTaking": 7244,
      "Compose": 7245,
      "ĠUd": 7246,
      "Ġpolitics": 7247,
      "Ġblazer": 7248,
      "asm": 7249,
      "atching": 7250,
      "Ġharvest": 7251,
      "width": 7252,
      "arter": 7253,
      "ĠBias": 7254,
      "Ġreleased": 7255,
      ":**": 7256,
      "Ġflavorful": 7257,
      "Ġretailers": 7258,
      "ĠWould": 7259,
      "Ġreinforcement": 7260,
      "Ġraw": 7261,
      "Ġrecommendation": 7262,
      "ĠRenewable": 7263,
      "risk": 7264,
      "health": 7265,
      "Ġreplaced": 7266,
      "Ġisolation": 7267,
      "ivate": 7268,
      "Ġspicy": 7269,
      "ibly": 7270,
      "Ġoverl": 7271,
      "14": 7272,
      "Ġtraum": 7273,
      "uctu": 7274,
      "Ġcompliance": 7275,
      "Ġelev": 7276,
      "Ġsafely": 7277,
      "Ġfluctu": 7278,
      "lesh": 7279,
      "mber": 7280,
      "Ġinstallation": 7281,
      "Ġtrouble": 7282,
      "Ġanalyzed": 7283,
      "bell": 7284,
      "Ġreliability": 7285,
      "Ġalt": 7286,
      "Ġapple": 7287,
      "Ġinflammation": 7288,
      "Ġaccents": 7289,
      "ferent": 7290,
      "uous": 7291,
      "ooting": 7292,
      "Ġblouse": 7293,
      "Ġcoaching": 7294,
      "text": 7295,
      "ppings": 7296,
      "Ġshowing": 7297,
      "Ġalbum": 7298,
      "lim": 7299,
      "ĠAnalysis": 7300,
      "oad": 7301,
      "feren": 7302,
      "ĠHol": 7303,
      "ĠItaly": 7304,
      "MS": 7305,
      "ĠFran": 7306,
      "Ġgets": 7307,
      "roup": 7308,
      "Ġoccurre": 7309,
      "iche": 7310,
      "Ġsymbols": 7311,
      "Ġcreamy": 7312,
      "Ġvinegar": 7313,
      "allic": 7314,
      "ĠWestern": 7315,
      "ĠClass": 7316,
      "mes": 7317,
      "Ġ199": 7318,
      "Ġward": 7319,
      "Ġanomal": 7320,
      "Ġowner": 7321,
      "employ": 7322,
      "Ġjar": 7323,
      "Ġcooperation": 7324,
      "Ġmillions": 7325,
      "Ġdiversification": 7326,
      "Ġdigest": 7327,
      "Ġthread": 7328,
      "Ġtags": 7329,
      "Ġwise": 7330,
      "otic": 7331,
      "ĠAddress": 7332,
      "Ġcaught": 7333,
      "icians": 7334,
      "kin": 7335,
      "Ġevening": 7336,
      "urric": 7337,
      "ĠProduct": 7338,
      "Ġcardiovascular": 7339,
      "Ġdatabases": 7340,
      "Your": 7341,
      "ĠAsana": 7342,
      "Ġvisuals": 7343,
      "Ġlas": 7344,
      "orie": 7345,
      "Ġdiscrimin": 7346,
      "Ġphilosop": 7347,
      "Ġgraphic": 7348,
      "ĠAny": 7349,
      "Ġconstra": 7350,
      "Ġpaths": 7351,
      "Ġgran": 7352,
      "Ġregulate": 7353,
      "ilant": 7354,
      "uation": 7355,
      "Ġlaun": 7356,
      "Ġshorter": 7357,
      "Ġevolving": 7358,
      "ifting": 7359,
      "outs": 7360,
      "Ġwaiting": 7361,
      "Ġexplo": 7362,
      "Ġcustoms": 7363,
      "Ġstoring": 7364,
      "log": 7365,
      "orient": 7366,
      "aware": 7367,
      "Ġcake": 7368,
      "uality": 7369,
      "Ġautomating": 7370,
      "ounce": 7371,
      "ĠEr": 7372,
      "Ġclosed": 7373,
      "ĠToday": 7374,
      "ĠUnion": 7375,
      "Ġaimed": 7376,
      "ĠBu": 7377,
      "Ġprem": 7378,
      "Ġannual": 7379,
      "Ġdetermination": 7380,
      "ĠVerse": 7381,
      "ĠBay": 7382,
      "Ġperforms": 7383,
      "Ġanticip": 7384,
      "Ġhyp": 7385,
      "Ġminor": 7386,
      "ĠShow": 7387,
      "Ġprompts": 7388,
      "Ġcock": 7389,
      "iquid": 7390,
      "tering": 7391,
      "ellect": 7392,
      "ales": 7393,
      "ĠHel": 7394,
      "Ġrefres": 7395,
      "(\"": 7396,
      "Ġgrain": 7397,
      "ĠSent": 7398,
      "Ġsignal": 7399,
      "Ġprinted": 7400,
      "Ġimpossible": 7401,
      "Ġphotography": 7402,
      "page": 7403,
      "Ġcontinuous": 7404,
      "ĠBest": 7405,
      "alities": 7406,
      "Ġcutting": 7407,
      "Ġeducate": 7408,
      "ĠMich": 7409,
      "Ġgrav": 7410,
      "Ġbasket": 7411,
      "Ġspots": 7412,
      "Ġdeforestation": 7413,
      "Art": 7414,
      "cies": 7415,
      "AD": 7416,
      "robe": 7417,
      "Ġpresented": 7418,
      "Ġalerts": 7419,
      "ratic": 7420,
      "Ġsofa": 7421,
      "Ġknees": 7422,
      "Ġnoticed": 7423,
      "Ġstation": 7424,
      "mal": 7425,
      "Ġapprox": 7426,
      "ĠMac": 7427,
      "Ġschol": 7428,
      "abular": 7429,
      "Ġrecharge": 7430,
      "Ġfrequent": 7431,
      "ĠTim": 7432,
      "rimp": 7433,
      "Ġrepresenting": 7434,
      "Ġnerv": 7435,
      "Ġestimate": 7436,
      "oom": 7437,
      "Ġbact": 7438,
      "Ġurgency": 7439,
      "Ġsad": 7440,
      "Ġprioritizing": 7441,
      "oices": 7442,
      "found": 7443,
      "ĠAdding": 7444,
      "Ġnorms": 7445,
      "semb": 7446,
      "Ġera": 7447,
      "Ġbeat": 7448,
      "Ġtransformed": 7449,
      "omodor": 7450,
      "Ġboards": 7451,
      "Ġownership": 7452,
      "Ġdomain": 7453,
      "ĠAPIs": 7454,
      "hett": 7455,
      "ĠAccount": 7456,
      "ĠSum": 7457,
      "Ġ2019": 7458,
      "Ñģ": 7459,
      "Ġdelicate": 7460,
      "Ġbreaches": 7461,
      "Ġshall": 7462,
      "ague": 7463,
      "esan": 7464,
      "ĠStr": 7465,
      "ĠCode": 7466,
      "ĠAug": 7467,
      "Ġsensory": 7468,
      "Ġtire": 7469,
      "Ġbeige": 7470,
      "ĠRead": 7471,
      "Ġhospit": 7472,
      "Ġconducting": 7473,
      "Ġfigures": 7474,
      "Ġcombinations": 7475,
      "Ġfilters": 7476,
      "Ġpaired": 7477,
      "value": 7478,
      "Yeah": 7479,
      "Ġmoral": 7480,
      "Ġworry": 7481,
      "Ġchun": 7482,
      "Ġdiscussions": 7483,
      "Ġethics": 7484,
      "Ġpsychological": 7485,
      "Ġclassify": 7486,
      "Ġmilest": 7487,
      "Ġtoppings": 7488,
      "Ġgreatly": 7489,
      "orrect": 7490,
      "ĠInvesting": 7491,
      "Hey": 7492,
      "Ġresort": 7493,
      "Ġsupplements": 7494,
      "ĠFresh": 7495,
      "ĠBan": 7496,
      "Ġproducing": 7497,
      "Ġtourists": 7498,
      "ĠAsia": 7499,
      "Ġstrategic": 7500,
      "Ġcoat": 7501,
      "Ġfant": 7502,
      "Ġdowns": 7503,
      "ushed": 7504,
      "Ġdesire": 7505,
      "!\"": 7506,
      "Ġtreated": 7507,
      "Ġvia": 7508,
      "ĠTransp": 7509,
      "ĠBring": 7510,
      "Ġfactorial": 7511,
      "ndrome": 7512,
      "ĠKore": 7513,
      "issance": 7514,
      "ĠAltern": 7515,
      "Ġgrad": 7516,
      "jection": 7517,
      "ĠStir": 7518,
      "Ġmissed": 7519,
      "Ġprediction": 7520,
      "Ġauthorities": 7521,
      "Ġnested": 7522,
      "Ġsending": 7523,
      "Ġsubstitute": 7524,
      "ĠSoph": 7525,
      "armesan": 7526,
      "Ġtie": 7527,
      "Ġsays": 7528,
      "Ġgene": 7529,
      "ĠCommunication": 7530,
      "Ġtold": 7531,
      "ĠPet": 7532,
      "ĠDevelopment": 7533,
      "Sh": 7534,
      "Ġdisadvant": 7535,
      "hetti": 7536,
      "gs": 7537,
      "Ġstands": 7538,
      "opt": 7539,
      "Ġinstances": 7540,
      "Ġclassroom": 7541,
      "orship": 7542,
      "Ġ|": 7543,
      "Ġsport": 7544,
      "Ġlandscapes": 7545,
      "500": 7546,
      "Ġmer": 7547,
      "Ġsetbacks": 7548,
      "rown": 7549,
      "Ġslice": 7550,
      "Ġappeal": 7551,
      "anted": 7552,
      "made": 7553,
      "ĠTrack": 7554,
      "Ġsurgery": 7555,
      "ĠAssoci": 7556,
      "Ġfaith": 7557,
      "Ġanomalies": 7558,
      "Con": 7559,
      "Ġreputable": 7560,
      "ĠShop": 7561,
      "Ġgate": 7562,
      "ĠBlue": 7563,
      "Ġinspiring": 7564,
      "aghetti": 7565,
      "Ġrecently": 7566,
      "Ġassigned": 7567,
      "Ġbroader": 7568,
      "Ġdrones": 7569,
      "Ġmole": 7570,
      "Ġoutline": 7571,
      "ĠWord": 7572,
      "Ġadapted": 7573,
      "ĠAngel": 7574,
      "Ġstructured": 7575,
      "ael": 7576,
      "Ġportray": 7577,
      "ulating": 7578,
      "Ġforces": 7579,
      "Ġguitar": 7580,
      "Ġlogistics": 7581,
      "Ġhack": 7582,
      "Ġ2018": 7583,
      "Ġindicates": 7584,
      "Ġokay": 7585,
      "Ġsuspicious": 7586,
      "Ġnutritional": 7587,
      "oors": 7588,
      "ĠListen": 7589,
      "Ġscre": 7590,
      "Ġpreference": 7591,
      "Ġdemographics": 7592,
      "Ġsimulate": 7593,
      "Ġcocktail": 7594,
      "Ġcrypt": 7595,
      "aceted": 7596,
      "ĠEmma": 7597,
      "omb": 7598,
      "Ġhomemade": 7599,
      "Ġtruth": 7600,
      "ĠSoft": 7601,
      "ĠScience": 7602,
      "ĠAnalyze": 7603,
      "BM": 7604,
      "Ġhydro": 7605,
      "ĠCat": 7606,
      "ĠPlant": 7607,
      "uro": 7608,
      "Ġflag": 7609,
      "Ġexplanations": 7610,
      "Ġcomment": 7611,
      "Ġentities": 7612,
      "ĠDigital": 7613,
      "Ġpreserving": 7614,
      "ĠHome": 7615,
      "nected": 7616,
      "ĠMark": 7617,
      "Ġpackages": 7618,
      "ĠEmpire": 7619,
      "Ġdanger": 7620,
      "Ġexpense": 7621,
      "Ġteamwork": 7622,
      "Ġsandw": 7623,
      "Ġdisapp": 7624,
      "Ġforced": 7625,
      "Ġincorporated": 7626,
      "cil": 7627,
      "ker": 7628,
      "Ġconferences": 7629,
      "umn": 7630,
      "Ġcombines": 7631,
      "Ġmerg": 7632,
      "Ġknee": 7633,
      "Ġspeakers": 7634,
      "Ġvendors": 7635,
      "200": 7636,
      "ĠUN": 7637,
      "Ġharder": 7638,
      "Ġpotato": 7639,
      "Ġenhancing": 7640,
      "Ġdurable": 7641,
      "Ġlosing": 7642,
      "ĠCreating": 7643,
      "Ġunus": 7644,
      "ĠWrit": 7645,
      "Ġpreparation": 7646,
      "Ġprevention": 7647,
      "Ġbrings": 7648,
      "Ġlearners": 7649,
      "ĠRO": 7650,
      "ĠCr": 7651,
      "Ġspirit": 7652,
      "normal": 7653,
      "Ġmur": 7654,
      "Ġlentils": 7655,
      "oxide": 7656,
      "Ġwardrobe": 7657,
      "see": 7658,
      "ĠHist": 7659,
      "Ġsupported": 7660,
      "Ġmistake": 7661,
      "ĠVeget": 7662,
      "ĠExercise": 7663,
      "ĠIndividual": 7664,
      "Ġvent": 7665,
      "Ġentirely": 7666,
      "lab": 7667,
      "Ġcouple": 7668,
      "Ġtroub": 7669,
      "Ġblank": 7670,
      "ĠProf": 7671,
      "ĠUsers": 7672,
      "abulary": 7673,
      "Ġbridge": 7674,
      "enger": 7675,
      "cket": 7676,
      "ĠBridge": 7677,
      "Ġsamples": 7678,
      "Ġcontainers": 7679,
      "Ġmort": 7680,
      "Ġalive": 7681,
      "Ġtreating": 7682,
      "Ġthousands": 7683,
      "Ġcorpor": 7684,
      "bra": 7685,
      "Ġnavy": 7686,
      "Ġofficial": 7687,
      "Ġ2021": 7688,
      "ucch": 7689,
      "Ġnoodles": 7690,
      "ologists": 7691,
      "Ġsod": 7692,
      "ĠFrancis": 7693,
      "Ġdestro": 7694,
      "wer": 7695,
      "Ġcontrolled": 7696,
      "Ġthoroughly": 7697,
      "Ġmac": 7698,
      "ellectual": 7699,
      "Ġ.<|": 7700,
      "Ġopened": 7701,
      "Ġwindows": 7702,
      "Ġginger": 7703,
      "insp": 7704,
      "Ġsan": 7705,
      "ĠContent": 7706,
      "endant": 7707,
      "formance": 7708,
      "Ġseating": 7709,
      "ĠDress": 7710,
      "ĠCommunity": 7711,
      "Ġdeclare": 7712,
      "Ġformer": 7713,
      "Ġda": 7714,
      "Ġharsh": 7715,
      "Ġcharts": 7716,
      "Ġtack": 7717,
      "Ġindicating": 7718,
      "Ġdrawing": 7719,
      "Ġintegrity": 7720,
      "Ġwarning": 7721,
      "Ġstrengthen": 7722,
      "Ġrelying": 7723,
      "Im": 7724,
      "net": 7725,
      "Ġnarrow": 7726,
      "ĠDI": 7727,
      "ĠTower": 7728,
      "asy": 7729,
      "ĠQuick": 7730,
      "Ġmeasuring": 7731,
      "ĠSeason": 7732,
      "Ġdrivers": 7733,
      "ĠIsl": 7734,
      "Ġprimarily": 7735,
      "Ġgrows": 7736,
      "ĠMedia": 7737,
      "Ġtimely": 7738,
      "Ġhaven": 7739,
      "Ġeliminate": 7740,
      "host": 7741,
      "Ġinvested": 7742,
      "Ġremoved": 7743,
      "Ġcryst": 7744,
      "ĠPomodor": 7745,
      "Ġodd": 7746,
      "gn": 7747,
      "umbled": 7748,
      "Ġorganizing": 7749,
      "Ġson": 7750,
      "Ġpull": 7751,
      "yon": 7752,
      "Ġsunlight": 7753,
      "veill": 7754,
      "Ġhearing": 7755,
      "Ġappears": 7756,
      "Ġalle": 7757,
      "Ġlesson": 7758,
      "Ġgear": 7759,
      "Ġhesitate": 7760,
      "Ġexactly": 7761,
      "Ġreef": 7762,
      "Ġaffecting": 7763,
      "Ġmic": 7764,
      "oop": 7765,
      "veillance": 7766,
      "Ġdetermining": 7767,
      "ĠPan": 7768,
      "rative": 7769,
      "ford": 7770,
      "bur": 7771,
      "Ġsuccesses": 7772,
      "Ġmoves": 7773,
      "Ġresulted": 7774,
      "SD": 7775,
      "Ġaccident": 7776,
      "Ġevenly": 7777,
      "FT": 7778,
      "ĠPres": 7779,
      "Ġvolunteer": 7780,
      "ĠAustralia": 7781,
      "Ġattribute": 7782,
      "ĠBel": 7783,
      "tein": 7784,
      "Ġpean": 7785,
      "Ġspeaker": 7786,
      "ycle": 7787,
      "Ġsoul": 7788,
      "SE": 7789,
      "usivity": 7790,
      "aj": 7791,
      "Ġofficials": 7792,
      "ato": 7793,
      "Ġsole": 7794,
      "ĠDel": 7795,
      "Fi": 7796,
      "ĠEnvironmental": 7797,
      "Ġadditionally": 7798,
      "Ġconsists": 7799,
      "iable": 7800,
      "li": 7801,
      "meg": 7802,
      "Ġknowing": 7803,
      "One": 7804,
      "otypes": 7805,
      "Ġincredibly": 7806,
      "Ġmobility": 7807,
      "ĠCanada": 7808,
      "Ġpestic": 7809,
      "Ġexplicit": 7810,
      "Ġcoral": 7811,
      "Ġhasht": 7812,
      "Ġqualified": 7813,
      "ooth": 7814,
      "cers": 7815,
      "Ġagents": 7816,
      "ĠFund": 7817,
      "Ġagency": 7818,
      "Ġsurrounded": 7819,
      "Ġmoisture": 7820,
      "99": 7821,
      "Ġsentences": 7822,
      "obal": 7823,
      "Ġshoulders": 7824,
      "Ġexceptions": 7825,
      "Ġpoems": 7826,
      "ronics": 7827,
      "Ġreveal": 7828,
      "Ġfluid": 7829,
      "Ġsaut": 7830,
      "Ġ2020": 7831,
      "xid": 7832,
      "alle": 7833,
      "ìĹ": 7834,
      "array": 7835,
      "osion": 7836,
      "Ġdenim": 7837,
      "ĠGard": 7838,
      "Ġengineers": 7839,
      "ĠTrain": 7840,
      "Ġbubble": 7841,
      "18": 7842,
      "Ġtransforming": 7843,
      "Ġleaf": 7844,
      "Ġinspect": 7845,
      "ĠLog": 7846,
      "Ġviewers": 7847,
      "MOSS": 7848,
      "Ġuniversity": 7849,
      "Ġalongside": 7850,
      "ĠsautÃ©": 7851,
      "ushi": 7852,
      "Flow": 7853,
      "atin": 7854,
      "Ġorange": 7855,
      "ĠCompany": 7856,
      "Ġouter": 7857,
      "Ġshirt": 7858,
      "ĠSpec": 7859,
      "ĠEvaluate": 7860,
      "Ġwaters": 7861,
      "reheat": 7862,
      "rab": 7863,
      "Ġnegoti": 7864,
      "åĴ": 7865,
      "ĠChristian": 7866,
      "Ġconfusion": 7867,
      "drop": 7868,
      "ĠOptimize": 7869,
      "ubs": 7870,
      "Ġ//": 7871,
      "Ġpoly": 7872,
      "ucchini": 7873,
      "Ġrevers": 7874,
      "Ġfocal": 7875,
      "Ġtang": 7876,
      "Ġnucle": 7877,
      "Ġmarginalized": 7878,
      "ĠJob": 7879,
      "ĠGold": 7880,
      "Ġfly": 7881,
      "ĠAR": 7882,
      "Ġfather": 7883,
      "Ġcrust": 7884,
      "These": 7885,
      "Ġassignments": 7886,
      "ĠMindfulness": 7887,
      "Ġwriter": 7888,
      "Ġmetallic": 7889,
      "ĠMult": 7890,
      "rets": 7891,
      "Ġfacilitate": 7892,
      "Ġchips": 7893,
      "Ġunst": 7894,
      "ĠPreheat": 7895,
      "year": 7896,
      "Ġpalind": 7897,
      "Ġunusual": 7898,
      "Ġscores": 7899,
      "Ġoperators": 7900,
      "urities": 7901,
      "Ġreplacement": 7902,
      "Ġvictim": 7903,
      "rip": 7904,
      "angered": 7905,
      "Ġcherry": 7906,
      "Ġnoting": 7907,
      "Ġlasting": 7908,
      "Ġhealing": 7909,
      "Ġcalculated": 7910,
      "Ġwhenever": 7911,
      "Ġmetap": 7912,
      "Ġloans": 7913,
      "Ġarrived": 7914,
      "Ġritual": 7915,
      "åĴĮ": 7916,
      "oriented": 7917,
      "ioxid": 7918,
      "ĠZara": 7919,
      "Ġdiss": 7920,
      "Ġfindings": 7921,
      "itudes": 7922,
      "Ġrepresentatives": 7923,
      "Ġspoken": 7924,
      "Ġequity": 7925,
      "Ġforever": 7926,
      "tains": 7927,
      "Ġstere": 7928,
      "Ġcompete": 7929,
      "Ġworkspace": 7930,
      "Ġten": 7931,
      "ĠRuss": 7932,
      "ulum": 7933,
      "iments": 7934,
      "Ġcorner": 7935,
      "Ġhairstyle": 7936,
      "Ġglow": 7937,
      "ĠMag": 7938,
      "40": 7939,
      "ĠBer": 7940,
      "Ġvitamin": 7941,
      "Ġscenes": 7942,
      "æĪ": 7943,
      "75": 7944,
      "Ġapolog": 7945,
      "Ġped": 7946,
      "Ġtab": 7947,
      "ĠTransparency": 7948,
      "interest": 7949,
      "urious": 7950,
      "Ġwondering": 7951,
      "ĠTreat": 7952,
      "Ġkid": 7953,
      "ĠFoster": 7954,
      "fully": 7955,
      "Ġboy": 7956,
      "Ġrelaxed": 7957,
      "Ġgrocery": 7958,
      "ĠEngine": 7959,
      "Ġparticipation": 7960,
      "Ġtherefore": 7961,
      "Ġmotivate": 7962,
      "imens": 7963,
      "Ġupdating": 7964,
      "ĠNode": 7965,
      "ĠDi": 7966,
      "Ġdiscussion": 7967,
      "Ġfake": 7968,
      "Ġincom": 7969,
      "Ġpreval": 7970,
      "ĠSmith": 7971,
      "Ġunintended": 7972,
      "Ġsmell": 7973,
      "oven": 7974,
      "Ġcha": 7975,
      "ferencing": 7976,
      "namon": 7977,
      "kle": 7978,
      "Ġabnormal": 7979,
      "ĠBig": 7980,
      "Ġauthority": 7981,
      "Ġextended": 7982,
      "Ġreceiving": 7983,
      "Ġpatience": 7984,
      "ĠProviding": 7985,
      "Ġproduces": 7986,
      "ĠHard": 7987,
      "Ġvocabulary": 7988,
      "çĶ": 7989,
      "ĠLou": 7990,
      "ĠSometimes": 7991,
      "ĠGrand": 7992,
      "Ġoils": 7993,
      "Ġlaugh": 7994,
      "Ġvanilla": 7995,
      "ortion": 7996,
      "edy": 7997,
      "Ġcomplications": 7998,
      "Ġlaunched": 7999,
      "ĠSche": 8000,
      "Ġbegins": 8001,
      "specific": 8002,
      "Ġpuzzles": 8003,
      "enities": 8004,
      "amil": 8005,
      "trained": 8006,
      "Ġtiss": 8007,
      "Ġlock": 8008,
      "Ġguides": 8009,
      "Ġevaluating": 8010,
      "Ġgun": 8011,
      "ĠInstall": 8012,
      "Ġsandals": 8013,
      "ĠTensor": 8014,
      "Ġreported": 8015,
      "Ġbroken": 8016,
      "ĠCentral": 8017,
      "Ġscenic": 8018,
      "Ġ21": 8019,
      "brid": 8020,
      "Ġinterf": 8021,
      "ronaut": 8022,
      "Ġbust": 8023,
      "Ġattach": 8024,
      "sec": 8025,
      "ĠWi": 8026,
      "Ġrespectively": 8027,
      "aker": 8028,
      "Ġcloves": 8029,
      "acon": 8030,
      "Ġdriver": 8031,
      "ĠIR": 8032,
      "ĠFirstly": 8033,
      "obe": 8034,
      "ĠJane": 8035,
      ",âĢĿ": 8036,
      "Ġbillion": 8037,
      "Ġpink": 8038,
      "Ġreaches": 8039,
      "ĠLife": 8040,
      "inst": 8041,
      "ĠSaf": 8042,
      "ĠYes": 8043,
      "\\_\\_\\_\\_": 8044,
      "Ġvalued": 8045,
      "ĠBet": 8046,
      "ĠAns": 8047,
      "ventional": 8048,
      "ĠTransport": 8049,
      "Ġcombining": 8050,
      "Hello": 8051,
      "ĠWhite": 8052,
      "ĠIr": 8053,
      "ĠSun": 8054,
      "Ġfan": 8055,
      "Ġexclusive": 8056,
      "Ġantioxid": 8057,
      "Ġpushing": 8058,
      "ĠConnect": 8059,
      "Ġfrozen": 8060,
      "inch": 8061,
      "Ġsyndrome": 8062,
      "Ġmoderate": 8063,
      "Ġcelebrated": 8064,
      "ĠPair": 8065,
      "Ġendless": 8066,
      "Ġbanana": 8067,
      "Ġcart": 8068,
      "Ġestimated": 8069,
      "Ġrepresented": 8070,
      "Ġpunct": 8071,
      "Ġstead": 8072,
      "ĠJour": 8073,
      "Ġmaps": 8074,
      "...": 8075,
      "Ġgains": 8076,
      "Ġvisited": 8077,
      "70": 8078,
      "Ġlicens": 8079,
      "Ġenjoyed": 8080,
      "Ġpersonnel": 8081,
      ".\"<|": 8082,
      "Ġcurtains": 8083,
      "minute": 8084,
      "healthy": 8085,
      "espace": 8086,
      "ĠCosta": 8087,
      "Ġwelcome": 8088,
      "ĠInv": 8089,
      "met": 8090,
      "Ġsalads": 8091,
      "erb": 8092,
      "Ġtranslate": 8093,
      "ĠAutonomous": 8094,
      "zil": 8095,
      "ĠPomodoro": 8096,
      "ĠBack": 8097,
      "ails": 8098,
      "ĠCSV": 8099,
      "ĠLead": 8100,
      "Ġproc": 8101,
      "Ġattendees": 8102,
      "Ġguess": 8103,
      "Ġcountless": 8104,
      "Ġsprinkle": 8105,
      "An": 8106,
      "Ġmouth": 8107,
      "Ġendangered": 8108,
      "Ġplanting": 8109,
      "action": 8110,
      "ĠUdemy": 8111,
      "lymp": 8112,
      "isted": 8113,
      "Ġmath": 8114,
      "Ġlegacy": 8115,
      "rency": 8116,
      "izzle": 8117,
      "Ġturbines": 8118,
      "Ġfears": 8119,
      "ĠChild": 8120,
      "Us": 8121,
      "ĠTO": 8122,
      "Ġedges": 8123,
      "olic": 8124,
      "Ġtargeting": 8125,
      "Ġnegatively": 8126,
      "Ġirr": 8127,
      "ĠNative": 8128,
      "Ġtemples": 8129,
      "Ġfundamental": 8130,
      "ects": 8131,
      "Ġtradition": 8132,
      "Ġdioxide": 8133,
      "Ġencouraged": 8134,
      "Ġaesthetic": 8135,
      "Ġfemale": 8136,
      "Ġapartment": 8137,
      "For": 8138,
      "ĠClick": 8139,
      "Ġpossibility": 8140,
      "Ġdisput": 8141,
      "PR": 8142,
      "Ġshrimp": 8143,
      "Ġaccessing": 8144,
      "ĠPo": 8145,
      "ustration": 8146,
      "Ġhier": 8147,
      "Ġacids": 8148,
      "Ġunlike": 8149,
      "Ġforums": 8150,
      "Ġindoor": 8151,
      "ĠFit": 8152,
      "Ġvisible": 8153,
      "My": 8154,
      "ĠService": 8155,
      "ouraging": 8156,
      "Ġadm": 8157,
      "Ġputting": 8158,
      "iku": 8159,
      "understand": 8160,
      "Ġurgent": 8161,
      "ULL": 8162,
      "iest": 8163,
      "ĠWear": 8164,
      "ye": 8165,
      "Ġdamaged": 8166,
      "ifferent": 8167,
      "ĠNetwork": 8168,
      "ĠDavid": 8169,
      "ĠObject": 8170,
      "Ġphysically": 8171,
      "lands": 8172,
      "olf": 8173,
      "Ġsurveillance": 8174,
      "ĠGroup": 8175,
      "Ġliquid": 8176,
      "aissance": 8177,
      "ĠMaya": 8178,
      "Ġintellectual": 8179,
      "Ġadopting": 8180,
      "plete": 8181,
      "16": 8182,
      "ĠGermany": 8183,
      "ols": 8184,
      "Ġamenities": 8185,
      "ĠKey": 8186,
      "Ġdivided": 8187,
      "Ġadequ": 8188,
      "Ġloose": 8189,
      "Ġtit": 8190,
      "bert": 8191,
      "ĠModel": 8192,
      "ĠRuby": 8193,
      "Ġcrispy": 8194,
      "Ġcontribution": 8195,
      "Ġoutbre": 8196,
      "field": 8197,
      "Ġmathematical": 8198,
      "Ġorigin": 8199,
      "Ġsharp": 8200,
      "ena": 8201,
      "ĠSil": 8202,
      "ĠRenaissance": 8203,
      "Ġbasil": 8204,
      "Ġcompares": 8205,
      "erial": 8206,
      "ĠZe": 8207,
      "Ġinterpre": 8208,
      "iano": 8209,
      "Ġcumin": 8210,
      "Ġabuse": 8211,
      "Ġoats": 8212,
      "ĠSearch": 8213,
      "ĠOUT": 8214,
      "Ġconference": 8215,
      "osit": 8216,
      "Ġforecasting": 8217,
      "Ġclustering": 8218,
      "Ġscholars": 8219,
      "ĠStick": 8220,
      "ĠHead": 8221,
      "ĠYoga": 8222,
      "ĠClean": 8223,
      "Ġski": 8224,
      "Ġages": 8225,
      "ĠFrancisco": 8226,
      "Ġthanks": 8227,
      "Ġsuited": 8228,
      "Ġclutch": 8229,
      "ĠVisitors": 8230,
      "Ġsubsequ": 8231,
      "ĠRecogn": 8232,
      "Ġethnic": 8233,
      "ĠInit": 8234,
      "ĠTensorFlow": 8235,
      "Ġplate": 8236,
      "Ġjoint": 8237,
      "atility": 8238,
      "Ġminute": 8239,
      "Ġattributes": 8240,
      "Ġsilver": 8241,
      "Ġauthorized": 8242,
      "Ġlogic": 8243,
      "Ġjudgment": 8244,
      "ĠDirect": 8245,
      "sk": 8246,
      "rup": 8247,
      "ĠIBM": 8248,
      "Ġfemin": 8249,
      "ĠBuddh": 8250,
      "Ġconfirm": 8251,
      "Ġinequ": 8252,
      "ĠJoin": 8253,
      "izzes": 8254,
      "NNs": 8255,
      "Ġinfluencer": 8256,
      "Ġreferences": 8257,
      "Ġunknown": 8258,
      "Ġcollections": 8259,
      "ĠDevelopers": 8260,
      "ĠUK": 8261,
      "bul": 8262,
      "Ġfee": 8263,
      "consuming": 8264,
      "indu": 8265,
      "Ġtoss": 8266,
      "Ġtoast": 8267,
      "Ġpret": 8268,
      "cks": 8269,
      "Ġlip": 8270,
      "ĠSentiment": 8271,
      "Ġapproximately": 8272,
      "Ġinvolving": 8273,
      "Ġendurance": 8274,
      "Ġrecording": 8275,
      "zing": 8276,
      "ĠFound": 8277,
      "edia": 8278,
      "Ġisn": 8279,
      "Ġadvances": 8280,
      "Ġpron": 8281,
      "Ġinsect": 8282,
      "Ġadvocate": 8283,
      "bies": 8284,
      "Ġfort": 8285,
      "Ġlime": 8286,
      "Ġbench": 8287,
      "Ġtort": 8288,
      "ria": 8289,
      "Ġshowcases": 8290,
      "Ġtap": 8291,
      "ĠWhole": 8292,
      "Ġpromising": 8293,
      "Ġpromin": 8294,
      "Ġdiscriminatory": 8295,
      "Ġspring": 8296,
      "ĠPass": 8297,
      "Ġinfections": 8298,
      "ĠMut": 8299,
      "rete": 8300,
      "Ġship": 8301,
      "Ġdividing": 8302,
      "Ġliterary": 8303,
      "Ġrelative": 8304,
      "Ġrefrig": 8305,
      "Ġstruggled": 8306,
      "Ġreform": 8307,
      "ĠMonitoring": 8308,
      "Ġsculpture": 8309,
      "ĠThink": 8310,
      "Ġstages": 8311,
      "Artificial": 8312,
      "factor": 8313,
      "Ġfulfill": 8314,
      "Please": 8315,
      "inen": 8316,
      "Ġwooden": 8317,
      "Ġlocals": 8318,
      "ĠColor": 8319,
      "tion": 8320,
      "ĠProcessing": 8321,
      "Ġdeployed": 8322,
      "Ġdecimal": 8323,
      "Ġdiversify": 8324,
      "Ġresponding": 8325,
      "Ġratings": 8326,
      "Ġrig": 8327,
      "Ġtransformation": 8328,
      "Ġlamb": 8329,
      "ä½": 8330,
      "Ġvenue": 8331,
      "ĠSales": 8332,
      "Ġguest": 8333,
      "Ġintroduce": 8334,
      "Ġformats": 8335,
      "Ġtutoring": 8336,
      "Ġru": 8337,
      "Ġexistence": 8338,
      "ĠMaybe": 8339,
      "lla": 8340,
      "Ġpartnership": 8341,
      "othe": 8342,
      "Ġlocally": 8343,
      "Ġshut": 8344,
      "asp": 8345,
      "ĠMiddle": 8346,
      "Ġartifacts": 8347,
      "Ġwet": 8348,
      "ĠSpace": 8349,
      "Ġaccommodation": 8350,
      "Ġunfair": 8351,
      "Ġconversational": 8352,
      "ifier": 8353,
      "roph": 8354,
      "Ġsatellite": 8355,
      "ĠTurn": 8356,
      "Ġunit": 8357,
      "Ġmoved": 8358,
      "ĠHawaii": 8359,
      "Ġuneth": 8360,
      "Ġdestruction": 8361,
      "ĠDist": 8362,
      "Ġshowed": 8363,
      "inant": 8364,
      "Ġsubjects": 8365,
      "ching": 8366,
      "Ġhal": 8367,
      "hesis": 8368,
      "Ġrefreshing": 8369,
      "Ġparsley": 8370,
      "Ġenabled": 8371,
      "ĠFire": 8372,
      "Ġtrusted": 8373,
      "ĠStreet": 8374,
      "Ġabsolutely": 8375,
      "Ġmerge": 8376,
      "Ġcamping": 8377,
      "Ġturns": 8378,
      "Ġnull": 8379,
      "Ġhappened": 8380,
      "anger": 8381,
      "Ġquizzes": 8382,
      "Ġsignals": 8383,
      "Ġdelete": 8384,
      "Ġallerg": 8385,
      "Ġimpair": 8386,
      "Ġsneakers": 8387,
      "Ġdimension": 8388,
      "ĠJohns": 8389,
      "Ġconcentration": 8390,
      "ĠAssociation": 8391,
      "Ġsorts": 8392,
      "Ġlowercase": 8393,
      "ĠMost": 8394,
      "Ġcul": 8395,
      "tery": 8396,
      "unting": 8397,
      "idation": 8398,
      "Ġfloating": 8399,
      "ĠCamp": 8400,
      "Ġoccasions": 8401,
      "apping": 8402,
      "ament": 8403,
      "Ġstorm": 8404,
      "den": 8405,
      "ĠLocated": 8406,
      "Ġcodes": 8407,
      "Ġsaved": 8408,
      "Ġdistrict": 8409,
      "Ġhuge": 8410,
      "Ġcucumber": 8411,
      "isher": 8412,
      "Ġcertification": 8413,
      "ĠAndroid": 8414,
      "Ġoverhead": 8415,
      "building": 8416,
      "Ġmetric": 8417,
      "ygen": 8418,
      "Ġfost": 8419,
      "Ġembra": 8420,
      "Ġexhibits": 8421,
      "ĠExplain": 8422,
      "iter": 8423,
      "Ġinclusivity": 8424,
      "PN": 8425,
      "Ġreceives": 8426,
      "Ġdollars": 8427,
      "Ġtom": 8428,
      "imensional": 8429,
      "ocket": 8430,
      "cium": 8431,
      "Ġbackup": 8432,
      "Ġexpressing": 8433,
      "grain": 8434,
      "Ġdangers": 8435,
      "vas": 8436,
      "Ġterrain": 8437,
      "Ġmeditations": 8438,
      "Ġclub": 8439,
      "Ġbaby": 8440,
      "icksort": 8441,
      "Ġdrama": 8442,
      "Ġtransmission": 8443,
      "Ġdairy": 8444,
      "Ġunits": 8445,
      "Ġpesticides": 8446,
      "Ġdisplayed": 8447,
      "Ġbranch": 8448,
      "ĠImage": 8449,
      "pie": 8450,
      "Ġcounseling": 8451,
      "aust": 8452,
      "Ġending": 8453,
      "Ġbeings": 8454,
      "Ġrobotic": 8455,
      "Ġwheat": 8456,
      "ĠSelect": 8457,
      "ĠInstitute": 8458,
      "100": 8459,
      "Ġmemo": 8460,
      "ĠINT": 8461,
      "Ġdash": 8462,
      "ago": 8463,
      "ĠHTTP": 8464,
      "Ġincorrect": 8465,
      "Ġenjoying": 8466,
      "orted": 8467,
      "cell": 8468,
      "Ġexplainable": 8469,
      "ĠDid": 8470,
      "Ġpreparing": 8471,
      "Ġcourage": 8472,
      "ĠStar": 8473,
      "Ġbrake": 8474,
      "Ġmanufacturers": 8475,
      "Ġinitiative": 8476,
      "Ġspaghetti": 8477,
      "Ġneighb": 8478,
      "But": 8479,
      "dense": 8480,
      "Ġproposed": 8481,
      "OM": 8482,
      "Ġhat": 8483,
      "Ġunderstood": 8484,
      "Ġalmonds": 8485,
      "Ġceremony": 8486,
      "Ġpeak": 8487,
      "body": 8488,
      "Ġcinnamon": 8489,
      "Ġnewfound": 8490,
      "ĠMySQL": 8491,
      "eding": 8492,
      "Ġdigits": 8493,
      "semble": 8494,
      "Ġ60": 8495,
      "ĠMond": 8496,
      "ourse": 8497,
      "ĠWithout": 8498,
      "grade": 8499,
      "Ġcope": 8500,
      "ĠExplore": 8501,
      "Ġwellbeing": 8502,
      "Ġsuspect": 8503,
      "ham": 8504,
      "ĠAcademy": 8505,
      "Ġascending": 8506,
      "Ġcareers": 8507,
      "Ġgap": 8508,
      "Ġrepeatedly": 8509,
      "engers": 8510,
      "economic": 8511,
      "ĠPour": 8512,
      "ĠEnd": 8513,
      "Ġmining": 8514,
      "Ġcoastal": 8515,
      "Ġrough": 8516,
      "Ġleverage": 8517,
      "Ġloading": 8518,
      "ĠLike": 8519,
      "Ġshelves": 8520,
      "ĠEngage": 8521,
      "lean": 8522,
      "Ġearnings": 8523,
      "Ġcelery": 8524,
      "Ġtimer": 8525,
      "seen": 8526,
      "Ġsuppliers": 8527,
      "Ġinequalities": 8528,
      "eem": 8529,
      "comp": 8530,
      "Ġversions": 8531,
      "Ġexplored": 8532,
      "Ġinitialize": 8533,
      "Ġspa": 8534,
      "obile": 8535,
      "ĠBle": 8536,
      "Ġcontents": 8537,
      "Ġpure": 8538,
      "Ġunethical": 8539,
      "Ġimagine": 8540,
      "Ġraising": 8541,
      "Ġclaims": 8542,
      "ita": 8543,
      "Ġrising": 8544,
      "ĠAp": 8545,
      "Ġfalling": 8546,
      "isp": 8547,
      "Ġphilosophy": 8548,
      "rian": 8549,
      "ĠWhy": 8550,
      "amboo": 8551,
      "Ġdefin": 8552,
      "ĠVoice": 8553,
      "Ġdebugging": 8554,
      "Ġcurric": 8555,
      "table": 8556,
      "Ġtransmit": 8557,
      "Ġformation": 8558,
      "Ġassum": 8559,
      "ĠKnow": 8560,
      "ĠAlexa": 8561,
      "Ġroads": 8562,
      "Sp": 8563,
      "ĠChurch": 8564,
      "Ġsocieties": 8565,
      "Ġfatty": 8566,
      "Ġoccup": 8567,
      "Ġdestroy": 8568,
      "Ġdeveloper": 8569,
      "Ġrub": 8570,
      "Ġshade": 8571,
      "ĠScene": 8572,
      "Ġchannel": 8573,
      "sts": 8574,
      "Gener": 8575,
      "Ġperce": 8576,
      "ĠSir": 8577,
      "Ġgently": 8578,
      "ĠMil": 8579,
      "inspired": 8580,
      "anas": 8581,
      "Ġpacked": 8582,
      "Ġroo": 8583,
      "Ġbanks": 8584,
      "Ġdrinking": 8585,
      "Ġfinished": 8586,
      "ĠCor": 8587,
      "Ġwave": 8588,
      "rames": 8589,
      "aria": 8590,
      "urpose": 8591,
      "orous": 8592,
      "Ġexposed": 8593,
      "ĠDIY": 8594,
      "Ġsmallest": 8595,
      "inars": 8596,
      "Ġadvers": 8597,
      "ĠComput": 8598,
      "Ġranging": 8599,
      "Ġoutlines": 8600,
      "ologies": 8601,
      "ĠRica": 8602,
      "Ġinstruct": 8603,
      "ala": 8604,
      "Ġwhose": 8605,
      "oding": 8606,
      "Ġoutputs": 8607,
      "Ġrecall": 8608,
      "Ġfulfilling": 8609,
      "othermal": 8610,
      "atur": 8611,
      "Ġnotation": 8612,
      "Ġcandidate": 8613,
      "olves": 8614,
      "clud": 8615,
      "Ġinterfaces": 8616,
      "sized": 8617,
      "aints": 8618,
      "BC": 8619,
      "Ġvolunteering": 8620,
      "ailand": 8621,
      "band": 8622,
      "Ġpork": 8623,
      "ĠChall": 8624,
      "Ġholds": 8625,
      "OR": 8626,
      "ĠHeat": 8627,
      "ĠMerge": 8628,
      "Ġspect": 8629,
      "Ġbun": 8630,
      "orkeling": 8631,
      "Ġincorporates": 8632,
      "Ġfragr": 8633,
      "Ġfer": 8634,
      "Ġcommunicating": 8635,
      "Ġmale": 8636,
      "Ġeducators": 8637,
      "Ġcorporate": 8638,
      "ĠTable": 8639,
      "ĠNav": 8640,
      "ella": 8641,
      "inding": 8642,
      "Ġluxurious": 8643,
      "Ġactors": 8644,
      "ĠDAY": 8645,
      "ĠDem": 8646,
      "Once": 8647,
      "Ġdivisible": 8648,
      "Ġholiday": 8649,
      "iler": 8650,
      "Ġtroublesh": 8651,
      "Ġscreens": 8652,
      "EN": 8653,
      "Ġnice": 8654,
      "Ġeld": 8655,
      "orize": 8656,
      "ĠIce": 8657,
      "Ġequation": 8658,
      "ĠAssess": 8659,
      "arrant": 8660,
      "Ġempower": 8661,
      "ĠTransportation": 8662,
      "ĠCoc": 8663,
      "Ġrevolutionized": 8664,
      "Ġattitudes": 8665,
      "Ġdelays": 8666,
      "Ġkeeps": 8667,
      "Ġresonates": 8668,
      "ĠHI": 8669,
      "Ġshaped": 8670,
      "Ġpy": 8671,
      "åĪ": 8672,
      "everance": 8673,
      "Ġemphasize": 8674,
      "ĠOlymp": 8675,
      "è¿": 8676,
      "Ġconnecting": 8677,
      "Ġcustomization": 8678,
      "ĠIndex": 8679,
      "Ġcharging": 8680,
      "Ġmo": 8681,
      "Ġyounger": 8682,
      "uses": 8683,
      "Ġsections": 8684,
      "hav": 8685,
      "ĠRoasted": 8686,
      "Ġcustomizable": 8687,
      "Ġreactions": 8688,
      "igue": 8689,
      "ixtures": 8690,
      "Ġcrew": 8691,
      "Ġelectronics": 8692,
      "Ġcoping": 8693,
      "Ġdiagnost": 8694,
      "Ġbacteria": 8695,
      "ĠIncorporating": 8696,
      "Ġsecurely": 8697,
      "uction": 8698,
      "Ġphen": 8699,
      "Ġrecognizing": 8700,
      "SL": 8701,
      "astics": 8702,
      "Ġbreathtaking": 8703,
      "Ġsculptures": 8704,
      "meric": 8705,
      "ĠFree": 8706,
      "Ġwhisk": 8707,
      "sels": 8708,
      "otta": 8709,
      "ĠWomen": 8710,
      "ĠQuest": 8711,
      "agraph": 8712,
      "reed": 8713,
      "Ġintegral": 8714,
      "Ġzucchini": 8715,
      "ĠQuinoa": 8716,
      "Ġmystery": 8717,
      "Ġimpression": 8718,
      "ĠBeg": 8719,
      "ĠDNA": 8720,
      "ĠAva": 8721,
      "23": 8722,
      "Ġhierarch": 8723,
      "Ġaudit": 8724,
      "Ġscenery": 8725,
      "Ġgeometric": 8726,
      "Ġgone": 8727,
      "Ġvisualize": 8728,
      "ĠXML": 8729,
      "Ġerosion": 8730,
      "ĠGive": 8731,
      "Ġbottles": 8732,
      "Ġautomatic": 8733,
      "rum": 8734,
      "Ġunpredict": 8735,
      "Ġcos": 8736,
      "Ġgalax": 8737,
      "writing": 8738,
      "ĠPhot": 8739,
      "ĠQue": 8740,
      "ĠNon": 8741,
      "ĠSmall": 8742,
      "Ġgrass": 8743,
      "ĠIndividuals": 8744,
      "Ġbelief": 8745,
      "enues": 8746,
      "Ġunhealthy": 8747,
      "ĠSing": 8748,
      "Ġfiction": 8749,
      "Ġfle": 8750,
      "ptions": 8751,
      "Ġcallback": 8752,
      "13": 8753,
      "una": 8754,
      "Ġspons": 8755,
      "ĠTogether": 8756,
      "Ġaccommodate": 8757,
      "Ġanswering": 8758,
      "orph": 8759,
      "Ġbranding": 8760,
      "roud": 8761,
      "han": 8762,
      "Ġfunctioning": 8763,
      "athe": 8764,
      "ĠIT": 8765,
      "Ġreflection": 8766,
      "Ġvoices": 8767,
      "ĠAlthough": 8768,
      "Ġgenerator": 8769,
      "unt": 8770,
      "Ġestablishing": 8771,
      "ĠDifferent": 8772,
      "Ġofferings": 8773,
      "Ġoxygen": 8774,
      "Ġdynamics": 8775,
      "Ġstraw": 8776,
      "Ġcreators": 8777,
      "hem": 8778,
      "ĠNuts": 8779,
      "Ġrecruit": 8780,
      "Ġlift": 8781,
      "Ġliteracy": 8782,
      "Ġpromotion": 8783,
      "aped": 8784,
      "Ġmanufacturer": 8785,
      "gments": 8786,
      "Ġseverity": 8787,
      "Ġpursuing": 8788,
      "Ġelabor": 8789,
      "abit": 8790,
      "Ġmalicious": 8791,
      "Ġmalware": 8792,
      "Ġwish": 8793,
      "Ġdressed": 8794,
      "ĠGit": 8795,
      "Ġspreading": 8796,
      "Ġfo": 8797,
      "Ġfluctuations": 8798,
      "Ġpolished": 8799,
      "))": 8800,
      "otics": 8801,
      "ĠUnderstanding": 8802,
      "Ġcookies": 8803,
      "ĠChicken": 8804,
      "Ġcaf": 8805,
      "Ġvocal": 8806,
      "Ġsocio": 8807,
      "Ġsilk": 8808,
      "ĠEat": 8809,
      "Ġneur": 8810,
      "Ġgrab": 8811,
      "åĬ": 8812,
      "Ġcow": 8813,
      "Ġrecon": 8814,
      "Ġpic": 8815,
      "Ġspac": 8816,
      "Ġtrauma": 8817,
      "Ġthy": 8818,
      "Ġgroceries": 8819,
      "Ġbake": 8820,
      "Ġalph": 8821,
      "ĠBrazil": 8822,
      "Ġheap": 8823,
      "Ġbelt": 8824,
      "Ġshelter": 8825,
      "Ġcrowd": 8826,
      "oned": 8827,
      "Ġiterates": 8828,
      "Ġseriously": 8829,
      "ĠCross": 8830,
      "ĠStore": 8831,
      "Ġbands": 8832,
      "ĠAnswer": 8833,
      "ĠMichael": 8834,
      "ĠCard": 8835,
      "Ġfloral": 8836,
      "gage": 8837,
      "Ġadvocacy": 8838,
      "Ġstrive": 8839,
      "Ġdegrees": 8840,
      "ĠWild": 8841,
      "Ġnuclear": 8842,
      "Ġdelay": 8843,
      "employment": 8844,
      "Ġperfectly": 8845,
      "Ġharmon": 8846,
      "ervations": 8847,
      "Ġcharming": 8848,
      "Ġrelat": 8849,
      "ĠAlp": 8850,
      "ĠHaving": 8851,
      "lor": 8852,
      "Ġenerg": 8853,
      "Ġhobbies": 8854,
      "Ġsolved": 8855,
      "Ġteen": 8856,
      "Ġplain": 8857,
      "Ġantioxidants": 8858,
      "Ġtrigger": 8859,
      "aughter": 8860,
      "Ġworkflows": 8861,
      "nuts": 8862,
      "ĠDeveloping": 8863,
      "Ġunw": 8864,
      "Ġcomply": 8865,
      "Ġremained": 8866,
      "chnology": 8867,
      "Ġfixtures": 8868,
      "ĠParmesan": 8869,
      "leep": 8870,
      "https": 8871,
      "Ġconstraints": 8872,
      "points": 8873,
      "Ġdesert": 8874,
      "ĠIRAs": 8875,
      "dep": 8876,
      "ĠIntroduction": 8877,
      "Ġchairs": 8878,
      "Ġpalindrome": 8879,
      "Ġrainforest": 8880,
      "Ġevaluated": 8881,
      "racy": 8882,
      "ĠGlobal": 8883,
      "ĠPhil": 8884,
      "Ġreass": 8885,
      "ilantro": 8886,
      "ĠCare": 8887,
      "anged": 8888,
      "Ġstations": 8889,
      "Ġdogs": 8890,
      "unges": 8891,
      "ĠMont": 8892,
      "isions": 8893,
      "Ġintervene": 8894,
      "Ġdiscussed": 8895,
      "Ġconserve": 8896,
      "Ġfighting": 8897,
      "Ġbutt": 8898,
      "Ġcompound": 8899,
      "Ġgreatest": 8900,
      "Ġphrase": 8901,
      "Ġsyrup": 8902,
      "ĠThailand": 8903,
      "Ġnewslet": 8904,
      "ila": 8905,
      "Ġparticipating": 8906,
      "Ġaids": 8907,
      "intensity": 8908,
      "etime": 8909,
      "Ġgrill": 8910,
      "strings": 8911,
      "ĠBot": 8912,
      "Ġconfidential": 8913,
      "Ġspecifies": 8914,
      "Ġmentor": 8915,
      "Ġirrigation": 8916,
      "rastination": 8917,
      "GPT": 8918,
      "uine": 8919,
      "zer": 8920,
      "Ġstereotypes": 8921,
      "Ġreinforce": 8922,
      "Ġelig": 8923,
      "allel": 8924,
      "Ġdivision": 8925,
      "Ġrewarding": 8926,
      "ppy": 8927,
      "ĠMental": 8928,
      "orthern": 8929,
      "Ġchildhood": 8930,
      "Ġcalcium": 8931,
      "ĠConst": 8932,
      "ĠOtherwise": 8933,
      "ĠServices": 8934,
      "Ġsubset": 8935,
      "lower": 8936,
      "Ġphysics": 8937,
      "Ġanalyzes": 8938,
      "Ġdebate": 8939,
      "Ġcues": 8940,
      "ĠChapter": 8941,
      "Ġeditor": 8942,
      "Ġexcessive": 8943,
      "LT": 8944,
      "och": 8945,
      "son": 8946,
      "inc": 8947,
      "ĠMexican": 8948,
      "ĠLG": 8949,
      "ĠStudio": 8950,
      "Ġprobability": 8951,
      "ĠSant": 8952,
      "ĠHand": 8953,
      "Ġmoon": 8954,
      "45": 8955,
      "Ġcontrovers": 8956,
      "ĠWho": 8957,
      "ucks": 8958,
      "Ġverify": 8959,
      "Ġmild": 8960,
      "Ġimproves": 8961,
      "CA": 8962,
      "ĠLastly": 8963,
      "she": 8964,
      "Ġdeleg": 8965,
      "ĠSchedule": 8966,
      "Ġinfluences": 8967,
      "ĠCy": 8968,
      "ĠTax": 8969,
      "ĠSetting": 8970,
      "Ġconvenience": 8971,
      "Ġwalked": 8972,
      "ĠMonday": 8973,
      "Ġservers": 8974,
      "Ġdut": 8975,
      "stone": 8976,
      "Ġsmoothly": 8977,
      "FS": 8978,
      "Ġtiming": 8979,
      "Ġhorm": 8980,
      "ĠWindows": 8981,
      "Ġwillingness": 8982,
      "ĠPrep": 8983,
      "Ġlanding": 8984,
      "Ġwors": 8985,
      "otion": 8986,
      "lessly": 8987,
      "ĠIP": 8988,
      "Ġpip": 8989,
      "Ġmilestones": 8990,
      "alsa": 8991,
      "urd": 8992,
      ".âĢĿ": 8993,
      "Ġhumid": 8994,
      "agrams": 8995,
      "Ġunders": 8996,
      "rika": 8997,
      "oving": 8998,
      "ĠLimit": 8999,
      "ĠLake": 9000,
      "stream": 9001,
      "Ġacceptance": 9002,
      "Pl": 9003,
      "adows": 9004,
      "Ġrepairs": 9005,
      "Ġroutines": 9006,
      "Ġstro": 9007,
      "Ġprocessor": 9008,
      "Ġinherit": 9009,
      "ĠNeural": 9010,
      "Ġcrystal": 9011,
      "Ġsexual": 9012,
      "Ġlon": 9013,
      "Ġapologize": 9014,
      "Ġsecrets": 9015,
      "Ġdependent": 9016,
      "Ġproducers": 9017,
      "Ġsupplement": 9018,
      "Ġpray": 9019,
      "unk": 9020,
      "Ġneighborhoods": 9021,
      "irs": 9022,
      "Ġwarrant": 9023,
      "Ġformed": 9024,
      "Ġpitch": 9025,
      "vision": 9026,
      "Ġí": 9027,
      "Ġdelivering": 9028,
      "íķĺ": 9029,
      "Ġregional": 9030,
      "WS": 9031,
      "Ġpunctuation": 9032,
      "disc": 9033,
      "Ġindicators": 9034,
      "Ġboat": 9035,
      "connected": 9036,
      "Ġdifferently": 9037,
      "ĠMutual": 9038,
      "nes": 9039,
      "Ġshred": 9040,
      "Ġfailures": 9041,
      "Ġphenomen": 9042,
      "chronous": 9043,
      "Ġposes": 9044,
      "ĠProper": 9045,
      "rants": 9046,
      "Ġmissions": 9047,
      "oT": 9048,
      "dimensional": 9049,
      "mentation": 9050,
      "ĠSout": 9051,
      "itives": 9052,
      "Ġprofits": 9053,
      "Ġtheater": 9054,
      "ĠAgricult": 9055,
      "Ġfiltering": 9056,
      "Ġfacts": 9057,
      "Ġdecades": 9058,
      "Ġdecreased": 9059,
      "Ġwaist": 9060,
      "size": 9061,
      "Ġcooling": 9062,
      "Ġpollut": 9063,
      "Ġexpressed": 9064,
      "Ġsimmer": 9065,
      "ĠCapital": 9066,
[...]
